3E68
032C
0113
3E64
3E41
3EB1
3EF3
3F98
006E
3E99
0236
3EAD
3F94
00F8
017A
0128
3F91
0125
3FBB
006B
0280
3DFF
3E5D
00DD
00DA
3E2B
01BA
3FEA
008A
01C0
3E79
0F22
0070
3ED9
3FD6
1420
3FBE
3F95
023B
02C7
3F8B
001F
0192
02E5
3F9A
3EE4
0000
0050
0250
3ECB
3EDA
3DFA
3E91
3F58
3E92
00A3
0105
3FB8
3F0F
3F03
007C
006D
012A
3F34
3DA4
0339
0112
0289
023A
0183
3E9E
0146
0098
017A
0281
018E
3D8C
3F3B
00BB
3E28
3EB8
3D8F
3DEA
3CEA
0292
3F1E
0196
3CD0
3FAF
01C7
01AF
00AB
3CD0
028A
0102
3F89
0077
013E
00F1
3F75
3F26
3E7A
0216
041A
3F96
0019
0063
02DE
3FA9
009A
3C44
3FB8
0244
0102
0134
0207
0183
3E4A
0131
3D28
3DB6
3EB2
00B9
013E
3F60
3FC7
0022
01DB
016A
02F8
3836
3BF7
3AE4
3C2B
002E
3C81
026C
355E
3FA8
3D57
01BC
3E0B
022E
3E92
3F27
0003
00CA
0144
028E
01FA
3C0F
3DBF
3D27
3C17
3FF3
3668
016F
01D3
012E
087A
01D8
3B64
3D88
00CB
01A1
3E94
01FD
02CA
009F
0200
0166
02EA
00FB
3CDC
01D1
3F7B
0283
3EDA
3DCD
3C11
01A8
0129
01AA
3D6E
3F1F
0101
3D24
3B33
02F3
01F3
3F0B
3DFB
020F
02E6
0081
0169
0141
0118
3E3A
0016
3E60
00C0
024D
3B72
0327
3EF1
3FE6
3E17
012F
0246
007F
01A2
0273
3F88
0168
3F65
0135
00FB
0253
0099
0192
01CC
3DBD
3E8E
3EF4
00A1
3F75
3F5D
3CC2
00D6
0385
029E
3F13
02D1
0321
0156
3E66
016D
02BD
3F17
0245
00D1
02EF
019E
3D67
0056
3E2E
01BD
3E5B
01D0
009E
0084
3E6A
02B5
3FAA
3FFB
01E8
0117
3CEB
3BF2
3D22
3D87
0260
3D78
3EB4
003C
0287
3FBB
3C8E
01A8
0010
019E
033E
02D7
0056
02C5
00F6
0263
3DB8
0105
3C84
3DB7
0161
38BE
025A
01B7
0143
3E44
3FA1
000B
3F58
3094
3D6F
3ED5
3E5D
3FC6
3FFF
0073
3ED6
0105
0292
3EDA
3C91
3ECD
00CB
3D8B
3CBC
0087
3D32
026A
3D09
01ED
0283
3AA6
3C09
009E
011C
3EC1
0256
0307
00C2
00F0
3CC9
00A4
0057
3E80
3CFB
0235
3E9C
3FAF
026E
01BA
3CE3
0340
00BD
0317
0242
3CF1
00B0
010E
009D
01C0
005D
0255
3A78
3FE3
032C
371C
00CB
0058
3FA2
00AF
3EA1
3F1F
01BE
3BA9
3A61
034B
001A
018D
026E
3FE4
0211
02CE
3D92
0014
3A9D
3FAF
00BF
0041
011B
3FD1
3DF6
3E5F
3EA8
00DB
02E5
0230
3FBC
3D62
010D
01C8
006D
3F61
0411
3E97
3E79
01BE
3D5A
3FEA
0282
3AA7
011D
000F
00BE
3E9D
0374
022E
37F4
0136
3F41
3DC3
3B09
3F8A
3D05
02FE
3E99
000B
004B
00F7
01A2
3FF5
3FE1
3EE7
3ADC
013D
00C0
3FF2
3A0D
3FCE
3F51
0035
039C
0241
3958
00B2
0177
0336
010F
0096
035C
3B0E
0129
0180
00C1
00F1
025C
00E9
0207
3FF6
3F4A
3CDD
01F2
3FB3
3F34
0018
3BAC
3E0D
3A43
013A
00A5
3D8A
00CC
000F
0052
0221
014F
00E9
028B
026F
0389
029E
0159
3E72
0111
3ABD
0332
001D
00BD
0257
0058
3CF0
0251
3E86
0464
3E36
3FEE
0069
03BA
01B3
022A
3FA3
03E1
3FF4
3EBF
0104
0367
03DF
02F9
0236
0041
02B3
0202
00D4
028D
01B6
022B
3C3D
0104
025A
0373
029B
0262
3F5F
3FA6
3CC2
3F2F
3E92
3E22
0020
38AB
3D9E
018A
0331
021C
0183
0000
3F3A
0140
0162
3E77
0139
024E
3DD2
3E2D
3C5F
0181
3DCA
00C1
00DC
3B7F
3FAC
03C2
01F7
001C
3CC4
0321
0035
004B
3C90
0013
0201
00E0
005D
0088
0067
3AF7
0070
02D9
3EE2
3F24
3ED8
3F2A
3770
01D9
038A
0208
3FE7
3DDA
3C15
3E39
0178
0047
3AA3
0160
0234
0044
0017
3E6F
3F59
014A
3FD5
3E9C
0055
3825
007E
01E8
0360
0187
3EEA
3DC3
0005
3E7B
0268
3FB5
0157
025C
0153
3E96
3C72
0089
3F53
00D0
0379
3F54
0087
047F
01B8
3DF3
0095
0242
3F97
012A
3F87
3F7A
030B
3BEC
3EF3
3F24
00F0
00F6
0024
05C1
034F
3E26
3EC6
002D
0393
004F
0376
3CF6
3F51
00D5
0017
3F2D
3A1F
0027
01CA
0116
3FC0
00B1
00DE
005D
0149
3EB4
3FE2
014C
3FC5
3FFA
0030
00F2
3EC3
024B
3CC5
00EA
3E15
0324
38A8
3E4C
0175
3F9A
004F
0167
03D5
0104
0304
3F3C
021F
3B8B
3F39
3DEB
01F0
007D
037D
0263
000B
3F0C
3F1B
3FE0
3F68
0398
3FB6
3E24
000E
3E97
0143
0247
3A6E
3F86
002A
03D8
3713
016A
0120
0315
3F58
0043
3BA9
01CD
0272
3F37
3A83
3EA4
023D
3EE6
00D4
048C
02BA
0083
3E88
3FAC
3FDD
3DDC
0332
0311
00A0
3FE1
0101
3FAC
009B
3D83
0208
3F14
004F
001D
3FC8
00F9
02D0
008A
0163
3EFD
3F66
0183
3F76
3FD7
001F
3EB6
3E42
01DE
3EFE
00B2
0122
3FBD
3EF6
3E4F
0195
0292
3F95
01CA
3EF1
003A
011F
01EB
027B
3F89
028E
3EB8
012E
3AD8
0256
3F27
030C
0182
3D8B
0198
052F
012A
01DA
00F6
3F7D
0131
3EED
3DED
0099
01FC
01DA
0006
00DD
3B17
03A8
0075
3B01
3F2C
3C8F
030C
3F8A
00DA
3ED9
028F
3C29
3BEE
01B5
02EE
3FC0
3FA7
0431
3D30
3FC3
02BB
0231
3EB6
3E66
035B
3F79
051A
3E2B
3FDD
0226
0332
3FCF
0263
0001
3CDC
0174
001B
3DF9
0548
05C9
0256
3CF1
03AA
04D1
0293
3D77
03E7
3C8A
0277
0099
3FF8
3C6A
0263
0205
0016
0039
3E40
3F9F
03A7
3BBA
0131
0074
3FF1
3EB1
0439
015A
0140
0562
02BE
043E
02BC
3E35
001C
3F55
04F8
01DB
3D01
02FF
3E88
3F14
0236
002A
00B9
0001
008A
02A5
02E7
3FCE
3D7C
00EE
0441
3BAA
3FDA
030A
011F
3FB0
3F54
3FBD
0160
3EDC
3B92
3F40
0375
05B8
00AE
3E78
3EED
3FB9
3FCD
3FDB
03F0
01C5
0438
0468
3E57
3EE4
011F
0103
3CD3
0022
0025
0109
3C94
00D0
00A5
00C1
3F80
3D3E
02E9
03B7
01BD
3F3A
3DB9
3CA9
3FDE
3EA3
3FCC
0083
0308
3EB6
3EE7
3FBF
026B
0051
0194
00EB
3F25
00AB
0356
0030
3E6C
0122
3FA7
3C85
02DB
00E6
3FC7
0101
01CA
3DA2
3E3E
3FEB
00BC
0017
01EE
3E82
0142
0151
3FF4
013B
3A20
06BB
012C
0146
013C
01FD
3ECB
3A0D
3FE0
00A6
00C8
3EC3
007E
00B8
0079
027A
3F61
3F5D
0001
015E
3FBF
005C
0184
0340
00E4
01F1
01EF
0154
3E6D
3E8D
0071
3FE6
019F
01FA
3FB5
0397
0095
01D9
0225
00EC
0084
0018
02E7
3E03
00C9
0050
3FC1
015F
0314
01CA
003F
022F
02B8
3E14
3EE7
0096
004F
0004
005C
3F8B
030A
04D2
01C9
3F9E
3FD0
0216
3DE2
3F0E
03F0
3F43
0377
026A
3E75
3EA4
002F
3DC0
00A7
3F86
02A2
00ED
011D
0044
3EFA
0067
3C86
00B5
3DAC
0097
025C
3E4A
00CB
0273
020A
0085
3CE0
3D44
027E
022B
0476
3E17
3F6D
3FCD
012A
0341
3F79
01AC
0301
0152
009C
3E21
001D
01B1
3E7A
0242
01BB
3E93
3E73
3EEF
004B
0176
0263
3F6E
3E3E
3FE7
3C65
0248
015E
00C6
0015
02E3
0518
3F3E
00DD
011B
3ECF
01B9
3F45
0089
3EA5
3E26
029D
3F2F
03F3
0326
3F5E
01AA
0130
3F0B
3E22
0420
03FE
0271
3FE6
0356
007A
0019
005B
018D
0027
00A9
03C4
03C7
018E
0383
01C1
3FBA
01DA
00AF
0283
001E
01E7
3F49
00CB
3EF4
3F92
3F74
03AE
3F26
0025
0188
0339
3F6D
00BF
0076
04CC
3F8D
3EF8
0171
0373
0624
0392
3D77
3D12
0201
3E76
020C
01AE
01BD
03A7
3E4A
3F8A
0333
005A
0119
3F68
0038
0214
3EC0
0254
3FEA
3FAF
01F1
3EB4
3DEE
3EB5
3F6C
0083
3E16
3BB0
3E7D
00CC
3F7E
01F0
00C1
3F54
3DF4
016D
000E
00AC
01DC
016D
008E
0042
3E98
3EB1
0079
3D3A
0085
3F91
3F4E
0204
3ED6
3FAC
3DF6
3C4D
0000
0174
3EC5
010A
015D
3DE7
3FFC
3FF3
3F44
3FDD
3EEC
3B2A
036D
0224
3FBD
3A70
3D87
3FF6
3D8E
3FCD
0081
00E4
02C9
3F2E
006B
3EBC
3FFD
0029
3EF7
3E38
012D
3D08
3D5D
0126
07EF
3E94
014C
0286
02D9
3D5B
030A
0029
3D4F
0817
01CE
021A
040E
3DA9
04D8
00EE
03A3
037D
3EE4
074D
3CA8
0031
3DFA
3FA6
3F9B
04CF
01F4
008A
0755
0086
3EE4
02BE
3F0B
00AC
3B6D
3FB1
03ED
043F
0950
0026
02C0
016D
03A6
3B43
3F14
00E3
03B7
0636
01E3
3E7A
3FD9
0022
00E9
014A
3EC2
0507
3A91
3F70
010B
3FA8
3F59
3BF0
3C87
3FA6
3F38
01F1
3EF3
3E7C
3EAE
011A
02EC
006C
3E04
00C4
3D3E
017B
022E
0245
3FE7
3E5B
3F3A
010C
3F60
3E21
02F7
3EF9
3E9D
3DA3
3EC0
0225
0088
006F
02B8
3DE0
0091
3DE7
3F43
010B
3FFF
3E61
00C1
0131
3CDC
00DD
0121
3DAF
3D2B
03C9
0050
00B8
0075
0320
3F2A
005A
0186
0267
0121
3DF3
3C8C
3ED2
3B3D
3E38
00C0
3EC9
00C1
3DA2
3D4E
3F8D
0354
0108
031E
02DB
02BF
3CD0
0040
3C8E
3E56
0225
0287
0193
01D3
3D35
3D55
03F2
3980
0070
0053
00D0
0352
0364
016A
3C24
01D7
0243
00AE
3F83
3FFF
042F
3F9F
3DAC
0155
3F30
3D52
3E89
3F6A
3E7B
011D
3FBB
3FCE
03AA
0572
3CF5
3FDD
3CC1
0017
0249
02D0
0013
3FD9
0001
01D2
3E69
00BA
0431
0102
049A
01AC
007B
3F3B
3B76
3F44
3F47
027E
0105
3CAF
3FFA
3FAF
3F20
00AD
3E5C
3F2F
017B
000D
3EAE
0208
3FF4
3F40
0030
3BCA
003E
023C
002D
0311
3ECE
00E2
3EE7
3EBA
020E
00A6
017E
3F34
3F2E
008B
3CED
3F1E
0036
0087
3CC5
005A
3E23
0126
0078
011D
01AD
0368
04AF
3F11
3F75
00C7
0193
3D8D
3EE8
3F28
024D
023F
3CE2
01C2
026D
3F51
3EAD
3FB9
014A
003A
3D0D
3EF1
01B7
039B
011C
3FAA
0178
0018
3BD8
011B
3F27
00F2
060B
3FB7
02CC
040B
3FD1
021A
03B2
3DF1
3FEF
013A
02A4
00AA
3FC4
019B
0078
0067
04A7
019D
011B
049F
02AF
0089
3F95
3F6A
3F0C
3F63
3EC7
00D4
03FC
05D7
004F
0306
0275
0208
3CCF
3F90
01D7
0044
032D
0003
3F17
0057
00BB
3FF2
3D78
0171
024E
010C
004D
003E
0191
00FA
3DB1
3F24
3E9B
3DFF
03D0
3DED
3F65
3F27
3EEF
3E66
3E4F
001E
3D39
3DC9
01F4
3F9C
3D66
3E4E
3FAD
3C18
3E7C
00D1
3F90
0463
3E82
00B5
3F50
3FF9
3E5C
00BF
3FA5
0252
3F4C
02E2
3EBC
3F34
3DAD
02B8
0148
3FDD
01D1
00AC
3DA7
3F4D
0089
0007
02BE
3F12
001C
3F15
004E
3FCD
3F12
3DB7
3D71
0427
3E20
3FBF
3F6B
01E2
3FCA
3F8C
00FF
3FAE
3CC0
01F9
00EA
0175
3F92
3F9E
0110
0078
3CA2
02DE
3FDF
0101
0372
0053
01C1
042B
0246
3F44
03F6
00F5
3E49
3F26
00F7
0035
005E
0113
009D
0036
050F
0281
0023
03AB
029F
013B
0052
3F96
3F63
00C8
0042
0116
0433
0490
015B
0273
05A7
00DE
3DA8
0173
015D
3F50
0376
00CF
00E1
3EF0
01C1
00CA
3EB0
3FE3
01C3
00BF
0085
009D
0028
02A1
3D96
3F74
3F49
3F41
3CD9
3F43
3EB9
3ECD
3E0C
3F12
0122
3FF6
3EDB
3E59
3F3F
3F76
3F36
03CA
02DA
3EE9
3B9A
00B3
3F79
0227
3F2D
023F
0044
3FE2
3EE7
00E6
3FBE
3E2B
3E28
3FB3
3F45
3F80
3D12
0342
02B6
3DD7
005E
3EEE
3DFE
3F1F
3DE9
0323
02F9
3E92
3F01
3D12
3EF1
3F21
3EC7
3ED4
3E9C
0465
3F4B
028B
001F
04D0
3F0D
00B5
0004
3E5B
3B15
3EDF
3F3B
3E4C
3EC6
0058
0289
0008
3D8B
0121
3DB0
0189
0427
00A3
3F43
0158
02FD
0155
0293
3F8B
3CD9
3DCD
3FB0
3D4F
0190
01EB
3E0E
0192
0350
0335
3E14
02AC
0207
3D42
3BA1
00E1
0012
3F78
00F4
3E96
029A
0230
010F
0113
058E
3B36
00F2
0205
01FA
3EBF
0389
0140
027A
0256
3EC8
3F6F
3FD9
3F86
003A
0070
02F9
024F
3F6E
039F
3C6D
0025
3FA9
01F2
3F7C
0044
030E
0033
3C05
025D
0084
010E
0475
01A3
00D7
032B
034B
027B
0160
0282
3BCA
00C9
01AD
3F88
00E4
0239
01D9
0150
03E0
02E1
0090
03B6
0312
3FE2
3FBB
01FC
3FEF
002E
3FFD
3FEA
0356
0365
003B
3D2C
0532
006F
3E2B
0136
02AA
3ECA
03C4
01B8
02BE
3EDE
024F
3F78
3DF2
0045
3FBD
0091
02B9
019E
009E
00FA
3D44
0032
3FC3
04C9
3DF6
3EC6
00EA
3F09
3CCB
0226
0073
00BE
0608
3E3A
011A
057D
01D3
0199
03EE
3EC4
3C92
0018
0362
0449
3F6A
02CB
00F8
006F
0578
0221
00A4
0568
01EF
045C
0338
0009
3E37
024A
3E4D
3ED9
04B8
061E
017C
025C
00B0
02BC
3FAE
00B9
0281
3E81
02CD
3F81
3FA3
000D
0114
0390
0046
0036
01F0
019B
3FDD
0147
3F3B
0251
3C38
3FCD
3F6C
012B
3DEB
00C0
0161
00F1
00FD
3F7F
3D9B
3EE3
03A1
00E3
0268
0453
0005
036E
01F8
3CCA
0167
01DB
0362
3D57
00E8
3FA1
3C0D
3F6E
0265
3F32
00DC
03DE
00AD
0049
02A7
3F68
0131
3FE9
3E13
0094
038A
0512
3FE6
00A9
0273
3EF1
0076
008D
0380
0121
03D4
014B
00B7
3FCD
3E90
02B2
3F51
3C12
01FF
3BFD
00F3
3FA7
0133
010F
3CA1
3CCF
0002
0022
3F49
01C6
0261
02DF
00FB
026A
3D0C
0052
3F94
0209
3FFE
3F78
0175
3ED2
3F45
0020
0047
3F5A
3FC8
0180
0223
3CE8
3F14
01A3
0031
0196
3FDE
0056
01F6
3DD9
3F0B
0299
0250
3EB0
3EB1
01EA
006A
012A
0271
3F98
0099
3E09
3F35
02C7
003A
01EE
00B4
02A2
0273
3FE4
3E56
3FAA
3D8F
3E2A
0126
3CAD
0224
020F
3D89
00F9
3D9D
00FE
003E
0035
00C2
01E3
018B
014F
002C
023E
3CAB
3F96
02C0
00F2
0234
0431
0147
00FB
0315
3B5C
002B
0245
039B
0123
3FAB
003F
3BCC
3F7F
0291
3D95
01CE
029B
0158
0037
008C
3EAA
005C
3F22
013A
0037
03FB
0537
3F85
3FF0
01C4
3E48
006B
00AA
03D8
00D0
02ED
014C
010F
3F5F
3E03
02B3
3DF8
3C9F
0352
3CBD
0153
3EDF
3FC8
3F2E
3C9F
3DCF
00C7
0146
3E38
0074
0368
038D
0380
000F
3E17
3FA2
00D9
022A
002A
0116
02F6
007F
00ED
3D41
044B
3E82
0027
0139
0298
3D15
3E83
01CC
01B3
0221
3F20
003D
01CE
3F6F
0007
01A0
03A3
3E40
3F26
0244
018D
03EC
0298
0068
0379
3ED4
006D
0277
00A2
03C2
018B
0420
03BC
020D
3DAE
3FBB
3D91
3DDE
0190
3CF0
01DC
01BD
3CE5
02E1
3DB2
3E2C
0153
00CE
3FEB
0300
020F
01E5
0127
01A8
3DF6
0007
0179
3F95
0072
0136
01DC
011F
0114
3C70
0110
00E2
0041
3FAD
0143
3CBF
3CD9
0118
0146
00A7
3FC5
3F45
3FA8
3FFF
0129
002A
0015
3FB0
3E9B
00FE
00D2
01FB
010E
3F11
0221
3DA2
3FC9
018E
016A
019A
0143
0174
00E9
3F2A
3F24
0056
3DF1
3BAA
018F
3CC9
0146
00CA
3EE4
00C2
3D62
3C7E
00E8
02C6
3FDF
0073
0252
021E
01EB
009F
3DEC
3EE5
03B0
00BE
3FE0
023E
00CA
00DD
01BC
3E43
03CA
3FD7
0289
0023
016C
3E18
0001
00B6
02A0
013A
3FF9
0216
0021
002B
00B6
00A1
0232
3FA0
0037
01A6
02D2
03F4
005F
012D
0252
0002
3F62
01C1
01C1
0123
024A
0297
0232
0133
3F69
0028
3EE4
3E02
019E
3CFB
011C
01D2
3F03
0183
3E1E
3DCB
3FB5
00B5
3FBD
3FAE
0218
01B6
030C
3E90
3E82
0045
022C
00B4
3F83
00E2
00E7
00E2
00FB
3E0B
3FD8
0020
3FDD
005E
0193
3CA3
3E34
012F
01BA
012A
3FD5
00ED
00BE
3FFF
015D
007C
00AD
3FD9
3FD9
0099
009D
028A
014B
3F46
018B
3F33
00B9
0193
00C2
01D5
01A9
0272
013F
3F2E
3E98
0027
3E59
3CE3
012E
3D87
0085
00B1
3F82
00A6
3D8F
3D40
017A
01A1
00C2
014B
3F81
3FEB
3FF9
001C
3FC7
3F2F
033E
3E5D
0053
0254
3F7D
01F4
006D
3E17
3FB2
3F33
00D0
00BC
3FF2
3E97
3F4F
3FB8
01AC
0055
00B6
01AC
3F32
00A9
3FBD
0037
3EE2
0151
008B
3F77
0242
02D2
3F57
3F63
00D7
3F4C
3F5B
3FE2
0290
0047
017B
00AE
007E
3EA1
006F
0114
0024
3E88
00EB
3F66
015D
001F
0002
0032
3F7E
3DFF
3F66
00E4
3ECA
3F2A
3FF8
006F
00C2
3FAD
3F73
3F74
01D2
3E9E
3F68
01EF
3DEF
0347
01AC
0002
3FB3
0149
3F31
004F
3FAF
3C8B
3F8B
3F9C
01D9
3FE1
014B
0095
3EF7
01AE
019A
3FE6
3EDE
0149
3F6D
3F11
0166
01D8
3E65
3F0F
3EC5
3F73
00A2
3F37
0191
3FAC
015C
00BC
3F26
3F00
3ECD
00D2
3E78
3D4A
00A0
3EB1
00CF
003C
0257
3F4F
3F96
3E16
01A0
01B1
3F4E
0120
0032
0128
00A0
0053
3F66
3FD1
0325
3F77
0001
013D
3F6D
008E
00FD
3EA7
007A
000E
0044
00FD
0023
3F1B
3EFE
0090
0196
3F27
0054
015B
3F40
0051
3FAF
3FDF
0037
0179
3FF2
0065
010F
017F
3FDD
00E4
0266
3FF1
3F69
0061
005E
00B3
001B
013E
005E
3F7F
3FBB
0150
3F3B
3EFA
0167
3EBE
3FF2
006D
0049
0037
3ED7
3EFE
3FB8
0189
3F07
3F8C
3EBF
3F82
3FD3
3E1F
3FED
3F8E
01B5
3E32
3F74
0185
3E81
0234
00E2
3F8F
3EE0
00C4
3EB9
0083
3F5C
3EAA
3F2E
3FB4
011F
3F52
013E
00F4
3E7B
0187
004F
3F42
3D63
0156
00C4
3FAB
012C
0192
3E8B
3F4B
3E83
3FF8
3F57
000E
0185
3F1C
005D
3F12
3F47
3EAD
3EF8
013A
3FB6
3EC6
0156
0080
3F77
3F87
01E4
3EF1
3E13
3D08
3FCC
0248
3F5E
006B
008F
0083
008C
3FD5
0084
3FA2
02E8
3F5D
3F77
01DA
3EE6
01F3
022B
3E78
0047
00E5
3FA0
0013
009B
0069
3EE8
00FC
02CF
3F35
3FB0
023A
3EEB
0086
3FE9
3FB1
3F64
0057
002E
3F6D
013D
0293
3F6C
007D
0032
3FA7
003B
00C4
00C3
0080
00EC
018E
00B5
3FA3
3F53
013C
3FC8
3F14
01FA
3FD6
3FF8
3F91
009F
0009
3F12
3F06
3F79
009E
017D
009B
0012
3F94
3ED7
3F71
3F49
3F67
0238
3EA6
0045
01CD
3EBE
0293
01DD
005B
3F74
01F1
0168
3FD9
3F3D
3D66
3F46
3F4A
02CC
3F5E
0098
0130
3ED8
00AD
01FE
3F45
3E96
0338
0291
3DE0
0193
02C1
3FB4
3F3D
3F15
0116
3F27
3ED1
0286
3FFF
013E
3EFF
3EF5
3EB9
3E82
0143
3E7F
3D2D
027B
3FBF
3EE3
3FAC
0155
3F1F
3D82
3EE5
3FFB
0264
3FA5
0009
0010
3FEB
3FB2
00FE
3F4B
3F59
0323
3F22
0017
0242
3F34
0314
024B
3F04
0011
00FA
00E5
0057
3FCD
01CD
3F67
3F8B
02E0
3EDC
0016
0216
002B
0109
01A8
3F6F
3F90
0148
0072
3F38
0060
01AC
3F05
00B1
0030
00BF
0060
3F64
016E
001D
0027
0082
3FA6
0056
0063
01C3
3ED4
01C6
022B
00A8
3FCD
3FD0
0178
3FA9
3ECD
3F31
002A
00B9
3F1A
00C1
007A
0023
3FBB
3F88
3ECA
0032
00B2
3FB8
3ED7
3FF9
3F46
023A
018E
3E9F
3FFE
0080
3DA2
0080
001A
3DE7
3C46
3FEE
0197
0001
3FC0
0089
3FB9
003B
00EA
3FF9
3F35
008A
00E3
3FE8
0038
012E
3F65
3FC7
3F67
00F3
004E
3FBF
0092
0005
3F91
3FB3
3F34
3FBC
3DCF
00D1
3D96
3DEC
0195
3FEF
0012
0011
3FC1
3FE9
3E28
3D10
3F9A
01E8
3F1E
00BB
3FE9
005B
3F35
011A
0230
3F79
3F71
000F
3FD0
0036
0146
0012
0106
02AE
3F4F
3E3E
3EF7
3F3F
3FB2
0003
3FF9
3F8F
0122
3FCE
3E66
029E
0055
3ED3
014E
3F73
003D
3FEC
02C2
0064
0344
0060
3F8B
3F90
3FD8
032C
3F70
3FB8
01B7
0049
3FD4
005B
00A0
001C
3FCE
3FC5
0191
3FAC
0005
02BF
3F33
3F65
3F65
3E73
3E5F
3E9D
3FE6
00E9
00B2
3F6F
010A
005A
3FCF
0098
00AF
3FCB
01B4
00A0
0070
0020
3F62
0209
0158
0148
0070
0089
02BD
3E7E
3FE3
000A
3CCE
0026
3F4D
3FE9
3FC0
3F75
3FB6
3F23
00AF
3F3F
00AE
0147
3FF7
3FE8
006E
0260
3F34
3FCC
3F5E
0049
0137
3FAD
0200
0055
0067
000B
3FBA
0044
3DF8
0166
3E50
0078
00F3
011F
3F80
3FEE
00AD
002E
3E4F
009B
0079
00CB
3F22
3FF9
3F63
0040
3FE7
00EB
3F8A
3F58
01BA
0018
3FC0
003E
002C
0149
3F05
3FD3
0084
3F8E
0125
00AF
3FA5
0007
3FDF
3FD1
3F63
3FC9
0119
01EE
3FD2
0068
3F60
3F8D
00A0
00C7
3FFE
012E
00C8
0062
3F65
0080
0048
00AF
3F77
3F63
3FBA
0016
0113
005D
3FF2
3FD0
3E83
0083
3F0B
3F59
3F2C
3FDB
3F80
3FA6
00A6
3F87
3ED8
3ECC
0020
00F0
3EDD
00DD
0016
0009
0046
3FE6
3E98
0052
3F69
3FC6
3EE9
3F47
3FD7
00BB
0002
3FD7
009C
0069
3D90
006A
0018
3DAD
3D25
002B
0022
0020
0058
0083
3F6F
3FC2
3FA4
0062
00DC
3FCB
3F1F
009E
00B1
0034
3FAB
3F78
3F23
0159
3FF6
0043
3F0B
0102
3F64
0042
3FD2
3FDD
3DFE
3F72
3E13
3DFB
3FFD
3FD8
3FCE
0026
3FDA
3FBC
3CEC
3CB8
0071
0113
3F94
00E3
00A2
0088
00F9
023E
0158
3F78
3EBD
3FFF
0064
0025
007D
3EC4
3FAF
3F77
02D6
3F5B
3FF6
002C
004B
0045
3F8E
0023
003B
3FF8
3F3F
004D
3FD7
3F26
3DAA
0027
0193
3E5F
3E56
01D3
0134
008D
3FA2
027A
01F0
004B
0169
0035
3F2A
019E
0005
0045
009E
0200
0004
3EB0
3FCF
3FB5
0003
0152
002B
008B
3F81
00C5
3EEC
3FE5
008B
00B5
3E95
3FBE
004F
001B
3FB4
003F
3F18
3F9A
3F7E
0029
3F91
017A
3FB5
00E9
012E
01C3
3F71
0055
3E9D
0046
001C
3D5A
00CB
3FE9
017F
0016
3F92
009E
3F9B
3FBD
3F33
3F62
000F
00E0
01AE
3FD9
00AD
00A2
3FF7
3F9A
3EE2
011C
3F61
3FE4
0177
3F8F
3FF4
0029
3FEF
3FB4
3DBA
3FFB
3F33
008B
3FC4
3F36
3FC3
004D
00A1
3F23
3D0F
3CEF
013E
00AB
3F6D
00C6
3F8C
009C
003E
0120
3EAF
3FDC
011C
0055
3F7C
0029
0003
0067
3F22
3F93
022E
00BB
3FE4
00A4
008B
3FA5
3E74
0053
3FCB
002E
007B
00FE
0039
00AE
3F7C
005D
0055
004A
3F5A
018C
00E2
003B
3FFE
00BF
00C9
00F3
0008
0087
3EBE
01B8
006B
007E
3FE0
0144
3EBA
0075
3EAD
3F32
3FD3
3FB4
3FD6
00E7
0048
3F80
3EE2
3F94
00B3
01C0
0058
01A6
017D
0128
00EE
022A
0030
0096
0109
0071
0132
3FCC
0030
3E6B
0097
3FFD
019D
3EF3
015C
3E9C
00AC
3DB5
3F7F
0065
0124
0008
3EA3
019A
0020
3EEC
3F9F
00AD
0152
3D8D
3E77
010F
0209
0299
3FA3
00B7
0104
010E
0110
002C
0096
0139
0143
00E8
00D9
01C1
3E00
3D9E
3E4A
3E3D
0179
0020
008D
00E2
3EC7
0130
3F92
3E4C
3FAD
006F
3EC3
0036
3F64
3FF9
0032
004E
0094
002E
3F85
3F37
3EF0
007C
3FA9
01DB
00E1
00CE
0118
0088
3E60
010B
3FE0
3FC0
00AA
3FAC
000A
3F94
0070
00B3
3FD0
0062
3EA5
3FDD
3FCA
0054
3F06
3F68
00BC
3FC6
3F41
00AF
002C
005E
3FE4
3F4C
0011
00BF
0012
0053
3F50
000F
3EDE
3FE3
3EA3
3F19
3FFE
0041
3F42
0009
00B8
3F78
0087
3E91
3FE8
00A9
0190
3FB3
014C
005E
00B7
0062
3E86
3FF9
3FFF
010E
3F50
3FEC
3ED5
003C
3F6A
3EF1
013E
0006
0143
3F6F
0007
3DAF
3D7F
001B
3FC2
0121
0045
004F
00B1
3F21
3F7F
0042
008F
0036
0192
006A
00A1
01BB
3F44
0115
3F64
008A
004A
3F8A
0015
00EC
00BD
00AB
0069
011D
3D3E
3E37
3E24
3D5B
018C
3F43
013D
3FDE
3EEC
0027
3DCE
3E4A
0003
02A7
3FC6
0058
3FAB
3F2E
3F25
0078
0199
3F4F
03A1
3F8B
02C8
3FDD
3FB2
0198
01AF
02F8
3FBC
3E44
0301
3F71
3F3E
00BD
02D0
3FD9
0257
3F7F
3F70
036C
3EEE
00DE
024A
3FF7
006C
00A3
0202
0048
009F
3F75
3F5B
3F8D
0080
0204
3F78
3F65
0244
0026
3F7E
3FB3
0001
0064
0200
01B5
014B
009A
001D
0012
3F87
0047
0059
3EBF
3F1F
3FB3
3FB7
00C3
3F26
0023
3FE9
3F9D
0039
3FFF
3EDA
3FF0
3FA3
002B
3EE2
3FCA
3FAC
01D5
3F65
002C
0027
0001
3DD9
004E
0007
3D96
3E1F
0004
3F47
3FFF
0178
00EB
3FDD
004E
0006
3FE2
001B
3FFC
0000
00D2
3FEC
0007
3F69
0022
3EF5
00BD
3FA8
3F7B
3EA9
3FAD
3FAC
3F8F
3FA7
3FAD
3D4F
3FC5
3DF3
3E49
3FBF
3F1D
0011
3FC6
00D5
3FAB
3D57
3CC8
0060
00C3
3F77
3FB2
0020
0022
010E
00CD
0093
3FB2
00B8
3F82
3F91
3FC6
3FB2
0135
3F7E
3F47
0138
3F6E
3F96
007C
3FA4
3F2E
0018
0024
3FF0
3F6A
0005
01C4
3FCC
3FE5
3F80
3F8A
0071
3FA2
0001
0055
015E
0075
3FC6
00C1
006E
00C3
0179
3F4A
3FAE
0037
00FD
0065
004E
0046
3F3D
001B
3F60
3FAE
0063
3FE4
3FED
0037
006B
3FC1
3E6F
3E9B
000A
009E
3FDE
01B6
00B1
3FD5
0016
00BB
3FDD
000B
3F62
3FBF
3F4F
0212
006E
3FD4
01E5
0167
00CF
3FE9
3F78
0024
3FF8
3E22
012B
000A
0209
0028
3FD0
004B
000C
3F73
3F33
0039
0085
3FA0
0195
0027
00AE
0061
3FC7
017D
01A2
0104
00A7
3FBD
0145
00AB
3FEC
3F9F
3FD6
0128
3EDB
3EB9
3F58
00FA
3FF4
3FF1
3FE1
3FA6
006B
00AC
3E03
3E30
0104
0109
3FD4
0066
0075
0111
0149
0164
3F75
0075
00F4
0024
3FC5
3FEF
3FA4
3F87
3FB5
3F05
01F6
3FEF
3FF6
00A5
00F9
3FCA
3E65
0041
3FF0
0009
3F4F
0107
007C
3F9C
3FA4
006F
013A
3F81
3E95
020C
0074
00B3
0028
018D
022F
00B2
019B
00E3
3DEF
01AA
3FB9
008A
009F
010A
3EAE
3F8F
3F14
3F42
0057
3F99
00DD
0150
3F80
0088
3F3E
3F4D
00F0
011E
3F0A
0097
3F79
3FE1
003D
00A7
3E58
000D
3F46
000A
3E9F
3F80
3F57
0154
3EF4
3FAE
00BF
00CC
3E7A
00F3
00A9
3D8B
3D9D
0077
3FB0
00C2
00C9
0077
3FDE
0039
3F22
00BE
3FB2
3F51
3FD3
00BD
00D6
0007
0017
0085
3FAC
0179
003B
3FD6
3E9C
00B1
3FCC
3F64
0031
3FFB
3DF4
3EFB
3DBF
3D26
006E
3F4C
0003
007C
007C
3F3F
3D48
3D23
0045
00A4
0013
00F2
00C1
0002
00E8
01B9
010E
3F8E
3FA9
003F
3FCF
0050
3FD5
3F2D
3FB4
3EF5
0181
3F7B
3FEE
3FE6
3FFD
000A
3FB9
002B
0005
3F5C
3F0D
00A8
3FBF
3EE6
3EB7
0038
00D1
3E0F
3EAC
0183
0113
00A0
3FC9
01CD
01C3
0041
0178
00A0
3F6F
017E
004B
3FB6
00F9
01F9
3FCF
3E30
3F47
3F70
3FE2
0191
0053
0089
3EF1
00C6
3FAB
3FAB
00AC
0081
3EA1
005F
0045
0067
00E3
0006
3EB7
0006
3F41
000D
3EED
3F6B
3FB9
00DD
3FAF
3EA7
0128
3FF1
3E08
0023
008C
3E15
3C31
00AF
3F48
0065
002F
3FB5
0069
3F6E
3EA9
00F3
00F2
3EA7
3F23
0186
0027
0044
3FC4
00A6
005F
0089
004B
0042
3E0A
0184
3F42
000E
004C
0120
3D31
3F46
3DE4
3D48
000B
3EFC
003D
0012
3F8E
3FDF
3D38
3D67
3FAD
0070
3F8C
0085
3FFD
3FDB
0026
0054
3E57
3FAE
0243
0000
0115
001D
3EEE
0270
00B4
018F
3FB4
3FD9
3F17
00C6
0034
0015
00D0
0019
00D5
3FA1
3F57
0207
3FBA
3FAA
0109
0001
00F5
0061
00BE
3F71
3FCE
3FC6
3FC0
0011
001D
008E
010D
3F57
0076
3FE1
3FF8
0094
3FBC
0031
3EE5
010D
3EA0
3F26
3F2C
3F98
002F
3FD0
0061
3F99
007A
3F9D
015B
0136
0215
0246
00BF
0096
3FD3
0051
3FB3
00B6
3EAE
008D
3FD7
3FE4
00A1
3F7E
3F07
3DF7
01B4
00A1
0144
003D
003B
3DF4
3D20
3F87
3FC3
3FF7
3FCC
3F83
001B
3ECB
3E24
005D
010A
3F8E
007F
0120
0110
02F0
3FC2
02DD
0098
3FF0
3FFD
0051
00F6
0195
3FBD
0010
00C8
01CD
3E33
3D68
3E7B
3DDB
018C
000E
0032
002C
3EA4
00DF
3E12
3DE3
010A
008E
3F82
0037
3FFF
3FF0
00C7
004C
0085
0069
3FB3
3FD3
3EE7
0013
3FDC
00C0
3F20
3F64
0056
006E
3EA7
008A
003C
3FC1
3F55
002C
3F4C
0064
00AD
00C0
3F5E
3FD5
3E3D
0003
3FDE
000E
3EB5
3FDF
00EC
003A
3F93
3F81
0003
00BB
3FD6
002C
3ED9
3FF0
3F76
0015
3FB2
004A
3EFA
0094
3E9F
3F98
3F9B
0001
3F9F
3F98
3FEA
3F2E
3EEA
3EEE
00B0
0097
3F79
00D5
0193
0228
0189
01E1
3EDD
3FFF
0050
0146
3FAB
3FA2
3FB0
3F8B
3FB8
3DCF
0288
3FEB
3E23
3EA3
00C5
3D32
3CDE
01C1
3FEF
00FF
3FC3
002A
00C0
3E08
3F3E
01B1
0251
3D9C
3EE7
0255
00FA
00D1
3FD7
01E9
013F
00F8
01D4
01E0
3DCB
01D0
003A
01E9
0151
01C7
3D43
3D10
3DA0
3CA6
00F8
3EE7
01ED
00F7
3E44
0149
3DE0
3DC4
0023
009E
3FD8
0035
3FD7
3FDF
3F85
0056
014A
3FA8
0267
0006
3FA0
3FBA
3F85
017D
0175
0161
3FE8
3FD6
022A
00B0
3F9E
01D4
3F3F
3FF2
3EFD
3FAE
0031
00E0
3F48
3FD3
3F56
3FB6
006A
0113
3F0F
3FF1
00A0
3F66
3F56
00BC
00AB
00C3
3F50
3FE3
00DA
0040
3F3D
3F5E
0018
00B1
3FBE
01D7
3F65
0148
3F51
0130
3F6B
0003
011C
3FDF
3F72
012F
3F13
0038
008B
3FB3
0014
3FCE
3F9C
3F4E
3F5A
0006
00A5
001C
009A
3F99
3F30
0282
006B
0157
3F2E
00CF
3FA5
0041
3FAF
3E1B
3F99
3FB0
00A0
3FCE
0078
012C
3FF1
008A
0093
3F91
3F6D
0101
01F5
3F32
0067
0192
3F2B
3F45
3EA4
0108
3F07
3F4A
011E
3F0E
3F9D
3F7B
3F28
3FC2
3E4C
00BF
3EC9
3D7D
0049
3F09
3FD3
000D
0137
3EE8
3CEE
3D99
0035
0070
3F81
3FF2
0089
0005
001F
0081
01F6
3F71
016B
3F79
3EFD
3FD8
3FB0
024E
00D7
0198
3FF0
3FBE
00E7
0029
3FB3
0100
3EE8
003E
3FB2
3FBF
004A
0074
0017
3FAC
3F5C
3F98
0047
010A
3F15
3F6E
0089
0023
3F5D
005B
0028
00C5
009E
3FF9
00A7
3FE8
3FAF
0069
3FFB
3FDC
3F7A
017A
3F41
00B4
3FEA
00EA
3FB3
0043
00D3
3F8D
3F07
00D7
0098
00F9
3F3F
01C6
00B6
3FD3
3FD4
0131
00F4
002D
00E8
3F79
0021
3FBE
00EA
01BC
017E
017E
001D
3F63
0138
0020
0027
3FF4
3DEA
0025
3F64
3F9C
3F84
0030
3FA5
3EFC
3F1F
0053
0063
3F95
3E53
0012
0049
006D
0051
0039
0099
010F
3FFA
0013
00F4
0040
3FDE
0043
006E
00E9
3E90
00D2
3EC7
0018
0029
00A7
005C
0062
0042
007B
3DEB
3FE7
00BA
0036
3FBB
0095
0029
008A
01C9
00B2
3F09
3F9C
00C2
0030
3FCE
3FBA
3FD1
0015
3F27
3F29
00CE
3F6F
3FB2
0049
009D
3FAA
3F1D
0079
3F0F
3FA9
3F85
011B
0056
3F94
0027
00D2
0100
3F12
3E8A
0083
008C
008C
3FE8
00AC
01D6
00BC
00F7
008F
3DC2
0113
0033
0144
00BB
010D
3F4C
3F7E
3F10
3F6B
3FCA
3F69
00B9
00AA
3F1D
000B
3F7F
0054
0045
000C
3F31
0096
0008
0009
3FEB
003C
3ED0
0004
3F2C
3FEE
0365
3EF8
0013
0527
035E
040E
0024
00A0
3D8B
3FF7
3FD8
01E6
3CED
000E
3F6A
000D
00FF
3FBC
3F73
02DD
3E3B
3FFB
3FFB
0171
3EBB
3FDB
0067
3FDB
3FC0
3FA2
0072
00E7
0003
3FC3
3DFB
000B
0308
3FBF
3FED
0012
3D6E
02EA
01F8
3D1C
3F89
3FAC
0031
3FDE
0229
3F5C
024B
00E8
0070
009E
3FFC
00B4
0056
3FFA
0043
00CF
0198
3F84
0100
3FB8
0005
3F62
0084
014D
0195
0166
3FEC
3F80
00D1
0059
0065
0143
3E19
3FCE
0014
0031
3FF7
007A
0041
3E63
3EDD
0094
3FC6
0050
3DB6
0095
00E6
0050
3FB1
00F3
00EA
3FB8
3FD4
3FB2
015B
3FEA
005E
3F58
0084
003D
3FAB
0037
3FD9
00E4
3FB5
0165
0042
0006
00BA
00AB
3EE5
00FE
3F22
016F
3EE7
0025
007A
0051
3FF2
3FEA
3F4A
3FF5
3FFA
004A
0029
3EF3
3FB0
00E7
0106
0063
3F8B
0017
3F51
0020
3FD8
3EB3
3EA5
004D
3FF9
3FE7
3FA1
0113
3FDB
3FCD
003A
0074
0071
3FAC
3ECF
3F68
00F4
00DE
3F99
3EED
3F10
00FB
0044
0028
3FB7
3F49
00DE
3FB3
0031
0045
3DF9
3F58
3E5D
3D6B
3FE1
3F73
0001
007F
3F92
3F63
3EA4
3E52
0150
0070
3EEB
0076
00AB
005D
00BE
3FF0
3E93
0032
01D6
00C9
0113
3FC9
3F8D
0025
00A5
3FDD
000C
3F75
00A5
002B
012B
3F40
3FF0
00AD
00BF
00D7
005E
0118
0006
009A
00BF
009F
006F
002F
3F46
3FE4
004A
014D
00C4
3EDE
01F5
00E6
3FD8
0088
3FFC
3FAA
010E
0079
0056
002B
3FBB
002A
3F1C
3E95
3FF6
3EF7
3FFA
3FEA
3FCB
3FF5
015B
00AD
00D4
0055
0161
0198
00F2
0145
3F86
00E7
3E22
014B
3EC5
00D3
000C
3F81
0144
3E96
3F60
3E50
0191
00DC
00DB
3EC9
3FF5
3DA4
3D0A
00D1
3FD2
0129
3F82
3EA5
3FDE
3E21
3E2E
0079
0158
0021
00BB
0172
00F1
031F
0136
02BA
0087
3FB8
3FBC
0035
0041
016A
0057
3FDE
006E
01F5
3E35
3D56
3DD0
3D37
0173
3ED2
001B
0011
3DFB
0199
3E5A
3EA2
01DF
0028
0020
0148
006C
006C
00D2
0054
0038
0070
3EBD
00C9
0023
3F11
00B6
3E60
3FA5
3F02
013B
000D
3F40
0021
00D2
3E53
3DB2
00C1
3FF9
0021
0054
3F92
004A
3F42
3E50
0137
011A
3E7B
3E06
01B3
0102
0091
00B6
00BD
03AB
0014
0013
014E
3EA7
013C
0095
00C2
0097
0159
3EEA
3E21
3E96
3DF5
002F
000E
0043
0033
3F7B
00AD
3EEC
3FBA
016E
002C
0044
01FD
0186
00F0
3FCA
00E3
3F31
00A5
000C
3FD6
0121
3F2E
0148
019C
0111
0172
0121
0035
3E9F
3EDA
00FF
3E34
0079
3FDA
00F1
0050
3FA7
00C8
005D
3ECB
005B
0014
00B7
3F83
0013
00A3
004E
0105
012A
01FD
00A4
3F68
3F86
000F
0161
00E0
0164
000E
00AC
008F
3EB8
3E8D
3FB6
3D11
0029
3F7C
003A
00EC
00A7
019A
0015
3EE0
02A4
0046
3FC8
005F
007E
012E
00E8
0078
3FB2
003E
0097
0030
0014
3F7D
0085
3ECA
3EF5
3E37
0108
3FFC
002E
3FF6
015E
3FE2
3EB8
00B5
3EC0
0086
3FCF
002A
0027
3FEB
3FA2
00DF
005E
3EDE
3E27
0197
3F9C
3FE8
00EE
008A
03B8
3FB8
00B5
00A5
3EDC
0081
006B
006D
009E
0179
3FB7
3F5A
3FA5
3E93
3FAD
3FD9
006F
3FF9
3FA9
0103
00FD
00F4
0030
3FC4
3F7D
004B
3FD9
005E
3FAD
0023
3F02
0023
00B3
3F98
00D8
3EEE
00A6
0135
00C0
0057
3FCE
003F
3DF3
3F6D
0064
3EC2
3E91
005B
0090
3FF1
3FC7
0094
000D
3F84
3FFE
0029
000E
3F1B
005F
0077
004A
0027
3FB8
0034
3FF8
0093
3F6F
003E
0028
00D8
0017
0010
3FF5
0066
3E6E
0055
3E99
3E49
0050
3F29
003C
3FFA
003F
3FFE
3E1D
3E64
019E
3FEB
3FF3
00B9
3FE9
0087
0163
00E2
005E
009A
3EE8
00B2
000C
3F6A
0019
3F46
3FFA
3F16
00A4
0050
3E8E
0027
0040
3F2D
3D8A
0052
3F90
0047
3FC7
0065
000B
3ED8
3EAF
00F0
0068
3E79
3E53
0191
011A
00BF
003E
00D0
039B
0049
0052
00EF
3EA7
0105
0090
3FEA
00E1
00BE
3F5D
3E98
3F02
3E09
001A
3FDB
3FFB
0015
3F6B
00C7
3F31
3F93
00DA
0060
3F58
00B7
3FF7
0021
00BA
00B2
3E96
004D
3EC0
3FF3
3FA1
3F4B
007A
00AC
3FBE
3EE5
0125
3F8F
3D9D
3FBD
0080
3E26
3CB1
0098
3F4D
005C
0078
3F3C
003C
3F72
3ED3
0048
00D8
3ECE
3EC8
0110
3F64
3F76
0097
0023
009C
0049
3FEF
00E3
3E3B
0163
0032
3FF8
0029
008C
3E1B
3EC3
3E29
3D50
3FC2
3F9C
3FFF
0028
3F15
007D
3E8E
3ED9
01FE
00E6
3FB7
00A2
3FFE
002B
0064
0025
3EEE
0073
0066
0098
0010
3F63
3FA9
3FD4
3FCC
3F8D
00F1
3FCA
3FB1
3F25
00F3
3F54
3EF7
0003
3F55
00B1
0076
3FF2
005D
3FEF
3FF2
001F
0056
3FA5
3E9F
0147
0094
0076
00B6
00C1
0263
002C
3FA9
00CC
3ECC
00EE
0065
008D
0034
008E
3F61
3F19
3EF4
3E9A
000C
3FB9
0044
00AF
3F88
0136
00F7
010C
010E
001A
3F37
006F
3F9B
00E0
011C
3FE1
3FB3
007D
3E11
3FAA
3FA9
3F12
0072
3F92
3F76
3EA4
012B
0007
3D56
3FC7
00E7
3EBB
3D36
003B
3F24
007E
3FD5
3F6F
001C
3F35
3E8B
00D0
00A4
3EC1
3E76
0111
3FEF
3FCE
003A
001B
00B4
0033
003F
0125
3E39
011C
3FDF
007F
005E
0136
3EAD
3E90
3E14
3E08
002A
0077
3FD0
0033
3EFB
0012
3EE6
3E40
0195
003E
3FD4
0127
0071
004D
0161
00B6
3FF4
3FFE
3E4E
0053
0046
3FB7
00A2
3EA7
3FE8
3EBF
008D
3FF4
3EDE
000A
007F
3E81
3E37
0006
3F5D
3FE3
3FC0
3FC3
00EA
3ECD
3E95
005F
00D6
3EF6
3E02
00F5
0056
3FD0
0093
012A
0343
3F65
00B8
009A
3F49
00A1
002F
00B4
0049
00B2
3F1C
3ED5
3E84
3DE5
005B
3F80
0039
005E
3EE2
00EB
3FAA
3FAC
3FD0
3FDC
00D4
001B
0092
0064
004B
3FFA
3F39
3FBE
3E89
3FCC
3FC9
3FF4
3FDD
3F42
3FD3
3F8F
0025
00D3
0008
001D
003D
3DEF
3D21
001D
3FB7
0085
3F90
3FDC
3FC2
3E84
3EC1
00AC
0045
3FD3
014D
0060
3F11
0062
0036
0017
0021
3FE8
000F
004F
3FFE
3FDE
000D
3FE2
000A
0015
3E7F
3E93
3E62
3DC4
00AE
3F8B
3F9F
0065
3E76
3F76
3E4B
3EB0
0224
3FE6
3FC0
0085
0078
00A6
0035
00AE
3F6D
3FD5
0071
0082
002F
3FDF
0084
3EBF
008D
3F06
0055
3FF9
0020
0018
012E
3F63
3F52
0027
006C
00BB
3FEE
3FAC
3FFD
000E
005E
003C
00DA
3F2C
3F5D
00A8
0061
3FD3
0058
00DE
0397
0031
3FC0
0068
3F25
007C
0049
0040
0036
0112
3FA1
3F3D
3F53
3FF4
3F88
3F98
3FFC
00A3
3F49
011A
0070
00E4
005B
3F68
0130
3F71
0022
0043
008A
3F67
3EF1
3FC9
3E05
3FEE
0037
3F81
001D
3F17
3FB0
3F93
0027
0058
0089
000D
3FE9
3E04
3D48
0022
3F41
0090
3FC1
3F5D
3FDF
3F37
3F45
007F
004B
0050
0146
0043
3F5B
00D1
3FBB
0038
3F69
0062
0005
3FE0
0038
0020
3F92
0017
3FE4
0043
3E39
3DED
3DC5
3E10
006F
3F90
3FC2
0055
3E5B
3FE6
3E41
3E9F
015E
0047
3FCC
0076
007B
3FE6
009F
0018
0112
0005
3F82
0029
004F
0023
3FD6
3FED
003A
3F97
002A
3FDA
3FAD
3FE9
0029
3F36
3FE2
0016
003B
0030
000B
00D3
3FDE
0018
3E94
0041
0078
3EFE
0008
0088
00C0
0070
3FF5
0036
0203
3FCE
005F
00CA
00A6
004B
009B
0070
3FBF
3FFD
3F85
3F50
3FCC
3F85
002A
3FEE
0005
3FEE
3FDC
00D5
3F2F
3F83
012D
3FF0
3FD7
008A
3FD7
0022
0135
3FE5
3EBE
3FF8
3E5C
3FD1
3F9C
3FEA
0020
3F70
3FD4
3F51
004A
3FF2
3DB7
3FA1
0113
3E74
3D85
007A
3F07
0047
0038
0029
0089
3F57
3F2F
00CE
0069
3EB3
3FB5
007E
3F4D
3EED
0095
0062
0129
004C
005E
012A
3EB6
00ED
3FD5
0036
00D0
0099
3DFA
3DD5
3E4A
3DF8
3F77
3F7F
0020
0010
3EA0
001B
3E01
3EB5
01D4
0047
3F59
000A
0097
001E
0034
004A
3F70
0043
007A
00B5
0046
0058
002F
3F9D
3FB1
3F93
005D
3F88
0033
001B
00A4
3F7F
3F74
0086
3F9A
00AD
3F4D
0007
0070
0049
0024
008B
00D7
3F2D
3FB3
0078
003E
000A
00CB
007C
023C
3FFA
000D
0095
3F58
009A
0024
009B
0058
0045
0001
3F39
3FBD
3F69
3F97
3F53
0010
002D
3F7D
0042
0101
00C3
00E2
0026
3FC5
00C4
3FD0
009B
0133
00A4
3EFB
0064
3DE8
001B
3FF2
3FF9
00E9
3F22
3FAF
3F4C
0031
3FE9
3DFE
0083
009F
3E20
3DE1
0054
3F8E
0098
3FD4
3F64
0044
3F07
3E8A
00E7
00CC
3E04
3F68
0138
3EF0
3F60
00B7
002B
0160
0018
3FFC
00C3
3F1E
0117
3FBE
0000
0080
0083
3E01
3E5B
3E38
3DCD
3F4F
3F48
006F
3FFE
3E69
001E
3E02
3E37
00D4
0047
3FE3
3FB8
0034
0029
0045
007A
0004
3FCE
3F05
0067
0051
0099
0072
006F
0182
014E
00C4
003A
3EF1
3FB5
0003
3E99
003B
3FE0
00FC
002D
3F3A
0022
3FD3
3EC5
3EDC
3FE8
006A
3F37
3EB9
0077
0030
3F52
0061
00A8
015A
3FEC
0016
0015
004E
3FF0
3FB8
3FBA
3FED
3FC3
3F3F
3F2F
3F65
3E9B
3FFD
3FF8
3FCE
0019
0006
0087
0036
3F9E
00F8
000C
3F83
008B
0068
0073
00AA
0049
3F35
0083
3DD9
3FB6
0013
3F64
0087
3F98
3FF6
3F61
00F7
3FC9
3DC6
000D
0095
3EC9
3E55
0097
3F55
0034
0000
3F6B
0094
3F88
3E72
008B
0039
3E7F
3FBE
00BA
3F91
3FBD
0093
002D
0098
0066
0049
00C7
3F1F
00DC
3FF2
005F
0054
0068
3E5E
3E50
3EB7
3E45
3F7D
3FAB
0009
0029
3E93
006D
3E9C
3ED0
0053
0064
3F8C
0053
3FE0
000C
3FDD
0023
02A2
3FF6
0053
3FEC
3FDA
3FB7
002A
3F04
0301
0347
3FFF
01B1
0335
3FE9
0035
026E
02AA
0011
02D2
3FED
013C
001F
3FC5
3F57
0004
001B
001C
02F4
3EF2
0001
030C
009C
3FF5
001C
00C7
3FCC
3FC5
3FDA
0297
000C
0017
0058
0013
0026
02BB
02AF
025A
0302
02C2
3F8A
005D
0000
01F5
0018
0315
0343
0074
0064
3FEB
3FF9
3FB1
000E
3FD9
002C
3F96
3FF3
03A1
0014
3FDF
3F37
0021
3F5F
3FA6
3F98
0001
3F86
0340
3FB6
3FFE
033B
0337
002F
3FAE
3FF5
3F3F
3F64
3FEB
0303
024A
0017
0024
0278
3F10
0017
006C
3F30
3FFF
0024
00B5
3FDF
0048
3FE4
3F1B
000A
3FF0
0027
0010
0017
0341
0396
036C
03B7
3F8A
3F85
3F9B
3FE4
0317
0010
035D
0343
00E9
0015
0183
0029
0063
0013
3FBD
3FE6
3F44
3FC5
3EBA
00C6
3FD7
3FD4
3F86
3F04
0009
3F54
3FDF
0070
0166
3F5B
0052
3ED9
3E68
3FB1
0013
0030
3F7C
0070
3FBC
3ED8
3F0B
00B3
0084
008A
00E8
0024
001B
013C
3FD0
002D
03B9
0021
3F79
3FC6
0167
0005
0085
0034
3FC7
3FC2
3ECC
3E12
3EC5
3E6E
0069
3FCE
3FCA
0080
3F04
007B
3F78
3F00
00B1
0002
3EF0
0022
0026
00D3
00E2
006C
3F8F
3FC3
3FB5
3FA1
3FDA
3FD3
00AB
3FC3
0002
3FB0
0059
3F71
3F3D
0069
00A8
3FEB
3EC8
006D
0065
0061
3FA4
3F9B
0091
3FDB
0005
000F
0022
3F74
3F46
008C
0041
3F35
008A
3FB4
008F
3FFC
0063
00A7
3EFE
0003
3F62
3FC2
002F
00BC
3FC8
3F5D
3FF7
3F86
0036
3F9A
0049
0087
3FE5
003D
3F4F
0042
019A
0064
3FD1
0069
0089
3FD3
0035
0040
00BA
3FBB
007E
0059
0067
0026
0016
0029
3FA3
0017
0089
3F28
0078
3F27
3FC9
3FA2
3FFB
005F
3FE0
3FE9
0032
00F2
0058
3FEA
3FED
0082
3FF8
3FD0
003F
008E
0023
0039
0050
000D
0363
3F9F
3FCD
3FE2
005E
0026
00DC
3FA6
0071
007A
000B
003B
0087
3FA4
3F9F
3FBA
3FEE
0040
0025
0060
001E
00AE
00B5
3FF0
3F6B
0068
3FAB
0005
000B
3FF6
3F38
0018
0038
3FF5
3FAE
3FF8
0006
3FE3
004A
3FD9
0033
3FAC
3F09
3FB8
009E
3F41
3F35
000B
3FE8
3FF7
004C
3F7A
3FE6
3FDD
0011
009E
3FEB
3FF2
3FC0
001A
3FF3
3FFA
3FDF
0005
0089
3FFA
0099
0007
3FC8
0031
001F
0035
003C
3FD2
3F4D
3F84
3FD1
3F69
3FA9
3F8B
000D
3FA8
3FAA
005E
3FBD
3F7B
0219
0048
3F4E
00E3
0068
0016
3FE7
00A1
0000
0050
003F
00A3
0037
3FDF
0044
0031
005B
001C
00BC
3F48
3F5F
3FB9
0097
3FDA
3FC3
002C
007B
0060
0036
000E
0055
0017
3FB9
006F
008D
3F6C
3EEE
010D
0008
3FE4
000F
009F
037F
0047
0093
004A
3FD6
003E
0037
001C
00C3
002E
3FC8
0003
3F9D
3F93
3FBA
3FDB
0035
007B
3FFD
0028
0063
0032
007A
006A
3F1B
3FE4
3FE9
0009
002D
00A2
3FAB
0045
3F66
3FE1
3F98
3FD1
0021
3F91
006E
000E
0090
3FA5
3F6F
004A
00C4
3F45
3F3C
009C
3FE3
0064
3F5B
3F86
00A5
3F2E
3FEC
006F
008A
3F7B
3F32
002B
004D
3FDD
00B3
0068
0069
3FC6
008A
00A5
3F01
0072
3F86
0039
0018
0043
3F65
3F54
3F22
3FC1
3F9F
3F73
3FC8
008E
3F39
3FFE
3F4F
0048
01DE
0025
3FF1
00B2
000D
007B
00D3
0022
3FB4
001E
3FC8
000B
3FBB
0077
008B
3F47
0011
0002
0061
3F71
3FBF
3FF6
00DB
3F81
3F2E
00BB
007D
0034
3FAC
3FB8
00C1
3FFB
3F82
00B1
0032
3FA8
3ED7
009F
3FDD
003A
0058
0048
03F2
3F90
005F
012D
3F6D
00B5
3FF1
003B
00D5
0071
3F62
3F60
3F8C
3F45
005B
3FC3
005F
00B1
3F27
00B6
00A9
00A9
0059
3FE9
3F7E
003F
0034
005B
0038
002E
0056
0065
3F9B
0040
003F
3F37
0073
3F5D
0085
0044
0069
0025
3F85
0019
009D
3F97
3FD3
3FFA
0003
0000
3F84
3F66
0089
0008
3FD1
005A
007C
3FA8
3F20
001E
0038
3F67
0025
3FF3
0115
0067
0011
00DD
3FA3
0006
3F92
006E
007A
0050
3FBC
000A
3FD9
3FF2
3FFE
001D
0052
3FFA
3FC8
00B8
3FD1
0046
0200
003D
001F
000C
0045
000F
00A1
0065
3FA2
0069
3FD1
001E
004D
0055
0034
3FC2
00A8
3FAA
001F
3FB6
3F70
3FCE
0034
3F83
3FA8
0009
0047
3FF3
3FBB
001A
009D
0007
0038
0051
00ED
3F44
3F5C
00A1
00B3
3F7F
002E
0008
02F6
003D
0028
00EA
3FB0
00D5
0025
003D
0010
004C
3FE7
3F8C
3F8C
3FBB
000F
3F9D
0067
00BC
3F95
00B8
3FEB
0028
004F
0012
3F5D
00C3
3FF9
00A3
00EC
00A0
3FA5
001F
3F68
0003
0031
3F7E
00CC
3F2A
0079
3FB3
002F
3F76
3F0F
0027
007D
3FBA
3EFD
0005
001A
3FF5
3FA0
3F98
0027
3F29
3FE6
0064
00A6
3EF5
3F57
00DD
3FFD
3F41
0005
3FD9
0051
3FB9
000A
005A
3F21
0046
3FBE
006C
0066
3FF6
3FF8
3F5D
3F7C
3F6F
3FBC
3F28
0014
0004
3F44
0058
3FB4
3FA8
00B0
005F
00E1
0008
0005
0039
3F6D
3F98
3F0E
3FC6
3F98
3FD6
0026
0054
3FEF
00AB
005A
010D
3F9A
008B
00F3
3FD4
3FAC
3FCE
0071
3FD3
00BF
3FCB
3F53
00A3
3F95
3F73
3F81
3F62
3FD8
0159
00ED
3F57
3FC0
0147
3FBE
3FB7
00E0
3F99
000E
3FC7
01F7
3FF6
3FD0
3F9F
005B
0033
3FB1
3FBE
3F4E
3FCD
0112
3FEA
001B
3FD9
0055
3FB3
016E
00AD
00FD
002D
3F98
0052
3FA4
007E
0046
3FD1
3FC6
3FF1
3FF5
0085
3FC7
3F4C
0075
3F35
0016
0017
001E
3F8F
3FA4
0026
0094
3F72
3ED7
3FF9
0001
0065
3FC5
3F3D
0059
3F66
3F5E
0005
0073
3F53
3ED4
00B0
0029
3F89
3FFA
0029
0054
007B
0043
007E
3FA7
00B2
0015
0070
0053
006C
3FE2
3FE5
3F7A
3FB3
3F90
3F8B
004E
3FFA
3F2B
009B
3F85
3F8E
01AD
008E
3FAF
004A
001E
0021
003E
007F
3FBC
0053
0092
3FFC
004C
003D
009E
3F70
004D
3F67
001E
3FF0
3FB3
3FB3
00F5
0033
3FFD
00C0
0019
008A
3F56
0032
004C
3F8F
3FD5
002A
00D8
3F07
3F91
0061
006D
3FC7
006D
0090
02F4
3FB6
004A
0127
001F
0098
3FF8
0065
0098
00B5
3FDC
3FCF
3F75
005A
0079
0050
00A5
0021
3F48
0067
0016
0045
0029
0043
3FFF
000A
0003
3FE1
3FD4
0089
0028
0019
0058
3F9D
3FED
3FF7
3FCE
005A
3FD4
3F6D
3FD1
3FB9
3FAD
3FF9
006F
3FDA
3FAF
3FF9
3FD8
3F8C
008E
000F
3FD1
0001
3F87
0016
0006
001A
3FD1
0052
3FB3
3FFA
3FE8
3FF5
0064
0087
006C
0071
3FBE
0030
0021
3FFD
002F
0038
3FE6
3FC1
0035
3F49
3F45
3F30
003F
0005
004C
0063
3FD2
001A
0091
3FE2
0118
005A
3FFF
0082
3FDD
0052
3F56
3FD3
00A1
00A1
3FC6
003D
3FF9
3FC7
0040
3FFF
001C
009F
00BF
3FFE
005C
3F42
3FB3
3FF6
008C
002F
3F9E
005B
001C
3F58
3FE5
002C
0068
00D6
00FE
3FF0
003C
0122
3FDB
3FC8
014C
001D
3F4C
3FD0
00BE
0019
0059
0055
3FC3
3FC2
3FDE
3FC4
001E
3FCB
008B
3FDF
3FD7
0070
3FE4
006B
3FB9
009A
0104
002F
3F93
00B7
0012
0064
004C
008E
3FCD
006E
3FEF
0058
3F9D
3FCF
00DF
3FB3
3FD1
3F78
006E
0051
3FC5
3FAF
0006
3F61
3F23
0045
0069
0032
3FCD
000C
3FD3
3FF6
001D
000C
00CC
3EE8
3EDC
0069
000B
3F9C
0090
0078
005B
3FC9
3FF8
00EF
3F97
0034
3FB4
3FD1
0027
001D
3F68
3FF5
3F48
3F7E
0011
3F9C
000E
005F
3F88
00B3
3F57
3FDC
01D3
003D
3F54
0023
000E
0062
0065
0031
3F27
0057
002E
0096
0062
3FC2
0083
3FB5
006C
3F61
0095
000D
3FFB
0005
007E
3FD5
3ECF
0074
006C
0030
3F9B
3FD5
007B
3F36
3F95
0095
00D1
3EE5
3EE9
00E4
0075
3FC4
00B2
0060
02D0
3FA8
0085
0112
3FFC
0085
007E
0069
00E3
00BA
3F84
3F80
3F2E
3F9F
3FBF
3F7A
00AB
0048
3F8F
00F3
008A
00A1
00CD
005C
3FA2
00AD
000B
00DB
00A6
0080
0065
0014
002D
0087
3F8C
0002
00DE
3FA6
3FB8
0035
3FE1
3FD6
3F05
3FB4
005F
002A
3FD8
0099
3FEC
0028
3FAE
3FF7
3FE5
3F88
3FCB
0045
00CB
3EE7
3F25
0055
3FC0
3F2E
0067
0019
008B
001B
002C
0032
3FE3
00C4
3F6F
0049
0034
00B0
3FEA
3F93
3F8E
0044
0026
3FA5
3FE7
004B
3F7E
0048
3F92
001A
01E8
008D
3FAC
001E
0074
0088
0020
0072
3FBC
008B
3FE1
3FEF
3FFE
004A
007C
3F76
0017
3F4E
004D
3F64
3FDA
3FF2
00C2
3FDE
3EED
00A1
0010
0012
3FC6
3FF2
3FF3
3F51
3F9C
0017
0093
3F94
3EB5
0073
3FF2
3FB5
000D
0015
0279
3F96
009B
013A
3F9A
00E1
3FFD
0083
00AC
0075
000B
3FF5
3FD1
3F6A
3FFA
0002
001D
00D1
3F9F
0119
0001
0088
00B5
001B
3FD8
0049
3FF0
00AE
0058
006C
3F47
3FE4
3FAA
006C
3F7E
3FD6
00B0
3F1D
3FB1
0004
0045
0027
3FB4
001D
0007
3F47
3F16
006D
004E
0053
3FF7
3FC7
0053
3F6E
3F91
001B
00AD
3F4C
3EE2
00CA
0020
3F38
3FEC
3FAE
0120
0022
004E
006B
3F36
005C
3FDC
0099
3FFD
00C4
3F56
3FFB
3FB3
3FB3
3F8B
3F3B
004F
001F
3F23
004A
3FB7
0046
012F
0028
3FAF
00B7
0084
0073
00C3
00B6
3F25
007B
0083
007A
0035
3FDE
00A1
3F9C
00A7
3F93
00A5
000A
0011
0051
00FA
3FEF
3F45
00C9
00B0
0050
0002
3FD0
0086
3FFF
000F
0071
00DE
3F67
3ED6
0069
0033
3FEC
00CE
0021
02E0
3FAC
3FF5
0077
3F85
0068
3FBA
0001
00B3
0091
3F58
002C
3FD1
3FB0
0023
0005
0029
009A
3FD3
00B1
0047
00B2
006F
3FA1
3FB0
3FDF
3F95
3FF1
00A5
3FE5
3F91
3FF9
3FAA
0036
0029
3FB8
0062
00C2
00A8
0134
000B
005F
3F98
005B
3FC0
3F43
005F
0048
003C
0026
3F5B
002E
3FFA
3F4A
3F99
0007
002D
3F6E
3F30
0057
0005
3FC2
3FEB
3FD3
3F8C
3FBE
006E
0085
0014
0039
3FE2
3FBB
3F9B
0051
3F39
000E
3F93
3F91
3FF2
3F74
0037
3FB9
0048
0001
0094
3FA9
0078
3FD0
00FE
3F8D
002D
3FB2
3F80
3FCE
0012
3FE4
0022
3FFC
008E
0054
3FB0
3FD8
005E
3FD7
3FDA
0096
01BA
3FCB
0015
3FB4
3FD1
007E
0086
00AF
3FC3
3FCF
0022
3F93
3F79
007D
3FFA
0116
00AA
3FCB
3FF8
01AC
3FD8
0010
0185
3FD7
3FDC
3FCE
00F3
001B
0007
3FF3
0017
3FBE
0010
3F9C
001D
3FD8
0143
002A
0055
0006
3F3E
3FFD
3FF6
0080
002E
3FDD
3F0E
0039
003A
0095
00A9
0007
3EF9
0063
3FD7
3FC6
3F99
001E
00B6
3F26
001A
3FF6
007C
3FDB
3F86
0036
0056
3FE6
3EDE
0085
0005
3FF2
3FC6
3F4F
0016
3FF7
3FE0
0002
001D
3FB5
3F4E
008F
3FC0
3FCB
00B4
3FF7
005E
3FB8
0013
00D3
3F71
3FFB
3F8B
001A
00AC
00B7
3F70
3F5C
3F22
3FD5
3F6C
3F61
007C
0085
3F2B
3FFB
3F78
0027
0149
0049
3F5D
0095
000F
0033
0022
00CF
3F67
001A
000A
3FEA
3FCF
3FEC
3FF6
3F72
005F
3FE4
00D6
3F53
3F74
3FA1
00A8
3FC6
3F64
3FF8
0090
0088
3F81
002B
0081
3F29
0033
001F
0050
3F3E
3ED3
00D5
00A5
3FFD
004A
0008
0219
3F98
006C
0098
0016
005D
0019
003A
00EB
0063
0017
3FDC
3F19
3F97
002C
3FED
00B0
3FEF
3F82
00A5
0070
005B
0033
3FC5
3F0B
003D
3FC7
002A
006F
0052
3F30
003F
3F5B
007D
0048
3F43
0008
3F9E
3FE7
3F9D
0071
0020
3F54
002B
00DF
3FA8
3F9C
3FDD
0067
006D
000A
3F9B
0062
3F2A
3F7C
001E
004A
3EEE
3F17
0092
3FD7
3FA8
0012
0020
00F0
0056
0028
0067
3F07
00B7
3FE5
002D
0010
0076
3F9B
3F78
3F1D
3F65
3FBF
3FEC
001D
009C
3F1D
000B
3FBC
3FDE
0036
3FD7
3FCA
0031
001C
3F81
3FBE
007B
00A0
3FD5
005E
3FA5
3FE5
00B8
3F4E
01B2
00B9
00CE
3FF6
0029
3FFF
0050
0044
3FC2
0131
0044
004D
001F
3FFE
0106
3FAE
007E
002E
3FC7
3FB6
006C
0057
3FEB
0009
3FB9
3FE9
003E
0088
000D
3FCA
0031
012F
3F7C
3FED
0021
0040
3FDD
3FCD
3FFD
3FF5
3FE8
3F54
3FC1
0031
3FD6
00FC
0047
00E0
0066
0002
006B
3F20
0047
3FFD
3FFD
009F
0074
3F9C
0039
3FAC
3FBA
3FBC
3FCE
0011
3FDD
3FAB
3FAF
0082
3F77
3F9C
3FD4
0036
3FD5
3F94
0039
001B
005B
3F8D
3FA0
3FF9
004F
3FC2
00BE
3FF8
3F9E
3F58
00C5
0038
3FD6
0040
005A
000A
3FDC
006E
001B
3FDD
0008
001B
0041
002C
3FC8
3FC3
3FBC
3FC4
3F80
3F98
3FAF
002B
3FBF
3FD2
0010
3FFF
000C
0075
009B
000C
0027
3FCA
0019
0057
0012
0015
002F
005B
3FE8
007B
3FED
3FD2
3FD4
3FA8
3FCC
3FE3
3F47
3FF0
0005
00C6
3FC7
3F9F
006F
0036
007E
3F7D
001A
0089
3FA6
004D
00A1
0073
3F9D
3F8B
00D8
008B
0029
3FDD
0062
0103
0064
0078
00A1
3F7B
0019
0015
0035
00C7
0051
0053
3F8F
004C
3F76
3FB9
3FBF
0042
3FE2
3FDD
001F
000C
0095
0093
3FC5
3FB7
005E
3F88
0095
00E7
0057
3F6B
005B
0025
0009
3FBE
3FD9
0079
3FA4
3FFB
3F9C
00CD
3FC2
3F58
3FE0
00ED
3F8E
3F09
0084
3F95
0093
3FC2
3FB9
0035
3FD4
3FC2
0055
0053
3FC4
3EF5
00F8
0080
3F75
00B5
3FB5
00C2
0062
007F
0034
3F5B
0042
005A
3FFC
006F
001D
3F88
0008
0009
001F
0048
3FEB
002C
3FED
3F94
0013
3F9A
001A
0165
3FFB
0019
003F
0045
0038
0045
0032
3FC5
0038
001D
0086
0069
3FF2
3FF3
3FA7
0015
3F80
0060
3F85
3FC8
3FE1
00D6
0002
3F5A
0029
0076
0068
3FF7
3FE9
00C3
3FF9
3FA5
00E8
0036
3F11
3EE3
00BD
3FF4
3F81
00C9
0047
01C8
000F
009C
00C8
3F7D
00F6
0094
0089
006B
001A
0031
3F7F
3FD7
3F89
0050
0054
0021
008C
3F3A
0047
0054
006B
3FA3
3FE6
3F94
3FDB
3FC6
3FF8
00B7
3FEF
0019
3FC1
3F95
0040
3FB8
3FA8
3FAA
0129
00B5
014D
000D
0018
3EF7
0046
0045
3F9D
00E1
0025
0050
3F9F
3F4E
3FB0
3FC0
3F7F
3FDC
002F
3FBB
001A
3F1E
0014
3FFD
3F0E
0013
3FD7
3F7B
3FF3
0010
0057
0075
3FFE
3FE3
3FD3
001E
3F9E
3FD0
3FD4
3FB8
3FD5
3F64
3F95
3FD8
3FBC
000B
0062
00EB
3FAF
0083
0007
3F93
003E
3F8F
0020
0049
0048
3F9A
005F
0008
0087
3FFB
0010
0075
3FE3
0013
001D
003D
3FA8
3F6E
3FCF
006C
3FE7
3F32
00A1
0027
0051
3FB9
003F
0090
3FDA
008B
0044
0055
3F38
3F54
0123
005D
0000
0088
0010
013B
000A
0087
00E1
0008
00B3
0052
0040
0099
003C
0052
3FBA
3F8A
0066
3FA5
005D
0048
3FE3
3FE3
0103
3FAD
00DE
010D
0036
3F6C
3FF6
3FFC
004E
00C4
0000
3F8F
0026
002D
000E
0056
3FC3
0037
3F9E
3FCE
3FD7
0001
3FD3
3F77
0073
0025
3F8D
3F97
3FDD
0001
0078
3F50
3FFD
009B
3FBA
3FEA
008E
0074
3FB6
3FA2
00C4
3FA8
3F62
0041
0070
00BF
006A
0007
00B6
3F61
0054
3F9D
3FDE
006B
007C
3F99
0053
0016
3F86
3FE4
3FF2
0020
0038
0006
0073
3FCA
0038
0076
3FDB
3FF7
0012
3FDB
0058
009C
0085
3F48
0029
000E
00A1
0073
0002
0026
3F08
007D
0012
00EC
3F76
3F79
007E
003E
3F72
3F7B
3FEE
0047
0045
3F6F
003D
00A6
3FCF
0033
001E
009E
3F41
3F03
00A8
3FE6
3FF6
00D1
0059
0197
3FBA
00A8
0053
3F62
008C
3FC4
006B
008D
00EE
0027
3F79
3F78
3F7B
3FC0
0008
0008
006C
3FD6
00C5
3FFF
00C9
009B
0086
3F6A
007F
0057
0097
005A
00A6
3FBB
3FCD
3FDB
003A
3FFC
3F5A
00AC
3F10
008B
3F88
00AB
3F8F
3F20
000A
0044
3FB8
3F3A
0090
0054
0011
0014
3FC0
005B
3FAE
002D
004A
00A1
3EF4
3F20
00FE
0011
3FEA
00BC
0058
007C
3F96
007C
00D5
3FA0
008B
3F9F
3FDF
0091
00AB
0019
3FE5
3F7D
003B
3FAC
0033
0063
0015
0007
0019
3FDA
003F
00B2
3FE4
0012
00CF
3FBB
002A
0071
0064
3F4B
009C
3FEF
3FF4
0017
0004
0040
3FCA
3FD1
3FCA
00C9
3F87
3F98
0055
0034
3FCF
3F87
003A
008E
002C
3F89
0052
3FF3
3F84
3FF8
0014
0059
3F73
3EDB
00F7
3FEE
3FAA
0032
002D
0104
3F9F
00A1
0056
000A
0093
3FC8
0086
0082
0056
3F8D
0024
3FC5
3F8B
0077
3FE3
00B8
00B2
3FE1
008A
3FBE
0030
3ECA
0002
0093
3FBD
3F98
3F3F
3FE6
3F97
3FF7
3FBD
0027
3FA4
3FAA
002E
3F5F
01D0
0004
00DF
3FA4
005B
01A4
0047
3F89
3F8D
0112
3F6B
3FB9
0001
3FF8
006C
3FE4
3FCC
3FF2
3F99
3F5A
0185
00CC
3F1E
0006
012A
3FFC
0048
3E7A
3FF1
3F54
3F5D
0191
3FA2
0074
3F53
3FA6
3F90
3F80
3FF1
3FBA
3FB5
3FFD
3FBB
3FD0
3F95
00AD
3FA3
00CA
3F59
0032
0013
0109
3FD6
3FA7
0018
3FD4
3F5E
00EA
0007
00B2
0062
3FD6
0080
3F85
0092
3FE9
0001
0021
0009
0166
3FB6
3F4F
0013
00AD
3FFA
3FD7
3FA8
002B
0105
3FB2
00BE
0015
005C
3F82
00E2
017C
3FE0
003A
01A1
3F82
3F97
3F9F
3FA8
3FD8
3FC8
016E
3F77
0006
3FE8
3FCC
3F8A
3FD6
3FC8
002F
0045
00C7
3FC6
3FA7
0054
0074
3FFE
005A
005E
3F56
006B
0107
3F65
0008
3FBF
0004
3FE8
3FF4
0003
3FFC
0041
3FAE
3F83
3F5E
3F65
3F73
0011
3FD9
00D1
00DE
002B
3FE5
0050
3FC4
3FD4
3F91
3FDB
3FC2
3FB0
000F
3F9F
3F90
3FC3
0043
009E
0109
3FBB
3FC2
011B
0063
3FCD
3F65
0017
3F90
3FC8
00E4
0033
002C
3FC9
3FCB
3FB9
3FB4
004C
3F6C
3F8B
0048
3FE2
0003
0057
3FBB
3FAD
3F86
3FF7
006B
0062
3F71
0068
3FBB
007F
0084
0096
3FC1
00A3
3FC8
3FD6
3FDF
3FBE
0006
3FE0
0098
3FF8
00C1
3F71
3FFF
3F9E
0084
3F8E
3F97
0030
009A
00AF
0005
004B
000B
001E
3F81
00BE
00A2
3FAF
3F06
0080
3FE2
001E
006A
0000
012D
0030
3FF7
011C
3FAA
009E
3FCB
0090
0044
0086
003F
001B
3FA7
0037
000C
3F82
0083
0094
3F94
0020
3F9D
3FF4
3FE5
3FE1
0135
3FE8
0009
3F9B
3F79
000F
3F40
3FB7
3F89
0033
3FC7
0005
3FA1
3F97
3F89
001A
0039
00A9
00C6
3FAC
004D
3FDE
3FC1
001E
3F8D
004C
3F30
0019
0067
3FEB
3F90
0072
003C
0152
014B
3F95
3FBC
0110
000C
0005
3F0C
0073
3FF1
0026
0153
3FCD
3FF6
0056
3FD3
0069
003D
3FF7
3F46
3F7D
00DE
0023
3FD1
000F
3FD3
3FFC
002D
3FA6
011A
0023
3FEF
0002
004D
007D
0017
0005
3FA9
3FD7
3F9D
0039
003E
3F84
006D
3FD1
3FF6
3F65
002F
3F50
3F8D
007A
008F
001D
3F44
0053
3FE1
0078
3FED
000C
0022
3F97
3FE3
0058
0090
3F54
3F7E
00FB
0090
3FA8
003B
004C
014C
3FCC
0061
00BD
3F43
0076
3FB6
3FEB
007E
0082
000B
3FA4
3F85
0017
002D
3FE7
0040
0073
3F38
00D3
3FD4
004D
006D
3FFF
3F37
3FEF
0018
00D7
00F3
002A
001F
3FBD
3F9F
3FCB
0053
3F53
0040
3F42
0011
3FA6
008C
000B
3EFD
005E
009F
3F98
3F53
0077
3FF9
00AF
3F77
3F89
0022
3FDF
001A
003C
00E8
3F55
3F19
010D
0068
0005
006C
0080
012A
3FC9
000D
00FE
3FD6
0022
3FD8
3FF5
0020
003E
3FCB
3FAF
3FBF
3F8D
3F86
0054
3FF1
0038
3FAB
0020
3F50
3FE8
0054
0080
3F35
0001
003D
0017
009D
0012
3F91
3FA1
3FD3
0055
0018
0023
0023
3F52
3FE2
3F85
007C
000C
3F82
002F
0041
006E
3FC1
001E
005B
0087
3F6F
3FDB
3FC7
0063
0031
0016
3FF7
3F62
3F58
0109
0044
3F85
0030
3FCE
00A3
3FF1
0049
0034
3FA6
0023
0011
0008
0042
0019
3FD2
3FE8
0027
004F
3FD7
3FEB
0049
0089
3FCC
0087
3F7F
0068
00BB
3FD5
3F21
004D
3F96
0077
00B1
00A7
3FE5
000A
3FA1
0094
001C
3FED
006E
3F53
3FF1
3FA1
00D0
3F54
3F79
3FBF
003C
0018
3F52
0051
3FC7
009E
3FF4
3FE4
0007
3F95
3FC8
00CB
0052
3EFA
3EBF
0081
0045
3F4A
3FF5
0029
00A9
0071
0087
0082
3F20
0029
0062
00AC
0024
006F
3F7B
3F8F
3F58
0054
000F
3FD8
0043
0029
0010
0042
3F9E
0038
006C
000B
3F3B
0043
3FBC
00D7
0060
0063
3F82
3FCC
3F93
3FF1
3FBB
3FB3
004B
3FA9
0030
3FE2
0085
3F6F
3FDF
0076
007C
3FB5
3EFE
000E
0027
0054
3FFA
001F
0076
3FBC
3FCA
0009
00F3
3F09
3FA0
0114
0055
3FE3
005F
0007
0139
0022
0002
009A
3F6C
0095
0073
0013
00EA
009E
3FE1
3FA4
0008
3F8A
3FFC
002A
0083
0071
3F7F
007E
3FB6
3FC9
00ED
002B
3F38
0066
006F
0026
00F1
00C5
3FB1
007D
0025
0011
3FCA
3F71
0025
3FC0
3FDF
3FDC
0068
0023
3F65
3FFC
0029
3FE3
3FD1
0081
3FD9
001D
3FBB
3FC9
3FF8
3F8D
004B
00DA
0083
3F96
3F3E
0107
0084
3FF8
004F
0014
00F3
3F90
001D
004A
3FE0
004A
004A
0033
3FFB
00D6
0031
3F7B
3F88
3F9F
003A
3FA7
007C
0039
3F71
0042
3FE3
0021
3FFE
3FF7
3FDB
0030
001C
003B
0054
3FE4
3F9A
0054
3F3D
3F8F
3FDA
0023
3FE7
010B
0077
0092
3FD4
000B
3FFD
004D
3FE4
3F86
000C
0026
00B5
3F96
3F57
3FB3
3FCB
3FA7
3F8C
0043
004A
3FE3
3F57
002B
3FF9
0037
0070
3FBD
3F06
3FB5
3FF4
3FDD
00CA
3FEA
0008
3F9C
0035
006D
3F8A
0050
3FE7
3FCA
3FB3
3F77
3FFB
0081
004F
3FF0
00C2
3FEE
0003
3FA7
0000
0062
0064
3F97
3F9B
3FE2
00B9
3FF1
0035
3FF3
0006
00B6
3FA4
0056
3FDD
3F74
3F81
3FFA
00BC
0041
003C
004D
0089
0006
3FD4
3FDD
008F
0028
3F84
00B2
0073
3FCC
3FEE
0025
0086
008B
3F83
0080
3FEB
0044
3F9E
0034
0039
3FB9
3FFE
000A
0089
0065
3F7D
3F78
3F9E
3FC0
00A2
3FFD
3FA1
0038
3FC8
3F95
003D
3F97
3FC0
3FD2
004C
003F
0058
3FCC
3FB5
009E
3FBD
3FA9
3FEA
3FBA
3FDD
3FDE
0023
3FC0
3FB1
3F75
3FC3
3FF5
3FCD
004F
0068
005B
0063
3FEA
3FCE
3FC5
3FC1
000A
0015
0060
3FE8
3FB3
3FF2
0059
3FF2
3FE7
0017
00A9
3FC5
007B
3FB2
0023
0091
3FEE
3F9E
004B
3FBE
3FF7
0012
3FB7
3FEC
004D
3FC2
3F8F
3FC2
3FA0
0078
3FE2
0001
006A
3FEB
0023
3F81
005E
0081
0046
0073
3FE8
3FD2
0091
0019
3FC0
0089
3FEE
0024
007E
0013
3FCF
004A
3F65
0047
3FF2
3FBF
005A
3FB7
3FBD
002E
3FA2
3FEE
3FD1
3FD9
3FFA
0053
3FDC
3FAE
0066
3FEE
0039
0081
3FF3
0090
0033
005A
002C
3FC0
3FD4
0029
002D
3FA8
3FE4
005E
3FCB
0039
3FE9
0021
007F
004F
0039
3FCC
006D
3FD7
0033
001B
0071
3FF6
3FB0
3FCA
3FE7
006B
000F
0016
0052
3FFC
002E
0093
0016
3F7D
0077
3FE7
005B
004E
3F9D
3FE4
3F87
3FCA
3F79
0043
3FC2
000C
3FC2
0042
3FFF
3FBA
3FF3
0073
0041
3F81
3FB1
3FC0
003A
0060
0007
00A8
3FA7
3FFD
0098
007D
3FE7
0095
3FF7
00B1
0018
0019
0080
3F76
0078
0077
0078
0046
008F
3F9B
3FB3
3FC1
0011
0038
0038
0068
0021
3F56
3FD8
3FED
3FC2
00AD
0039
003B
0062
0019
0020
005E
0087
3F97
0023
3FE7
3FB0
3F8D
3F8F
0032
3FE8
3FBA
3FBD
0032
3FF5
3FA5
3FE3
008F
0072
3F82
3FD3
3FB5
3FCE
001A
3FDE
3FA9
000E
3FD0
0043
0091
3FE4
3F8C
00BE
0084
0070
3FC1
004C
0088
3FCB
3FFA
008F
3FDF
0072
0011
3FFB
3FEF
0037
0017
3FE1
3F77
3FDB
0034
3FAA
3F97
0043
3FC0
3FF8
3FA6
0068
0085
3F9A
3FF4
3FE5
0009
0048
0055
0041
000A
0063
3FD9
3FF3
3F97
3FE1
3FB5
0005
0057
0045
3FAD
3FFC
004E
3FFD
0008
3F9A
3FA1
0009
3FD2
0070
3FF3
3FEB
003B
3F80
0050
0061
3FE9
0051
0021
0027
007B
004B
008B
0050
3FE0
3FF6
3FB2
3FCC
3FE7
0097
3FC0
3F9C
3FE6
0053
3FAD
0056
3FCA
0001
002D
3FA4
0006
0063
3FE4
3FBD
0059
006F
0038
3F92
0018
3FE1
3FB3
002F
0089
3FF1
0033
0041
3F94
000E
001A
3FA1
0067
3F9E
3FBD
3FA1
3FBE
3FF9
3FBC
0002
0045
3FEB
3F66
3FDE
004B
0014
3FAF
3F79
3FAF
0007
0041
0034
3FE7
3FE9
3FF0
3F9F
0014
004D
3FE7
0063
0022
3FFF
0063
0027
001E
3FF1
3F9A
3F99
0083
003C
3F91
3FDD
0001
3FC8
3FF4
3F90
007B
0030
3F76
3FA9
001E
3F90
3FBF
3FAD
3FD1
000D
3FD1
0012
0007
3FD1
3FB0
3FF1
3F98
0069
0012
003D
0038
0005
000F
0034
0079
002F
005C
0020
3FDB
3FCB
3F79
0001
0058
0005
3FB9
0030
000B
3F87
3FCC
0004
001B
3F7D
3FBB
3FBA
3FF7
3FA1
0088
000B
3FF1
0058
0014
0033
004E
0004
3FF8
0072
0089
002C
0034
001B
3FE5
3FC5
004D
3FFA
3FDE
0009
002A
3FD3
3FCF
3FE2
000E
002E
0039
3FDF
3F9C
0027
002C
0048
3F66
0073
001E
004E
3FBA
3FC0
006E
3FC5
007E
0029
3FE5
3FB2
3FB9
0057
006D
3F8F
3FB0
3FF7
0024
3FD7
3F7C
0007
3F9B
0052
3F9A
3FDA
0085
3F89
0026
3FC5
3FA0
0028
004D
0000
001D
3FEB
3FC0
0001
0048
003E
3FE1
000D
3FCC
007C
0015
3FBF
3FD2
005B
3FD9
3FCF
0028
005A
3F6B
3FC8
3FAA
003D
003C
001F
003B
3FEB
0030
3FCD
005B
004A
0038
3FC0
3FCC
0037
004E
3FAB
0084
0024
001C
3FBE
005C
0050
0044
3FD5
0055
3FD6
3F90
0082
0024
0020
3FAB
3FFF
3FE0
0038
3FB5
0067
007D
3FCF
0036
3FD8
3FC5
3FC8
3FE0
3FE8
3FB9
0027
0007
3FEA
0015
002F
3FB3
3FC9
004B
3FE0
3FEC
002C
000D
3FE1
0033
3F8C
0038
0009
003E
3FD1
0006
3FA7
001C
3FF5
001B
0039
3FE5
3FBB
0087
0039
3FD6
0013
0016
002B
0066
004E
0011
3FD0
0046
0058
006B
0039
3FC4
3FA7
001E
0027
3F84
0059
005C
003B
3FC5
3FCC
3FD4
3F8E
3FAE
3FAA
0036
0056
0039
0007
0008
0016
004C
3FE2
003C
3FF4
006D
3FE3
0018
004B
3F73
005D
3FB5
0024
0020
001E
3F7B
006A
0020
3FFE
0064
3FB4
3FA7
0088
3FEC
3FE6
0008
3F91
0073
0030
3FC3
0050
3F9A
0069
0060
3FAC
0032
3FFE
0060
002C
3F6E
0030
3FD0
3FC3
0015
3FEF
005C
3FF7
0051
0035
0033
004A
3FB0
3FAE
00AC
00B1
3F77
3FDE
000A
3FBD
000B
0052
0075
001E
3F8F
0007
0009
3FF2
3FFD
0012
0045
3F6C
006A
0012
0050
3FCB
002F
3FDE
006C
3FA7
0095
3FCF
3FAE
3FCB
3FAA
0026
0019
3FB3
3FB7
0005
0029
3FCA
0010
3FE2
005D
3FDC
0069
000D
0014
001A
3FA6
0058
3FB3
3FB3
0068
0024
004C
001D
0082
0056
3FE4
3FB3
008A
000F
3FCF
006D
0038
0051
3FB9
3FAE
0014
0013
3FA0
3FF9
3FF8
0017
3FBB
3FD3
3FE2
3F86
3FB1
0004
008A
000B
3FD6
0020
0014
000A
0012
0049
006C
0052
3FB6
0067
3F6E
005A
3FDF
0006
3FB3
3FCE
3FF8
0088
000C
0056
0034
0054
3FB5
3FD0
0025
3FD6
0076
0047
3FF3
0049
3F82
3FD3
3FE7
3F9F
3FF7
3F9F
0078
003D
0070
0032
3FAB
0017
0046
0048
3F7D
3FC3
002E
0044
3FBE
0038
0059
3F9A
006E
3FA4
0061
3F9F
3F8E
3FF5
006E
3F9B
3FD0
3FBF
0012
3FAD
003D
3FC5
0046
3FC7
000B
0002
3FE4
0048
006F
0033
3F66
004A
3FF6
0041
005B
0084
3FDF
002B
3FC7
005D
0010
3FD1
0053
0020
0052
3FFD
003A
0059
3FAF
0009
3FB7
004F
3FD3
3F86
002B
001C
0084
3F96
3FEA
001D
3F83
3FEE
005B
3FB0
3FDE
3FCB
0018
006C
0052
3FB0
0012
3F7B
0046
3FC7
0050
3F93
000B
3FB4
3FBC
3F9E
0068
3FB9
0077
004D
0041
006B
004C
0013
3FDB
3FC5
3FE7
0030
3FB2
3FA7
0046
0020
0044
3F9B
0047
3FCC
3F8A
001E
005D
0055
3FFE
0002
3FC4
0008
3F98
0026
007F
006D
0014
0018
3F6C
000E
3FD3
005F
0089
3FAD
3FFA
3FD5
0048
3FEE
0052
3FE3
0071
0003
0004
3FCB
3FC8
3FEB
001D
3FB0
3F9C
0014
3FE3
3FDF
0064
0040
3FFD
3FB3
3FAB
004C
3FAC
3FC6
002E
3F91
000B
0073
3FD0
3FDD
3FE5
0050
0066
0078
004A
001F
3FE9
3FEC
3FB3
3F9F
0017
3FDE
003A
006D
3FB4
3FC3
3FF9
3FDE
00B8
3FB8
3FBF
3F9D
0023
3FF5
00B7
3F9A
008E
3FBB
3FF1
00CE
3FFE
00B5
3FC4
3FBD
3FF5
3FBC
000A
3F6D
0033
3FF9
3FF9
3FCC
3F9B
3FFE
001E
0078
0011
0037
3FF7
3FD9
0015
3FF0
00D6
3FE4
3FA2
00B3
0030
3FE2
3FE0
0013
0024
3FCB
005C
003C
00BA
3FF3
0043
3F9A
3F98
002D
004D
001B
3FEB
3FF0
0026
001D
3FFA
3FC4
3FA1
0017
008F
006F
3F8E
3FA2
0071
001F
3FC4
3FA3
002C
0052
3FE5
3FCB
3FB7
3FC6
3FF3
002C
005C
3F9C
0019
3F93
3FC8
0050
3FAE
0000
3FCC
0040
0088
3FC1
3FCB
0014
003E
3FDC
0039
005C
3FA5
3FFF
0001
000F
005B
3FCA
3FDB
3FF6
0031
0065
3FB2
0040
3FE0
000C
0037
004E
007F
0042
3F8E
3FED
002F
3FE0
3F99
0018
3FA8
3FAA
3FD1
0014
0051
3FF4
0031
3F8E
3FAE
3FD2
0013
003D
3FB1
3FA7
0021
005F
3F72
3FBE
0028
0018
3FBA
3FF2
0031
0055
0085
0010
0058
3FF3
3FAF
0028
0019
0077
000A
0059
0021
3FC8
007D
3FFE
0003
0076
0046
0025
002E
001A
0024
3FBA
002E
0073
3FCE
3FB3
0057
0030
3FB9
3FBD
3FF5
3FEF
0004
0024
3FF2
002B
3F8E
3FEA
000B
3FD9
0026
3FA9
3FC8
0060
0031
3FEA
003D
0016
0007
0055
005F
0062
3FB8
3FA6
3FE7
3FE0
3FFA
0063
005A
3FCC
3FB5
3F82
0060
3F9E
003B
0069
3FB3
0070
3FE9
3F97
0011
0024
3FD3
3FC5
3F97
3FB4
3FC4
001C
3F99
3FD9
3FA8
3FDD
3FA2
0055
3FBE
3FB9
3FDD
3F9D
0010
3FB2
006E
3FE6
3FF4
000B
3FD4
005A
0056
3FAE
3FED
001C
3FD7
0073
005C
0024
3FD6
001F
0000
3FCF
0035
3FE5
0004
0005
0020
3FDC
3FB1
3F8E
3F8F
3F92
009F
003C
003F
0055
3FAA
000E
3F95
0011
3FE7
3F94
3F91
3F8E
3FB9
0050
3FEB
3FCA
3FE0
0035
0026
3FB6
0036
3FD1
3FCB
3FD0
3F93
0067
3FBF
3FF4
0065
3F8F
3FAC
0022
002D
0040
3FB3
0071
002F
3F8E
3FAE
0008
0061
3F90
3F7E
3FFD
002A
0000
0087
0019
3FFA
3FE8
0057
3F7B
0032
3FB7
000B
3FE6
0078
000F
0029
0073
0018
005C
3FC0
0020
3FA7
007F
3F8E
002E
0017
003A
0064
3FC5
3FE8
3FB1
0007
003B
3FD3
3FEB
3FE6
3FB5
3F6A
3FFB
005D
3FE7
0012
3FAD
3FE6
3FF2
3FA1
3FCC
0052
3F96
3F8B
3FF8
0048
0044
3FA5
000C
0050
0033
3FAE
3FAB
0002
004E
0005
3FEE
3FF2
0072
3F9A
3FCB
3FB3
0004
001A
004B
0070
3FB6
3F75
3FDF
003D
3FCF
3F81
0034
3FB6
3F8C
000E
3FAC
3FE3
3FC5
009B
3F91
001A
005D
0054
3FA3
3FDB
005B
0024
3F94
3F82
0002
3FF0
0045
004B
3FCB
3FE5
3F9A
3F8A
0057
006B
006F
3FEE
3FD9
0054
3FE3
000E
0007
0018
3FCB
0018
000B
3FDD
0009
0008
0023
0013
3F84
0044
3F93
0035
3FFB
3F87
002E
3F97
0017
3FEF
001A
0027
001D
0034
0044
003E
0012
0056
0073
3FC2
006C
0003
0066
3FA0
006A
3FAF
3FCD
3FD4
3FBF
0031
3FD2
3FFC
0034
3FA9
001B
3FE8
002C
008A
003F
0045
0030
3FC8
3FB7
3FDC
007A
001D
001D
3FCF
3FF2
005D
3FA7
005C
3F9E
3FCC
0021
3F6C
3FC0
0033
0020
005A
3FC1
006A
000D
0062
007D
3FB7
003C
0047
3FC0
007F
0065
3FBE
3FC2
3FEF
3FC4
3F95
3FE0
3FBC
3FDE
3FDA
0015
3FF1
0008
001E
0045
3FB0
006C
3FEA
3FB0
3FDD
3FC1
3FF5
3FCE
0016
0022
006A
0001
3FAC
001B
3FA9
003B
000D
0033
0048
0048
3FF2
002B
3F7A
0013
000B
0055
3F9C
3F7B
0078
3FC8
0054
3FBF
0084
001C
3F73
002D
0070
3FC3
007C
3FF5
0006
3FC9
3FC5
0039
3F9D
000D
3F87
3FAA
000B
0038
3FD4
3FE3
3F7C
3FE5
3FB0
3FA0
0012
005C
0047
0066
000E
3F9F
003A
0039
0009
3F8E
3FC8
3FFF
0009
3FF0
007B
3F6C
0015
004D
000B
0010
000D
000B
3F73
0011
0013
3FC9
009A
3FB7
003A
0057
008C
3FE7
0020
3FEF
0029
006B
3F7F
000B
0057
002F
3F7D
0022
005E
3F90
3F78
0069
3FC4
3FFE
0014
3FE6
3FE5
3F91
009C
0018
00A9
000D
3FBF
0007
3F9F
3FB5
00AE
0054
0003
3FE2
002A
3F7A
0002
0010
0073
3FA4
0062
3F9A
3F8B
3F9E
0049
005C
0010
006F
3F6E
0021
0024
0017
000C
3FD9
3FB4
3F7C
0013
3F8B
0018
3FC5
002B
0062
002D
004F
3FC0
0033
0029
3FA7
3F7F
3FD9
0074
3FE1
0046
3F9D
0041
0035
3F67
007B
3FF6
000F
0010
3FD7
006C
0028
3FA1
0050
002B
0017
0020
3FFE
3FE3
0070
0050
004A
0023
000A
0020
3FC2
006F
3FF7
3F6C
008B
0033
3FEE
0077
006F
3F8E
0051
3F9F
007A
3FF2
0062
3FA9
3FA3
000F
3F94
3FBC
004B
3FFE
0048
003D
0038
0007
3FA1
3FB9
3FF1
0065
3FC9
3FB3
3FCE
3FEE
3FF3
004E
3F9D
3FA9
004C
3FFA
0027
3FC5
0047
3F75
3FF2
3FCD
3FB4
0048
3FA5
008D
000A
3FDF
0053
0052
3FFE
0034
0003
006A
005F
0028
3FA7
3F80
3FA1
3F96
3FFA
3FC3
0043
004C
004E
3FD5
3FBA
0049
0006
005F
3F93
0028
3F84
0032
0067
0097
3FC3
0014
3FC0
3FE5
0079
3FEB
004B
3FBF
3FBB
000A
3FB5
007A
3FC1
3F72
3FB5
0020
003F
3F88
0031
0016
0072
0044
3FF4
0059
3FC5
0046
001C
00AA
3FB8
3FD9
0087
0010
3F9E
3FC7
3FD8
0009
3FAF
000D
3FE6
0054
3FCD
0009
3F7F
0030
3FD0
3FD5
0042
003D
3FD9
3F7F
000F
3FDE
3F9D
000E
3FB2
3F82
0023
0073
3FED
3FBE
3FB0
3FD7
3FEC
0018
3FCB
3FF6
3FCA
3FB4
0066
3FA1
002D
0023
0025
0021
003D
0057
0024
0042
3FD2
0078
005D
000D
3F9C
0076
007F
3FC6
003D
3FB4
0048
3FE2
3FB5
004F
002D
3FFB
0008
004E
0045
3F85
3FBD
3F92
0048
0029
000D
0034
3FD5
3F88
3FB1
3FB3
3FC9
3FF9
002D
0023
3FCF
3FF9
3F9F
0050
0018
3FCC
3FF6
0077
3FEA
3F7C
005F
3F8C
003F
0018
3F96
001F
000A
3FD5
3FCC
0069
0057
3FC6
3FC4
3FFC
3FCE
3FCD
0054
3FB6
3FAB
0069
3F9E
3FF4
0000
3FA7
0011
3F90
3FF9
0038
3F95
003B
003C
3FDA
001F
3FFD
0034
005B
0032
004F
002B
3FFD
000D
0067
3FBD
0051
3FE7
3FAC
3FE9
0053
0027
3F90
0046
3F8A
0064
0015
3FBC
006C
3FA5
3FEF
3FBC
3FAC
0011
0042
3FEB
3FC5
3FDB
0042
3FB2
3F97
0052
3FE2
3FAD
3FDC
3FA3
3FC7
0075
3FF1
3FC4
3FB3
3FAD
3F92
0069
007A
0007
005C
0029
000E
3FBA
3FFB
3F78
000F
004A
3FD8
0029
0059
3F95
3FE7
002C
001C
001F
0002
006E
3F9C
0028
004E
3FD5
0058
0051
3FA1
0043
0089
3FF6
3FDD
0026
3FAD
0034
008F
0009
3FEA
3FB5
3FF5
0014
3FF0
0020
006E
3FB6
0038
0070
000D
001A
0061
0039
008B
0050
3F8E
0022
3FD8
3FA7
0007
3FD4
0032
3FE0
0088
0069
0018
0008
3FD5
0040
0040
0055
0013
0062
0048
000D
002D
0040
3FE9
3F7C
3FD2
3FE7
0020
3FF6
3F9C
3FC2
004B
3FD9
3FB9
3F98
002B
002C
0030
007A
3FB3
0053
002A
001D
3FA7
3FE1
003F
0011
3F94
3FC6
000A
0029
0068
000C
3F95
0005
0049
005C
0039
3FD4
3FBA
3FFC
000C
3FFD
3FFF
3F96
3FAF
3FB8
3FB3
3FD2
0064
0009
3FC4
3FAC
0032
3FD2
3FD5
0007
003F
004A
0035
3FE7
0044
0042
001F
3FCD
3FAF
3F99
3FC9
000B
0056
000E
006A
0011
0008
003E
0070
3FAC
000D
0036
0084
3FB4
3F8C
0057
3FF2
3FC7
3FB9
0044
3FB9
3FC7
3F9B
3FC3
002A
0036
3FD7
3FF8
001B
3FB4
3FE5
3FFC
3FD5
004E
3FF0
0033
0015
3FE4
0043
005A
3FCB
005B
3F85
0062
3FDC
3FAB
3FF1
3FDA
0003
3F64
3FA8
000B
0039
006C
3FF6
0065
3FCB
005B
3FDF
3FBE
000E
007B
0008
3FCB
3FAD
3FD0
3FB3
002D
0047
0005
3FDF
0034
3FAB
0044
0057
000D
0080
0031
3F9D
3FF3
0056
3FCE
0017
000A
0077
0027
005B
3FD5
3FF4
0037
3FB3
005A
3FE4
0009
3FCF
3FBD
0036
004D
0055
3FA6
3F85
3FE7
0051
005F
005A
3FC8
0008
0005
3FDB
0039
3FFD
3FE7
3FC7
3FF3
3FFF
0011
0078
3F9A
3F91
004F
004B
3F91
3F8D
0049
007F
0027
3F96
0046
3FCD
3F6C
3FDE
002A
0081
000C
3F71
3FDB
007C
0030
007B
0005
004C
3FF6
0034
000B
0038
0020
0016
3FD5
0055
3FB7
000D
0012
3FA9
0023
0049
0016
004A
3FDD
3F8F
3FCD
0061
0009
004F
3F9D
3FA8
3FD1
3FFD
0042
0081
0003
0001
005F
3FC1
3FB2
3FC1
004D
0055
0040
000E
3FDC
006D
0023
0031
0029
0016
006C
3F8A
3FA0
0049
3F9F
0038
3FC7
000F
3FB1
3FA0
3F9A
004B
3FFD
3F76
3F9C
3FE6
3F8C
3F9E
0018
3FFE
3F90
004C
3FC0
3FCC
0026
3FF6
3FC5
0071
001A
3FF9
006A
000A
0039
003A
3FA2
3FA7
3FE8
004E
001D
3FF5
0040
0078
3FED
005E
0033
0069
0016
0058
004A
3FD0
3FC6
0023
3F98
0072
3FF4
0021
3FC8
3FBC
3FAA
003D
3FB6
0032
3FCB
0007
3FCA
003A
3FA7
0086
0025
3F78
3F7F
0045
3F72
0022
003E
002F
3FD4
3FDB
3FF0
0079
3FC9
000D
3FA4
0034
0038
3FBA
3FD7
3FD5
3FE0
001B
3FF8
006E
0056
0066
3F8C
3F74
3FBE
3FCB
3FE2
005A
0000
002E
3FF0
0046
0063
000A
001F
0031
0016
3F91
0055
003E
002C
002F
0049
3FCD
0054
3FC9
3FAB
0036
3FC4
0085
3FDF
3FB1
3FA9
005F
001E
0001
3FB0
0028
007B
0049
001C
0038
3FF7
0051
3FA8
0045
0034
0038
3FFC
004A
0043
0063
0018
3FE2
3FF0
3FBB
0032
0025
3FD9
0064
0036
3FC9
0018
0010
0047
3FE7
0020
0029
0049
006C
003E
002F
000D
3FB4
005E
000A
0006
3FDA
3FDC
001B
0069
3FCF
0010
3FFF
3FC3
00CF
0023
0089
001E
0048
0045
3FF2
006E
0034
0016
3FF1
3FED
00D1
000A
3FCF
0031
00B6
3F9D
3FCA
3FA3
0027
007D
0047
00BC
001E
0049
3F9B
00C5
00CA
3FF4
3F90
009D
3FBD
3FA6
001C
003C
0009
3FEF
000C
3FE4
0081
3FAA
3FED
3FC6
3F8D
0040
0078
000E
3F6C
0013
0001
3F7D
000E
3FCF
3FB8
3FF3
0023
001D
3FF7
000E
0049
3FC5
0055
0056
0059
3FF2
0087
3FC0
3F9F
0066
3FB0
3FDF
3FFC
3FDE
0036
3F99
000A
3FA0
001D
3FE2
3FD4
3FE1
005D
3F9F
3FC8
3FFB
3FB7
0044
0041
3FDC
3FD1
3FDE
0054
3FF6
3F83
0036
3F93
0063
0011
0015
3F8C
0020
0021
003E
3FCF
3FFD
3FEC
3FD9
3F95
0053
0017
0038
3FA7
3F95
3F80
3FFA
008C
3FEB
3FDF
3FB4
002C
0056
0061
001E
0011
3FFC
0054
3FC0
000D
3FDF
0003
0002
0062
0001
3FE4
0013
0047
006A
3FB8
3FCC
0015
3FD9
001A
0070
002E
3F86
0038
3F9B
0056
3FFD
3FAA
006E
0063
005D
003F
3FF8
0045
3FBC
3FF9
003E
0058
3F92
0014
3FFE
3F8D
002C
3FF3
0000
0023
0059
0037
3FFD
3FE5
3F98
0030
3FA0
3FB2
3FF7
000F
0031
0022
3FA5
0029
0055
000F
005B
3FA9
0022
0011
004A
0038
3FE1
3FB9
3F9F
3F86
0016
0023
3FBF
005E
3FAF
3FE8
3F8F
3FA7
3FA1
000F
3FC3
3FE2
0004
3FA9
3FE8
006D
3FFA
3F94
001E
3FF6
3F72
0012
3FEB
3FF0
3FF0
0047
0002
3FB3
003C
0060
3FC2
0045
3FE3
3FF5
0011
3FBE
3FDB
3FD0
0036
3FBB
0035
000A
003B
3F6C
3FD6
3FA9
0045
3FA8
0030
3FA4
3FAB
3FE8
3FD0
3FC8
000C
0041
3FEC
3FFA
3FA9
003A
0040
3FF1
3FF8
3FB2
002C
3FC7
0024
0038
3FDC
0060
0027
0000
0000
0033
0069
0053
006A
3FCC
0076
003B
3FB9
3FAA
0054
001C
0041
3FC1
3FE2
003A
3F95
0036
3FF0
3FCA
3FA5
002E
0017
0014
0046
3FD9
3FBF
0063
0021
3F76
0030
3FD3
002B
0014
3FDF
3F92
0047
3FE3
0015
0014
3FE7
3FF2
3FAA
0063
0040
0011
0022
3FAD
3FD1
0027
3FC4
3FE5
001F
0027
3FF8
3FBA
002C
3FC8
3FBD
3FB4
3FC0
3FFE
0048
3FD2
0042
3F9C
0015
3FEC
3F8B
3F9C
3FEC
0023
0002
0041
0006
3F9B
3FAB
3FD0
000D
3FD1
3F87
3FD2
3FCB
3FD7
3FCD
000F
3F90
3FF9
006D
0006
0003
0040
0071
3FC3
0000
0072
000A
3F90
001A
000E
3FD0
3FD9
0070
3FC2
003C
3FEA
0002
3FF5
0063
3FFF
0013
3F8A
0031
3FA5
3FBF
0040
3FE0
0015
006D
3F88
3FD8
3FE6
3FD3
3FB2
3F9F
0087
004E
002B
0058
3FD6
3FCA
0036
0073
3FF9
0031
3FC4
006D
3F8A
3FAB
3FE9
3FFA
3FD3
0071
004F
3F91
0022
004F
3FCD
002F
3FBF
3FE0
0042
3F99
3FA4
006F
3FC2
0042
0022
3FC9
3FD9
0001
0063
3FD6
3FD6
0015
0050
0024
3FD6
3FF2
3FD5
3FE5
3FB4
000B
3FBE
005E
0027
0077
006B
001B
0091
0051
0047
000F
3FDD
3F86
0027
0022
0017
0031
0079
3FA7
0065
3FF3
3FD8
3FCD
0074
0050
3F6E
005C
3FBD
0054
3F7B
3F86
002F
3F8A
3FBA
004D
3FB0
3FEF
0041
000F
0026
3FCC
3FF6
3FD7
3FF2
0042
0003
3FC0
002F
003C
000B
3FE8
0049
3FB7
0028
005B
3F6B
0016
0009
3FCB
0007
3FFA
3F74
004D
3FEC
3FE8
0086
0037
3FBD
0023
3FB5
3FCD
008D
3FCE
3F99
006D
3F87
3F9E
0053
3FA3
0046
3FC4
0041
3F8E
000D
3FBF
0051
000D
0089
3FCE
3FB1
0068
3FFB
3FA6
3FC2
3F7A
3FD7
3F72
3FEA
0023
0050
3FB4
0015
3FB5
002F
3F96
0007
002A
003C
004B
004E
0048
0035
3FEB
0030
3FD5
0000
0033
3FC1
3FD0
3F85
0066
3FA0
001C
3FAC
0017
3F9E
006F
3F8D
3FBB
0012
0071
3F9D
3FFC
0037
005E
0073
0051
3F81
0056
3F87
0021
3FDF
3FC5
3FE2
0022
002C
3F92
3FC4
0020
3FDE
0049
3FC6
3FB7
0028
3FBA
001A
0009
3F7B
3FC9
3FB4
3FB3
005C
3FA8
3FD6
001F
3F7B
005C
3FD4
3FAB
000A
3FDD
0052
3FA5
004A
3FF4
3FAC
0020
3F7C
3FF1
0029
0042
3FD8
3FC5
0009
3FAB
001E
3FAF
3FE2
0075
3FB1
3FB7
3FB8
005C
3FCC
3F96
0053
0037
3FA6
000B
0065
0036
3FC3
0047
3F75
3F9C
3FE1
002E
0025
3FC6
3FE9
3FC3
0072
003C
0042
0019
003C
3FE0
3FF1
0006
006E
3FAB
0054
3F7F
0051
000D
002A
000E
3FB5
3FAC
3FD0
006C
0040
002D
005B
3FC9
3FBC
006B
0035
0082
0037
0061
004B
002F
0051
003B
3F93
3FB1
003C
000B
0038
002C
003A
0042
3FA5
003C
0044
3FD8
3FCF
3FB4
0056
002C
000A
3FF3
3FF0
0073
000F
003F
0017
005A
3FBD
0079
004C
00E9
3FE8
0028
3F92
0071
005C
3FB0
3F7E
3FD0
3FFD
3FE4
3FE1
003F
0041
00CF
000F
3FE3
3F91
3F99
3F99
3FFC
0058
3FDA
3F98
0024
3F99
0068
000B
0028
005B
0036
00C5
3FD9
0019
0043
002C
0018
004C
000C
0014
3FB6
0043
0018
3FCC
3FF3
005C
0021
0009
3FDA
3FEC
3FC8
0038
3FB4
3FFD
0080
001F
000C
0009
3FBF
3F89
3FC9
3FE1
3F89
3FAD
0030
0055
0067
002E
3F9E
3FFF
3FEC
3FC3
3FF0
3FE3
0074
0077
0069
3F81
3FF7
3FEE
0007
3FB4
001A
0071
3F84
0037
3FF7
3FEF
0015
3FDA
0063
0089
006A
0070
0013
0047
3FAC
3FF1
3FC9
001C
3FC4
0028
0046
3F92
0064
3FD5
3FFA
002F
002C
0001
3FEF
004F
0073
3FB9
003A
3FD7
3FAD
0044
3FD9
0058
001B
3F60
3FD8
0007
005A
0065
001A
0012
3FC6
3FD6
3FC2
3FE1
0019
3FF2
3FB0
0028
3F96
0022
0014
005B
0058
0012
002C
3FAD
3FB0
3FB7
3FBC
3FD6
003B
003D
004E
0073
0047
001A
0053
3FCC
3FDA
3F8E
3FEB
0020
000D
000E
000D
3FC5
3FE5
3FCB
3FEE
3FCF
3FE0
0061
3FC9
3FB2
3FC3
0051
3FEB
003F
0060
005B
0071
3F79
000A
0053
0027
0008
3FDF
3FB8
0083
3F9A
3FFF
000D
3F99
001B
000E
0031
3FB4
3FE1
3FC1
0014
3FD6
3FA7
3FCF
3FAB
3FDE
3FF3
0071
0046
3FAE
3FE4
0026
3FAF
005D
0006
3FE9
3FF8
0023
3F96
3FB7
0038
0049
0069
3F90
3FDD
3FC4
3FB7
0057
004C
3FE6
3FAD
3FFC
3F94
0000
3FB6
003B
3FC9
0061
0045
3FC7
3FDC
0074
3F9E
0005
3FF5
002F
0056
006B
3FBE
0066
3FD0
3FA1
3FCF
3F9F
3F7F
0034
3FB8
003A
3FB5
3FB6
3FC6
005F
0086
0042
0024
0076
3FEC
3FB7
3FCE
0004
0018
3FDD
002F
3FF4
3FC0
3FD3
3FBF
3FAB
0072
3F9F
0041
002B
0070
3FF7
0006
3F98
0045
0018
0065
0016
3F92
3FBC
3FDB
3F93
005D
001B
0012
3FA9
3FE4
3F99
0035
0022
0074
3FB6
3F82
003C
0045
3FCC
0076
003F
0046
005A
002D
3FE1
3FD1
3FE7
0040
0031
0037
0006
0036
3FC6
007B
3FC9
3FEA
0044
0016
002A
002D
3FE0
0034
3FD3
3FB2
004C
0085
0026
3FB9
0013
003A
3FDE
3FA5
3FB3
3FE7
3F88
3F8B
3FED
0033
0043
0013
3FA7
0070
0051
3FB7
3FCF
3FA3
0064
3FB6
0077
3FF1
0038
0048
0032
3FF8
3FE8
0015
001B
0038
003C
3FA1
0069
002D
3FCF
3FEF
3FE4
0017
0061
0033
3FC1
0082
000A
3FC8
0012
001C
0017
3FAF
0006
0052
3FB4
3FB0
0035
0086
3FCB
0066
0060
0051
0002
3FED
0002
3FA4
0026
0033
0042
0024
002D
3FF3
0036
3FD0
3FC4
0017
3FF0
3FC7
3FDB
3FF1
0066
001C
0034
004E
3FAF
0021
3FAC
3FEF
3FEF
006C
0010
3FAE
3F92
000E
0044
3FF4
3FBE
3F98
3FA4
3FF3
007A
0030
3FCB
008B
3FBC
003F
3FC8
0058
0071
0001
002E
3FF2
007A
3FC3
0047
0005
3F97
0010
3F61
3FBF
0040
004B
3FDE
0059
002E
3FCD
0015
0009
3FB7
006A
0015
3FD1
3F9C
3FF1
0008
0014
0003
0012
3FAD
3F9D
3FF9
3FB4
3F92
3FE3
3FCE
0009
3FD9
0063
3FF5
0031
0043
0057
007A
3FA5
3FCC
3FE3
0010
0023
0010
003F
0009
0001
3FD5
001D
3FB2
002E
3FF2
3FDC
0032
3FE4
004F
3FA5
0028
008D
3F9C
3F90
0044
003C
3FF7
3FFA
0002
0069
3FE3
3FC6
005B
3FE0
0042
3FA2
3FFF
001E
0064
3F65
3FA1
002E
3FBD
0028
3F9A
002E
000C
3FD1
3FE9
3FDD
0039
3F67
0029
000E
3FC9
3FED
0069
3FC4
3FF6
3FDE
006E
0034
0027
3F89
3FF5
004F
3FDC
3FD9
3FC6
3F9D
3FFF
3F9F
3FB8
003E
0076
3FF4
000C
0012
0025
0003
3FBB
005B
3FA6
006E
3FCC
3FB9
0026
3F8D
3FBD
3FDB
3F90
0006
0049
0036
0001
0051
3FC6
3FA4
3FF2
3F9E
3FE0
3FAC
0005
3F90
3FB3
002E
0045
002D
3FB7
3FDE
0007
3F94
0063
3FE5
0045
0038
3FED
0066
3FDB
3FBC
3FE1
3FD7
003A
005B
3FE7
3FF4
0042
3FD1
3F95
3FAA
003F
0031
3F9D
3F9D
002F
3FA4
0028
0004
001A
3FC4
0053
3FE9
0042
3FD0
3FE5
3FBC
3FA9
0057
3FFD
0030
0070
3F7B
3FDF
3FEC
3FF5
001D
3FC7
0013
3FCE
3FDD
3FE8
3FCF
0049
3FF1
000F
3FD7
004E
0021
3FAB
3FFA
0006
3FF1
0016
003B
3F92
0054
3FA2
0029
3FBE
0011
3FA0
006C
0018
002B
3FFF
007C
0003
0065
003B
002F
0063
3FE3
3FDB
0086
3FAA
3FCF
3FBC
3FC6
0015
3FC5
0016
3FFD
3FF3
3FDA
3FA6
000C
3FE0
002B
006B
0010
001A
3FF7
0069
0059
3FB7
3F64
0018
3FD6
001C
0037
3FBA
3FAB
3FFB
3FC6
3FE5
0066
3FE1
3F86
3FB3
002F
3FEE
3F9B
3FEB
005C
0002
3FC0
0037
3FDA
0037
0037
0063
3FF1
3F78
3F89
0075
0002
003A
007B
0066
0071
3FE1
3F98
3FBD
3FAB
0066
3FF8
3FFA
3FDA
0079
000C
3FD9
3FE3
3FA7
3FC3
3F92
004D
3FEF
3FB7
0019
0057
3FF4
0038
3F97
00B6
3FA0
0013
000F
3FD2
002A
0029
3FD2
0008
004C
3FA4
00C3
3F99
00B4
0012
0065
0033
3FE2
0008
0000
3FCD
3FE4
0055
3FDF
3F95
3FF5
009D
000B
0011
003B
3FAE
0012
3FCF
3FF1
0009
001E
3FDD
006D
0048
3F95
0025
3F8B
3F92
0006
002D
3FF7
0062
3FDB
000C
004C
3FC1
3FB9
3FD3
0002
3F82
005E
003D
3FF6
00B2
3F9B
002E
3F92
3FA2
3F9B
0070
3FB1
0058
001D
000D
002E
0023
3FEF
0091
004B
0063
0086
0016
0094
0005
3FF6
0043
002C
0052
3FD7
005B
0018
0009
005A
3F99
005F
0031
0008
004E
0031
3FDC
3FFD
001D
003F
002F
0066
0035
3FFA
3FBE
0055
3F88
0046
004A
0041
004B
3FDF
006C
001D
3FE2
3FF0
3F92
3FCC
007D
0070
0032
002D
3F9F
0014
0015
0022
3FCA
3FCD
0043
0047
3FB0
3FBA
0074
004F
3F87
0015
0095
3FDE
3FDF
0019
3F97
0075
3FE8
0012
0026
3FC7
3FF1
3FA4
3FD1
0022
002C
0016
003E
3FF2
3FDD
3FFD
0000
0019
3FAB
3FD8
0016
3FA8
3F91
0061
004B
3FDE
0018
3FC9
3FC3
3F9A
3FD7
0043
0012
002A
002A
0007
001A
000B
0047
0011
006C
3FCD
0026
3F99
3FC2
001F
0017
3F8F
0030
0039
3FE1
0004
0008
3FBB
3F7A
0070
3F8E
3FF7
0042
0067
3F6E
3FF8
0011
3FEA
3FE5
3FDD
3FE8
3FF8
0012
3FB7
3FEA
0004
3FBF
3FB2
0016
3FE0
000E
3F9A
0077
0005
004E
3FAE
3FB0
3FD1
001C
004C
001D
004F
0045
3FB3
0013
3F86
3FF8
006F
3FEB
0046
003B
3FF7
3FBF
0001
3FF7
0060
0075
3FBD
3FDF
0030
0016
0031
0058
0030
005A
3FFA
3F97
0074
0036
0050
3FEF
0057
3F9E
006B
3FC4
0069
0001
0020
3F91
3FF9
3F94
0031
002E
001C
003B
3F63
0044
3FBA
3FE6
3FBA
3F95
3FFD
0030
3FBB
0040
001F
0000
3FA8
0037
003F
000F
3F90
0041
003C
0084
3FB7
0035
3FE8
003B
3FBF
0068
0051
000B
0017
0030
0017
001F
004F
0046
0022
3FA9
3FB1
3FBA
0012
3FB4
3FE1
3FE7
3FEC
3FF4
3FA6
3FBE
0004
0032
0027
0075
3FEB
3FB4
0017
005A
0052
3FEF
3FA2
3FE5
3FC4
3FE0
3FFD
3FD6
3FD5
0064
0004
3FD3
0026
0073
3FD5
3FD2
0030
3FE7
3F98
002A
3FB3
008A
3FDE
0008
0033
3F9A
004B
3FC4
002E
002F
3FDC
002F
3FCE
005A
0038
0060
0004
3FBB
0061
3FBA
001C
0016
007E
3FDE
0078
001C
0046
3FB8
3FD0
3FD1
0050
3FD0
006D
3FA9
002B
003A
0072
3FAB
006E
3FB6
3FB1
0042
3FDD
3FCA
004B
000A
005C
0030
3FEF
3FFF
005E
0030
0014
0034
3FDD
0027
3F91
3FE5
3FBE
0012
3FA2
0035
0058
3FE3
004B
3FA7
3FEE
004A
3FD0
0038
3FC5
0006
3FD3
3FFA
004B
3F92
3FB6
006F
3FF6
000B
0018
0027
0049
005E
0089
002C
008B
3F98
0031
3FEC
003F
3FF6
3FCE
3F95
000D
3F97
001B
3FB0
0060
3F7C
0001
3FE7
3F9C
000E
3FB6
0058
0014
3F9C
0040
001C
0047
3F8E
3FF0
0020
0036
3FEF
3FBF
3FE2
3F85
0042
0063
3FAF
0001
0005
3FD4
007F
005B
000A
3FC0
0006
0038
0018
3F8C
3FDF
3F73
3FCB
3FC5
0068
0035
0033
0071
007D
003D
3FC8
001F
004E
3FBF
3FB9
3FD6
3F7D
000F
3FA3
0002
0068
007B
004C
006B
3F94
0069
0009
0026
0066
005A
0049
0082
0066
3FA5
0025
3FB8
3FA5
3FCD
0071
3FBB
0071
3FB3
3F6B
3FE6
0051
001E
0030
3F8D
0085
3F7B
3FCD
3FDC
008A
3F9B
3FE9
3FB1
0076
3FC4
0032
3FF2
3FEF
0041
0034
3FA5
3FBF
0042
3FEE
3FFD
3FD9
3F7A
3F9E
0058
0009
0063
3FD9
001B
005A
3FDA
3F8D
0029
3F80
0049
3FD2
007A
0047
3FFB
3FFB
3FC3
3F7D
3F9F
3FE8
0048
000A
3FF3
3FCC
3FD7
003C
0068
0063
3F99
0050
0063
005B
3FAE
0055
3F9B
0030
3FD3
0038
3FCE
003E
3FCB
007B
0002
0053
0017
3FD8
0050
0002
3F9F
0041
0018
3F77
3FD4
0000
0034
002C
0003
3FE7
0026
004A
0007
3FFC
0023
3FBD
3FF9
3FD9
3FEC
3F9E
0033
0037
006E
0015
006A
3FAC
002B
3FFB
3FCE
3FBD
3FDD
3FE2
3FC7
3F7E
0067
0017
004B
0039
3FC9
3FC8
0042
0070
000A
3FED
3FEA
3F9E
3FF4
3FEA
0047
0032
3FAB
3FAF
3FD3
0049
3F94
3FA0
003F
002E
3F7C
0073
004E
3FD7
3FF5
0026
0062
3FA9
3FC4
3FC5
0076
000A
007E
0007
000D
3FB9
3FC6
3FA6
0077
003A
3FE1
003D
3F98
005C
0025
0009
3FE4
3FA9
006B
3FCE
0057
3FC9
3FE8
3FF1
0049
000F
002B
3FFD
0053
3F74
3F94
0079
0035
0055
0035
0048
000D
3FE9
0063
0029
3FDB
00AD
0043
3FF1
3F79
0027
0022
0069
3F7E
0044
3FC7
0048
0015
3F9F
0024
3FA5
3FA1
0046
0009
0055
3F8F
3FCB
3F9B
0042
3F9E
0024
3FF5
0038
0003
003E
00B9
0005
3FC7
3FD4
0069
009A
004E
0022
3FFD
3FA0
3FC6
0001
0036
3FCC
004D
007C
3F8F
3FF5
0007
0035
0021
0024
3FFB
003F
0043
3F6B
005A
3FB7
3F92
00AC
3F81
3F91
002C
3FFF
3FA3
3FC9
0077
3FC9
3FF1
3FB0
0055
3FF8
006C
0008
0060
000A
3FE1
002C
3F66
0026
3F9F
001C
006C
001C
3FC1
001D
3FA5
0004
001A
3FFF
3FE0
3FF3
0006
001C
003B
3F8B
0000
0086
3FE6
3FDA
3FE1
3FBC
0028
007F
0034
0074
3FB4
3F98
3FB1
3F8B
003E
0028
0025
002B
0032
003D
0044
3F8D
3FF9
003E
3F9E
3F9A
3FD8
3FEC
0030
005C
3FF2
000A
3FED
3F82
0043
006B
3FC4
005E
3FC0
3FA8
0056
3FAB
3F9C
3F93
3FDE
3FCF
0024
0045
3FCB
3FCC
3FB2
001B
0004
005F
3FD0
3FAB
3FFE
0020
3FBF
3F7D
3FFF
3FD7
3F6E
3FAD
0038
3FF6
0047
3FB7
0068
3FB0
0023
3FA9
3FE4
3FFC
003B
3FFD
0087
3F90
0031
3FE9
3FE4
002D
3FC6
3FC3
0023
3FDB
3F9B
3FAE
3FA4
3FF9
004E
3FD6
0051
0011
0045
0047
000C
002E
0073
3F88
3FAF
0035
3F9A
003F
0037
3F9F
3FAC
3FEB
0043
0002
3FD5
3FBB
0036
3FE7
3FE4
0013
3FD2
0083
0055
0032
3FEB
0062
0000
004A
002D
3FA2
3F8C
0023
3FE9
3FC2
3F7D
3FC7
0009
005A
004A
0062
0012
007E
3FAF
0043
006F
3FFB
3FD0
3FA4
3F98
000B
0006
3FDF
3F92
004E
3FEB
0027
002D
3F9D
001C
3FB4
3FC1
006B
3FCF
0065
0040
3FCB
005B
3FE3
0004
3FD4
0008
3FBA
3FEB
3FE2
005F
006C
3FFC
000E
3F63
0071
001A
3FC0
0029
3FAA
0049
3FDA
000A
3FE5
002D
3FAE
0081
3FFA
3FA9
0037
0039
001D
3FE6
3FE9
0001
3FE5
3FBE
0045
3F94
004B
3FFA
008A
0015
3FF6
3FD1
002C
3FCE
005B
0064
000C
3FBB
000D
3FAB
3F6B
0036
3FDF
3FB0
0052
0072
3F8D
005A
3FB0
3FD0
3FAD
0018
001B
0046
004C
0020
002E
0030
3FFC
0027
001F
3FEA
0061
0002
3FCA
3FEF
3FD1
3F99
3FDF
0061
3FAE
004A
0054
001C
3FF9
004A
0086
0059
0002
3FB3
3FB9
004B
0020
3FD5
0046
3FC9
3FBE
001D
0033
0049
3FEE
3F93
3FB5
002C
002F
3FF4
3FE0
008B
0037
3FA6
3FB3
0026
3FFC
3F96
001E
3FFB
0071
006D
3FC8
3FCE
3FCF
3FE7
004F
3FB5
004F
002E
3FD0
3FFF
3FDD
3FCD
3FB2
3FDB
3FA4
3FD2
3FBC
002F
3FA0
3FBB
001C
3FF4
002C
0055
3FBD
3F9D
0032
0072
3FB2
3FC3
3FF3
3FE0
0005
0047
3FA1
3F93
004A
002B
0002
000F
3FDE
001D
3FCB
003C
0076
3FCD
0005
3FEF
0017
3FF3
0032
3FF1
3FE4
000E
0057
007B
3FBD
002A
0034
3FFE
3FD6
002E
0051
0051
3FBE
002F
3FF2
003F
3FBD
0071
0089
0039
3FB3
3FD3
3FD2
005D
001F
0067
0045
0046
004E
0067
3FF6
0031
3FD4
3F7E
3FD7
3FC2
0069
0072
0009
003F
3FDE
3FB5
3F96
0045
0011
0018
0037
3FC3
3FAB
0052
3FBC
3FB7
3FF9
000F
0040
007A
0028
3F96
003C
0027
3FB8
3FA9
0020
3FDE
3F87
3FCD
002C
001B
3FE3
007B
3FBE
0048
3F93
0003
0026
3F8B
0019
0027
0032
004C
0001
003C
3FF6
3FCE
0043
0069
3FEA
3FA0
0092
0023
3F67
0007
3F7F
3FAC
3FE9
002C
3FAC
3FA9
008C
3FB2
0067
004B
3FBE
3FE1
0047
3F92
3FF1
007D
0028
3FB5
3F92
3FA2
0023
001A
0020
0063
3FCD
3FAD
3FD7
0074
3FED
3FA3
0042
006F
3FF6
3FB3
3F8F
3FBC
0001
3FE9
3F94
0075
005C
3FCE
0058
002B
002A
0068
3F9E
3FE5
3FBA
0062
0000
3FBB
0035
3FDF
3FA2
0018
0066
002F
002D
3F8A
0047
3FD0
3FF5
3FAD
002F
0041
3F95
3FF9
3FFD
004C
3FDE
3FF6
003F
0073
0083
3FDA
003A
0048
003B
3F7A
3F8F
3FAC
005D
0001
3F9D
0047
3FA1
003E
3FED
008E
00C5
3FE4
3F96
0005
3FBB
003B
3FE6
3FC1
3FB5
3F7B
00C4
3F84
005E
001F
001D
0026
0056
3F8B
0053
3F98
3F70
3F9C
3F8F
0004
005F
004F
3FFA
3FC8
3F73
3FD7
3FAF
3FD0
3FC2
0011
3FAE
3FC0
001F
3FAC
3FE2
3F9B
004F
3FC1
3F9F
0070
3FB8
3FAC
0052
0039
3FB6
3FCF
001F
3FA8
3FFB
3FC8
3FAE
3F8E
3FF5
005B
003A
008C
0016
000D
0031
000E
0081
3FD8
3FBA
3F96
0019
3FFC
3F7B
3FB9
3FDF
3FD4
3FCA
3FD7
0078
3FA7
3FAF
3FFF
001D
006F
008B
0066
3F9F
3F95
3F88
3FD1
3FE9
3FED
3FC5
3FB9
3FD7
002E
3FBB
3FCC
3FE6
002D
3FF5
3FF8
3FFB
0015
3FC5
002F
005B
003E
0001
0011
3F80
3FB9
3FAC
3FCC
3FC3
001B
3F94
0053
0018
0047
0036
3FEE
0015
0038
3FD9
004E
3FEA
0048
0052
007F
0003
3FC1
004F
3FE4
3F89
0063
3F89
000B
3FDC
002D
3FEA
0033
000A
0028
005B
3F87
3FB6
0046
001A
005F
0046
002D
0028
003F
008E
3FFE
3FEC
3F8E
0080
3FAD
3FBA
001B
3FF6
004D
3FEE
005A
0031
002C
3FA2
0036
3FF4
0051
0058
3FFC
0042
0069
008C
3FF1
3FA5
004F
0055
3FCC
0031
0077
3FCC
3FD6
0030
3F89
3FB9
3FE1
3F98
0039
3FCF
3FDA
3F8D
0038
006D
3FAB
006D
0009
0060
3FE0
3FA7
006C
3FCA
0064
3F85
003E
0027
0023
3F9C
3FC6
000B
3FD8
0002
0002
000B
3FD1
3FE2
000C
0054
003C
006A
002C
002F
003B
005E
0030
008E
3FE8
3F76
3FDA
3F6E
3FF8
3FCF
3FA3
3FEE
3FCE
0083
000C
001A
3FBA
0043
0060
3FDD
3FDB
3FEC
0058
3FAD
3FD9
0053
001C
3FC5
0013
3F90
3FDC
0004
3F96
3FEA
000A
3FA1
3FB2
3FF7
0021
000D
3FC6
002F
0019
0013
0087
003B
0011
3FD4
0088
0025
3FF4
3FAC
004E
3FE3
3F94
3FAC
0065
3FB5
3FC8
3FDF
3FF5
3FF3
004F
3FD1
3FEE
006D
0018
0054
0012
3FCB
3FB9
3FD7
3FB8
3FEF
002B
0013
3F90
0071
3FBB
003D
3FE1
0054
0063
0016
006A
3FC2
007B
0059
3FAD
0048
3FDF
005E
0037
0016
0024
0085
3FB0
3FF3
3FB9
0062
3F94
002A
3F98
003D
3FF7
0058
3FE9
3F9F
0030
3F7B
3F9D
3FA7
3FAC
3FC2
0016
3FD0
3FC7
003F
3FB8
0068
0056
3FD7
004F
3FF0
3FEC
3FC5
0029
3FAB
3FF6
003F
0074
006A
3F96
0035
3FB5
3F7C
0027
0000
3FE6
0071
3FBE
002F
000A
3FE6
3FB0
3FBC
3FEB
3FB4
3F9D
0002
004B
004F
3FEF
3FD3
3FAD
3FE7
0039
004A
004A
0078
3FEC
3F88
3FEF
3FC5
3FC9
0010
3FF4
3FB8
3FEE
3F9F
3FEB
0023
0006
3FF6
3FCC
003B
3FC5
3F90
3F8E
0008
003D
0078
000D
3FFA
006B
3FFB
0076
0028
003C
007A
3FC6
3FC3
001F
3FDE
3FB2
0001
0015
000C
0059
3FAF
006B
3FB4
3FBD
002C
3FAB
0000
3FEF
3FFB
3FFC
3FEE
3FB3
0012
3FEA
3FC6
004E
0027
005A
3F94
3F7B
3FC2
3FC0
006B
0050
3FFF
000F
3FA8
3FD0
0031
0011
0045
3FC1
3FAC
3F9A
3FE4
3FEB
3FC6
0051
0022
005B
0076
0062
004B
000B
3F8D
001F
0066
3FDE
0064
3FAA
004E
0082
3FC5
3FC7
3FE7
3FFB
3FE0
005B
0039
3FF7
3FED
3FB8
3F86
0031
3FF6
3F98
004A
3FF5
3FA6
3FC7
0073
0034
0082
005E
3FCD
3FB0
007C
3F99
3FB9
0062
3FD2
0077
3FFF
3F9C
002E
3FAF
3FB2
000F
005A
3F72
0020
0000
004A
3FDE
000B
3FDA
0070
3FF5
0020
3FC8
3F98
006B
002B
0067
3FBE
3FAD
3FB1
3FC0
0015
3FF1
0073
3FF4
0065
0084
3F6C
0010
3FB3
3FAE
0008
0035
3FE1
0025
3FED
0011
3FD1
3F8F
3F9B
3FBC
3FCA
001B
3FEE
3F79
3FDA
3FBE
0051
004F
0063
3F9D
3F89
0020
3FB0
3FDE
3FE1
3FED
003F
3FAE
003C
004F
3FE1
3FE9
001A
3FF4
3FC9
003A
3FAF
3FE6
3FDF
3FA0
0058
001B
3FB9
0027
3FC9
005F
0023
0003
002B
0050
004E
3FAD
3FF2
001D
3F66
3F8F
0067
002B
3FC8
0038
0036
3FE9
3FBB
3FB9
3FC8
000E
3F9A
3FE0
006D
003B
000D
3FAF
0042
0017
0048
3F87
001E
0008
001C
0022
0069
3FC2
3FB1
001C
0056
0004
0033
003D
3FF9
006C
3FFE
3FC7
0036
0013
0072
3FEB
3FCD
0076
0004
3FEF
0016
3FEF
0009
005E
0054
0018
3FE2
3FBA
003C
3FAE
3FDA
3FC5
0038
3FBC
3FD4
0038
0030
3FF5
3FF9
002F
0051
003F
0032
3FC3
001A
001D
3FEC
0045
0050
0026
0094
0003
3FEF
3FD5
3FE9
3FA8
0000
0022
003E
3FDE
001D
0089
004F
005C
3F85
3FD6
3FC1
3FD6
0056
0004
3FC3
3FDA
3FFF
3FB0
001F
0047
3FEA
00BD
3FD1
00B5
3F92
3F9A
0034
0040
0008
3FC1
3FD5
0099
3FE8
3FA7
3FA4
3FD9
0002
0045
007D
3FC5
003A
3F90
3F99
0020
3FBA
3FF8
00A7
0043
000C
0053
0050
3FAE
0034
3FA0
005F
3FB4
000E
3FBC
3FD1
3F96
3FE1
3FCF
0032
001C
002D
3F91
3FBD
0078
003D
3FEA
3FCF
3FBC
0025
3FA4
0053
3F9D
005E
3FF2
3F91
001F
003A
0049
3F81
3FF9
0008
005A
3FEC
0001
0060
3FF5
3F92
0091
000B
0030
0054
005B
3FF5
3FCC
0031
3FA0
005F
3FA0
3F9B
3F8B
3FE5
002B
3FA8
005A
004C
0026
0061
0054
002E
3F8F
3FEB
0026
3FC9
0028
3FE1
0050
3FE5
0009
0025
3FDB
0063
3F86
3FD7
3F9C
0028
3FA3
0078
3FF2
0055
00D6
3FB5
005E
3FF3
0048
3F79
001F
00E0
0039
3F78
0071
0073
002C
3F8C
3FB3
3FCF
00BE
0012
3FFB
3FB6
3F6B
3F9C
00A5
00B8
3FCF
3FAA
00D1
001C
0011
3F6D
0073
3FD2
0030
0001
3FEB
0076
000A
3FD8
0039
002E
3F93
0029
0059
3FD7
3FB0
3FD4
3FEB
0079
0005
0044
3F97
0084
3FDC
3F8B
0027
3FCC
0057
0019
0002
3FB2
003D
3FA9
0024
3FA6
3FFB
3FB8
3FBB
3FB5
3FE7
3FFF
000F
3FCA
3FDB
3FB3
3FA3
3FEB
0080
3FEE
0083
3F86
000E
0044
3F91
0002
3FED
0087
004E
001A
3FF9
0013
3FA6
0014
3FE7
004E
3FDF
0052
3FAD
3FDE
002A
0038
3FE9
0087
0057
0056
0071
0004
0003
0032
0043
000E
005B
3FEA
3FA6
3F8F
3FCA
0018
3F9C
0045
0011
3F90
0039
3FDB
3FC6
003E
0073
3FF1
0005
3FCC
0021
003E
000F
003C
3FD7
3FD3
3FA4
3FFF
0057
006F
001C
0017
0053
3FF3
006C
3F9A
3F77
3FEF
3FF4
3F8C
004D
3FE6
3FAE
0048
0007
3FCD
001A
0023
3FD3
3FE7
3FCE
0051
0075
3FAA
0014
0026
3F9C
3FD1
0002
0065
3FE0
3F83
3FC7
3FB7
3FD7
3FBB
3FA8
3F74
3FC1
0040
3FBC
3FA8
3FFC
003A
3FD5
3FF2
0083
3FDB
3FB0
3FA9
007A
001E
0049
3FEC
3FEC
004E
3FD3
0022
3FDD
002D
0044
002A
001F
0085
0008
3F78
3FDF
0004
0038
001C
3FB1
3FBE
003B
3FD5
004E
3FBA
0015
3FA1
3FD0
3FEE
3FD4
0033
0066
0063
0037
3FAF
0011
0034
0059
3FDB
004F
002E
3FED
0038
0008
3FFE
3FE9
3FD7
3FC7
002A
3FC1
3FEB
3FA8
002B
0054
3FEA
000A
3FB2
003E
0011
003F
0091
3FA2
3FC3
0004
3F95
3FA8
3FA9
3F84
006D
003B
0011
3FFD
0003
3FBF
3FA9
002B
002C
3FF0
3FE1
3FA1
0086
3FBF
0007
3F9B
3FF1
002B
3FFB
003E
3FD4
3F84
003D
3FDE
0074
002F
3FA7
3FD6
005C
3F95
3FDB
3FA9
3FBF
0031
0033
0048
0045
0039
3FAA
006A
003C
003E
0063
3FCA
0069
004B
002F
3FF2
3FD4
3FDC
0047
3FAB
3FFE
0004
3FCA
3FE5
001F
0032
002A
0004
3FF2
0010
3FEE
3F9D
3FCA
3F7B
003F
006E
0045
3F8F
3FBD
3FDF
0013
3FB7
3FF7
3FA1
003C
3FB6
3FB0
3FA5
3FA8
3FE2
0000
3FA9
3FCD
0030
3FAA
002D
002D
3F89
0009
003A
3FD0
006D
001C
3FFC
0042
3FF9
005A
0048
0084
0088
000F
0041
3FAF
3FF6
0049
3F99
003A
0028
3F85
0041
3FB0
3FF0
007C
0021
3FB3
005B
0034
006F
3FC7
0057
0024
001C
3F81
3F8B
3F97
002C
3FC5
3FF7
3FD5
004B
3FE0
001E
3FE2
0062
0068
3FB5
3FC2
0043
0035
3FBC
0019
0038
000F
3FA4
0011
3FE6
3FE1
3F8C
3FB0
004D
3FB8
3FAA
0072
0016
0031
3FD3
3FE0
0003
3FF8
3FD0
3F75
3FFA
002F
3FFE
0022
3FA2
3F6E
004B
3FA8
0015
0079
3FDA
3F77
3FA4
0040
3FC2
3FD2
3FBE
3FC3
0053
3FAE
3FE8
0037
3FAD
3F7A
005F
3F9B
3FDC
0072
0049
3FBD
3F7C
0023
001B
3FB9
3FDD
3FA2
3FC8
0019
005B
0019
3FE8
0016
0083
0030
3F7F
3FB2
3F78
0046
3FAD
3FC2
3FF0
3F94
004D
3FE2
0022
3FE9
3F8D
0011
004E
3F99
3FEE
3F7E
3FF8
0051
006E
3FF3
3FE8
3FC1
3FA7
3FED
0032
3FEC
3FC1
0025
3FC6
3FE4
001C
0065
3FE4
008F
3F8E
3FE5
3FF3
3FA2
005E
3FD0
3FA3
3F7C
006D
0021
0001
3FA1
3F94
0010
0029
005F
3FC2
001D
003F
0007
3FBE
007B
3F96
3F71
0015
0046
3FFE
0028
3FC2
005C
3F8D
3FD8
0052
3FEF
0034
3FB9
3FFA
0066
005C
3FEE
3FBC
3FF7
0048
0011
3FD3
0012
0087
3F92
0047
006F
3FBC
3F94
3FD6
3FA5
3FF0
3FBB
004C
3FB0
003A
3FAC
005D
0039
3FAE
3FC5
3FBA
001C
0046
3FF4
3FBB
3FAE
3FEB
0044
0024
3FA3
0038
3FB0
3FE4
003B
3FD8
3FAD
0063
3FD6
3F9A
3FB8
006E
3FAF
0061
001A
3FB2
3FE2
3FDA
3FDE
3F9C
3FCE
3FA9
3FBB
0024
0003
0029
3F8E
0014
3FB6
0038
3FF2
3F97
0033
0003
001E
000F
001B
005F
3FEB
0005
0017
3FB5
3FCF
3FE7
3FE7
3FBF
0055
3FBB
3FD3
000C
0032
0002
3F9B
001D
3FB2
3FC3
00A2
3FD9
0015
3F7A
0046
3FD2
0061
3FB1
003A
004A
3FAA
00B7
004B
008B
0048
3FAB
3FAB
0001
0013
3FC5
3FD1
3FCC
00B0
3F89
3F74
0027
0014
001A
0050
001E
3FDE
3F90
3F91
00AE
00E4
3F86
3F82
0038
3FDD
0030
004E
0068
3FE0
000C
00A0
3F7C
3FFC
0059
3FF1
3FE8
001F
0063
3FDC
0022
3FA1
0063
3FD2
3FD8
3FF6
3FB2
0029
3FF7
0038
3FD1
3FD0
0035
3FB9
003A
3F8A
0061
008F
3FCF
0014
006B
3FBC
0014
3FEB
0068
3FE0
004F
3FA0
3F9B
0064
0022
3F8D
0028
006D
3FF4
3FCB
3FE4
002A
0032
3FC4
0011
0028
3FA7
002B
000B
3FCE
3FB3
3F84
3FE1
003A
0035
3FB9
006B
0066
3FB3
0072
3F96
0072
3FAF
3FB3
3FCA
000E
3FB3
003D
000B
3FE6
3FA3
0001
0014
3FC1
3FE0
3FE3
3FBC
3FA0
3FDF
0004
3FAC
3FBE
0010
004B
002B
3FEE
3F8B
3FBC
3FE5
001B
3FA6
3F88
0094
005A
3FB6
0016
3FF3
3FA3
3F9D
3FB2
3F8F
0079
0063
3FC3
0019
0077
0045
002F
3FAD
3FAD
0039
3FF9
0072
3FCB
001A
3FA2
0033
001C
0029
001D
006B
3F9D
003D
3FC7
000D
006F
3FD1
3FE0
3F76
3FB0
3FA2
3FD1
3FCC
3FE4
001F
0006
0008
3FFD
3FC0
0042
3FB0
0042
3F96
3FE7
0020
0014
0035
0089
3FA7
001E
0056
3FB8
3FB2
3FBA
3FA2
0011
0009
006F
3FBA
007E
0015
0019
007C
0064
3FC7
0049
3FC4
0075
3FE5
3F98
002F
0054
3FA0
3FE2
3FAD
3FF9
3FF0
003A
3FC3
0018
0035
3FF7
0001
0062
0066
002C
005D
3F85
008D
3FC2
3FF4
3FF2
0067
3F9F
004F
3FD6
0018
3FEB
3FB2
3FAB
3FD6
3FDE
0018
3FD7
3FC0
003A
3FA4
3FF1
004A
001D
002B
3FED
0023
3F6F
3FBA
3FC9
3FE6
006C
0012
006C
3FEA
0080
3FBF
006E
0050
000A
006C
3FF0
0040
003C
3FF0
0074
0010
3FEE
3FF4
3FDD
3F84
3FAC
3FF5
0016
3FF0
3F86
3FD2
000F
3FE6
0031
3FED
0073
006A
3FB5
006E
0035
3FE5
0019
3F9C
0058
3FC7
0026
0046
0036
0042
0068
0020
002D
0066
3FA1
0047
0061
0058
3FB2
003C
3F7F
3FC8
0008
0081
3FAE
3FB6
3F85
3FEB
3F85
004B
0054
3FB0
3FF1
0027
0082
3FD9
3FBA
3FEC
003F
3FE7
0084
3FA2
000E
3FEC
3FFD
003B
0054
3FE6
3FD4
3FE0
3FAA
3FF1
3FEE
3FC5
003A
3F9F
3FAC
0032
0059
000F
002B
3FA3
3FEF
3FA6
0062
0071
3FE7
3FC2
0010
005C
3FFC
3FA8
3FF5
0025
005B
0002
3F9D
3FC1
0012
0037
3FED
0014
0074
3FD4
3FD4
3FAA
0028
0030
002E
3FA2
3FA9
3FFA
3F96
3FBB
004C
0038
005D
3FE1
3FB8
0074
3FB4
3FCD
3FF5
3FEC
3FE3
006E
000F
002B
3FF8
0048
3FA5
3FD7
0006
0023
0047
0056
0029
3FD0
3FF5
3FF6
3FD8
0053
0023
3FB3
000C
002E
0020
0057
3F8A
3FFC
0040
3FF3
0059
004A
001B
3FB1
3F6B
0071
3FD0
3FAC
0079
0009
3FC2
3FB2
0023
0034
006D
3FDE
3FCD
3FE4
0047
3FAA
3FF5
0063
0021
004B
3FC5
3FCD
3FF3
3FAF
0013
0035
0061
0029
3FC1
0067
3FC8
0030
0001
3FF5
3FDD
3FBF
002E
000F
0016
3F6F
006D
3F6B
002A
3F9E
3FBB
3F8C
3FD1
005A
003D
0031
3FF6
004E
3FAD
3FCA
0058
3FF8
0062
0029
3FBD
3FBC
3FFA
3FBD
3FD1
0027
3F73
001B
0001
3FD8
3FA5
004D
3F77
0028
3F92
3FB1
3FF3
0063
0038
3FB7
0043
0075
006A
3FFD
0000
0020
3FEB
003C
3FEB
000B
003C
3FD6
3FAB
3FD7
0082
002E
0031
0029
0053
0016
3FF6
007A
0041
0021
004C
3FFE
3FFF
3FB5
000F
003B
3FA8
3FF6
3FF9
3FEF
0070
3F8A
0014
3F96
0033
0033
0016
0004
3FC9
0050
3FB8
3FDC
0019
0086
0000
003D
004D
001E
3F93
0074
3FFA
006D
0029
3FCA
3FBC
3FC2
003C
3FF2
3F8B
006E
3F8F
0015
3FCC
3FB1
3FCA
0053
003E
3FDA
0037
3FBA
008C
3FF3
0053
3F99
3FAD
3F9F
004B
007C
0039
3F90
3FF6
001F
3FEF
004C
0052
0035
0034
0020
3FA7
0045
0066
3F8B
3F7F
0042
3FDE
3FA1
0011
000A
005F
3FC6
0049
008E
3FF1
0081
3FA3
3FD8
000B
0070
0035
3FC3
3F71
3FD8
3FF9
3F9A
3FF3
3FAB
3FCC
0057
3FD4
0070
0030
0036
3FAA
3FC0
0063
3FB1
005F
0034
0021
3FDD
3F76
3F9D
3FF2
3F81
3FD8
3F6F
0010
003C
0038
3F98
3F9B
001A
3FEC
006D
0002
0008
0041
0077
3FE6
3FBE
3FEC
3F81
0021
3FF2
002E
0045
3FAC
002C
3FAB
3F93
3FCB
003A
0054
3F98
3FE4
0003
0031
004E
000A
0000
3FB0
0025
3FE4
002F
004E
3FC7
0003
0001
000B
0006
3FAA
3FDB
3FBD
3FA7
0038
3F9A
0022
006C
0001
0028
0028
0024
008D
0003
0068
3FDD
3FA8
002E
3FCB
009E
0023
0011
000D
003E
00D6
3FB6
3F84
3FA8
0061
3F7E
3FE9
3F94
3FDF
0008
003D
0070
3FA2
0030
3FF6
001D
0075
3F93
000B
0020
3FD4
0013
3FDA
003B
3FFB
3F9C
00AE
000A
0029
0025
3F80
0012
0009
3F9B
3FE5
005C
3FCA
3FA9
3F86
003B
003F
3FDA
3FED
006B
0000
0046
3FF6
3FE0
3FBC
3FC0
3FAB
3FF0
0031
0016
3FC6
0067
3FE8
3FFA
0057
3FC0
0038
3FFF
005C
0031
3FC0
0014
3FB8
0031
0029
3FC0
3FC8
3FFF
3F7A
004A
001F
3F88
3FFB
3FC0
004F
3FAF
3F94
0038
006F
3F81
3FFA
3FF1
001F
3FA6
3FC7
0087
3FE3
0062
3FC4
0001
0078
3FE6
0022
3FA7
3F95
001C
3FFE
005E
3FE2
0064
3FD5
3FC2
0012
0005
3FF0
0009
3FE9
3FB6
0008
3FDF
0018
3F93
3F8A
0080
3FA3
0003
3FF0
0025
3FE4
3FBD
3FF5
0030
000D
000D
0015
006A
3FE3
3FFA
002F
3FE5
005D
0018
3F8E
3FA1
0034
3FCD
3FA8
3FA8
3FCC
0000
3F94
000E
007A
0005
3FA4
3F93
0089
0051
0032
3FC5
3FD5
3FD8
3FE1
0065
003E
3FC2
3FB9
0015
3F89
3FB0
3FA5
3F91
3FC0
3FCE
0004
3FC6
0028
3FF7
0013
0023
0043
3FA3
004B
3FDC
0032
3FC8
000C
3FB3
0013
001B
003F
3FCA
3FFA
3F9D
3FBA
3FDD
0062
0068
001A
006B
0052
3FBC
3FAC
3FC7
3FB7
0043
3FC1
0018
3FE8
0048
3FBB
0005
001D
3FC9
3FDF
0035
0062
000F
3FB1
0007
3FF5
3FF3
3FA3
3FCC
3FEF
008A
0012
004B
006C
007A
000D
3F97
3FCF
3FE2
3FC9
3FAD
3FE3
000D
001E
3FC8
3FF1
3FA9
0028
3F90
0059
000F
001C
3FCB
0032
3FFF
3FFF
3FFB
3F94
006B
0000
3FA6
007C
3FCE
3FC0
3FA4
3FF4
0036
3FC9
0064
3FB9
002F
3FAB
3FA8
3FE5
0026
3F71
001A
3FD6
0008
3FAA
0057
0017
3F7F
0024
3FE0
3FAA
0049
3FB5
3F8C
3FAE
3FBF
0009
3FB9
3FE5
3FB2
3FE2
0040
3FCE
0010
005D
3FE1
3FC7
3FFF
3FC0
0003
0061
0005
3FE3
0032
3FCD
3FDD
005B
3FAB
3F81
3F96
3F9D
3FFC
3FEC
3F96
3F9B
3FF0
001B
3FA5
0022
0002
001A
0012
3FF8
3FE9
3FF9
3FEB
3FC6
3FE1
007E
0000
3FC2
007F
3FF2
007D
3F87
3F76
000C
3FFC
3FFB
0008
3FD2
0034
3FCF
0012
0027
3FC9
0070
0057
0005
002F
0071
0040
3FE0
3FB7
3FB3
3F9F
3FB9
0076
001D
3FC3
0021
0057
3FC4
0029
3FB5
3FE6
3F7A
0077
0056
3FDF
3FD2
3FA5
3FBB
004A
006D
3FC8
3FB3
3F8E
3FEE
004F
3FFB
003F
3FE1
3F7E
0037
3FB9
0076
3FB1
0026
0063
005B
0076
3FD3
0070
003B
006B
3FA9
0078
000F
0034
0033
0025
0065
3FAB
0071
3FFE
3FD3
0075
3FA6
000F
004C
3FB0
3FAB
3FFF
3FEC
3FE6
0060
0089
004B
3FEC
0004
3FC7
0020
3FB7
3FAA
3FBF
3FA3
0002
000C
3FE9
002F
3FF9
3FC8
3F9B
0011
0037
3FA8
000C
004B
0009
0031
3F97
3FAD
005E
002E
0004
0039
3FAC
3FDE
0036
0054
0035
0060
3FF9
003D
3FFD
3FBF
0030
0032
000F
3FDA
0046
0007
3FC7
3FB8
3FBE
3FAB
3FFF
3FC3
3FB1
3FB2
0032
3F95
3FB3
0081
006C
006D
3FFA
0031
3FCD
0043
3FC7
3F7C
0053
002C
006F
005E
0034
3FCE
002E
3FC7
0005
3FCE
006B
3FDA
0021
001C
3FDD
3FB0
0048
3FFE
0052
3FA9
0022
3FE9
0060
0009
0004
3FF2
3FB3
3F93
3FA0
3FCE
3F9A
0047
3FC1
0016
0023
002F
3FF4
0054
000D
3FAD
3FEA
3FEB
0084
3FF6
3F70
0050
3FCB
0019
0033
3FDA
3FD6
3F6D
005E
0029
0056
3FC5
0068
3FB8
3FBB
3FDC
0089
3F8E
3FCD
3FD5
3FAA
0023
005E
3FBE
0019
3F93
3FB2
0014
0049
3FEC
004A
3FB7
003D
0010
0058
3FAE
3FB6
0019
000A
3FDF
0045
3FB1
3FB5
0006
3FE1
3FE8
005D
3FD9
3FFE
0029
3FAA
0019
003E
006B
3FCA
0038
3FE7
3FAF
0045
0020
0067
006F
0043
0041
3F9D
3FAE
0001
002F
003A
0075
3F94
000F
3FE1
3FF6
3FD1
0058
3FD4
000D
3FEA
3FA9
003A
3FC5
0042
0046
0077
0087
3FCD
001B
3F9D
0037
0047
0031
000F
001A
3FFB
3FAF
3FE0
3FB0
0035
3FA8
001C
002B
004A
3F9E
3FD2
3FC9
002B
3FE0
3FF0
3F83
3FC5
0014
3FF3
0041
0037
0057
3FBF
0054
3FC9
3FC0
0019
002B
005D
3FF3
3FCA
0071
3FD3
0012
3F82
0077
3FF4
0031
0028
0064
3FF3
3FAE
0062
0019
0038
000C
0007
3FC0
0000
0058
0027
3F80
3FBF
0008
3FB0
0079
006E
3FFA
001E
3F7C
3FB5
3FCD
3F96
002B
0057
0019
001A
002F
3FA9
3FCC
002C
0015
0060
3F9A
3F6E
3FC7
006B
000D
3FAD
008E
0038
3FE3
00A8
3F9B
00A7
3FC1
3FDA
003A
0045
00B9
3F96
3FAE
3FCB
0034
0012
0020
3FA5
0030
008D
000E
00B2
0042
3FF4
3FAF
0015
0079
3FAC
3F6F
00B6
003D
3F9A
3FB8
3FC4
3FE7
0011
0052
0036
002B
3FFD
3FE9
3F6C
3FE0
0008
006B
3FAD
3FEA
000F
3F96
3F87
0027
0028
001E
3FBE
0008
0031
3FFF
0005
3FA9
3FE6
3FEC
3FC1
0038
3FB0
0018
002A
0063
0066
3FC6
004C
3FCC
3FB2
3FA3
3FA5
0041
0056
002A
3F96
001A
3FEC
3F7C
3F93
0034
0037
3FB1
0011
0021
0033
3FD5
3FFC
0039
0055
3FC6
0035
3FBD
3FD3
3F7C
3F9F
0020
3FC9
0032
3F7C
0080
0030
3F85
3FDB
3FCE
3FF8
0011
3F8D
3F9F
0036
0047
0012
3FF1
000D
3FAD
0002
3FFC
0051
3FB7
3FC3
0038
3F7A
003A
0025
0077
3FC9
007B
3FD7
3FA8
3FA2
3FFC
0066
0027
000F
3FAE
3FFD
3FAF
3FAD
001D
3F9C
000E
0004
3F9F
3FA7
0074
000C
0066
0070
3FAA
3FDE
3FA9
007E
3FDE
3FE7
0037
002B
3FCF
3FEB
0035
3F8B
0012
3FF8
3FAC
3F7B
3FE2
3FA2
002E
3FB5
0065
0025
0097
0044
3FB8
003C
3FA3
3F88
008F
3F9C
0055
3FCB
3FA8
3FBF
3FA8
0002
0038
0071
3FD6
0002
3FBB
3FC1
3FB8
3FCB
0057
0001
0075
0041
0068
0008
3FCC
0070
3FDF
3FA1
3FCE
3FB3
3F6B
0061
005A
002A
0005
3F8E
0051
3FD1
3FCF
3FB4
3FC5
3F94
3FEE
0033
007A
0043
007B
0000
3FE0
0006
0000
006A
002F
3FB5
002C
3FBC
007A
3FAF
001F
3FF9
000C
0040
0013
0000
3FC5
0022
0030
0048
3FDC
0032
0018
3FDE
3FB5
3F9A
0059
006F
000F
3F9C
3FE6
3FCE
0033
0039
3FF7
3FF9
0055
3F68
0063
004A
001B
0054
3FD6
3FE5
3FF6
005C
3FF1
3FCF
0011
0064
3FD9
0034
3FF1
3F7B
006B
3FB5
0062
0043
3F8A
003F
006B
3FEA
3FAF
3FCC
0030
001F
3FD6
3FEE
3FC2
3FF0
0031
0024
3FE4
002B
3FD3
0016
3F6F
3FEF
0006
0057
3FED
0087
3F7D
007F
3F8C
0046
003C
0011
3F9B
3FF9
0009
0064
0067
3FFA
3F8E
002A
3FB9
0066
0023
3FAD
3FE0
3FE4
003F
0041
003F
005F
3F94
3FEB
0087
0025
3F95
0051
3FD8
0007
3FE6
3FBA
3FC8
3FDA
0031
3FF6
0052
3FEF
0019
0057
3FBA
0013
002E
0056
002B
0063
0052
0088
0002
0075
3F92
0015
0015
0017
0065
0004
0002
002B
3FAE
0031
3FAF
001D
0015
0086
3FF4
3FEE
3FCB
003E
3FFB
002C
3FF5
007A
000C
3FFC
3FD9
0067
3FFB
3F9F
0023
0056
0089
3F92
3FF7
0062
3FC7
3FCE
3FEE
3FE3
3FBF
0074
0021
0021
3FBD
3FE3
3FF7
0039
0040
003F
3FC7
3FE9
3FEF
0040
0032
3FF4
0012
3FE4
0037
3FC6
001B
3FC1
0068
3FC1
002D
0065
0042
3FF3
0085
004F
3FD0
3FED
3F95
004E
004A
3FCF
3FA0
3FEC
3F71
0038
0034
001C
3FDC
3FC4
3FE5
001D
000C
3FB1
000A
005F
000F
0032
0021
0026
3FD3
3FDA
005C
3FD5
0089
0067
3FD9
0007
3F99
0041
3FF5
3FDF
0019
3FF2
0058
007F
004C
3F94
3FF5
000A
3FD0
3FFD
0002
3FD7
3FB5
3FF0
0042
3F84
3FE3
3FE2
3FDD
3FB7
3FDD
3FD6
0048
3FC7
0053
0024
002D
001B
0009
3FF8
0014
001B
0063
3F91
0036
0004
3FF8
007F
003D
3FCD
3FDE
3FAA
000A
3FFA
3F91
3FF9
006A
3FAA
3FF2
3FD0
3FCF
0011
003C
3F87
3FD3
0011
0053
3FE2
3FAB
3FF5
3FB1
3FBD
3FD2
005D
3F8F
3FBF
003D
3FD4
3FC2
3FFE
000D
3FFE
3FBA
0058
0078
3F96
000B
3FFB
0067
0023
0070
3F9A
0011
0041
0026
3FF1
3FA3
3FDC
0053
3FCC
3FE1
3FE3
3FD6
3FF0
3FF2
3FAD
0037
0032
3FED
3FEF
000E
0055
000B
3FA3
0006
3FD8
0040
3FA5
3F9B
0070
006B
0006
3FBE
3FCC
0029
0043
3FE0
3FA7
3FB9
3F9C
3FCB
0000
0007
3FDA
3FF0
3F9A
0013
3FDE
3FF4
0070
3FAF
0036
0019
3F8E
006F
0028
0013
0020
3FC0
3F91
0009
006E
0054
0037
005A
004B
3FD8
0027
0004
3FE8
3FA3
008E
3FA2
3FC5
001A
0081
3F97
0019
3FDE
3FEE
004B
003D
007D
0061
3FF2
3FE8
0012
0009
0032
3FA8
0052
3F98
3FF2
0003
002E
0037
3F74
3FB8
3F83
3FD3
3FD7
3F8C
3FEB
3FE6
0007
0068
3FDE
000B
3FB7
0030
3FB9
0033
3FD2
0065
0052
3FB3
3F76
3F81
0040
3FE5
001A
005B
3FF1
3FA1
0040
3FF4
3FF3
3F93
0011
000C
3FA9
0009
001D
0006
0012
0014
003E
0037
006C
3FE6
0065
001F
3FC5
3FBB
004C
003E
0016
000D
001B
3FFC
3FF2
0008
3FE5
006D
0017
3FD4
0009
003F
3FFD
0035
00A2
004A
0064
006A
3FAC
001A
3FB6
00BB
004A
0012
3FA9
003C
00C3
3FCF
3F93
3FA2
002D
3FD7
3F9E
3FE2
002B
0036
3FC1
0056
3FA3
0036
3FB3
008D
0076
3F74
3F96
3FEE
3FBB
3FEB
3FB8
3F9C
004D
0001
003D
0023
005B
3FD9
3FD9
3FD0
006C
000B
0022
0016
3FD0
0047
3F7A
001B
00A0
000E
3F93
3F8E
3FE7
3FC3
3F7C
004C
004F
0008
0034
001A
3F8F
0073
0026
0022
3FC5
3FF3
3FE7
3FDD
3FCC
3FAE
3FF0
3FA9
005F
3F9C
3FA6
3F8E
3FDC
0016
3FF3
3FB1
3FBA
0023
006E
0018
3FA1
3FBC
0046
3FF6
0048
3FCB
003D
0057
3FFA
3FC2
0037
001A
0067
005B
0032
003E
0025
3FE0
3FB6
3FC7
3F8D
3FCB
3FA6
000D
3F99
0043
3FF0
003F
3FD5
3FFF
001D
3FD4
0054
3FC1
0020
005C
005F
3FAB
3F87
3FEA
002D
0050
004C
004E
0013
006A
001D
3FBD
0023
3FC1
3FE3
3F97
3FD8
3FD8
3FFA
0057
0098
3F92
3FE4
0050
3FDD
0055
0011
3FEE
002B
3FD0
0033
0022
3FD0
3FC4
3FCA
0016
0050
3FA7
3FF3
005C
0000
0000
3FB7
3F79
3FC5
002A
002A
0049
0014
3FEF
002A
3FBD
3FEC
3FB5
0047
000C
0038
0009
3F96
0066
001B
005D
0009
3F91
3FDB
3FAB
001D
0073
3FC3
0015
3F9A
003B
001A
0057
3FD8
3F9A
008A
3FB8
006F
3F95
0008
0056
3FA8
3FB6
3F9B
0060
3FF5
0037
0014
3F86
3FF9
003C
3FE7
0044
0048
3FC2
003B
3FCD
002A
3F9F
003B
3F8F
0046
0069
005F
0016
0047
3FCB
3F7E
3FDF
3FF5
3FE0
0025
0071
3FEE
3FEF
3FB0
3FF7
3FE5
002B
3F7B
0042
3FCF
0065
3FB2
3FA1
0026
0065
3FA7
3FE2
007A
005D
003D
3FAF
3FF9
0025
3FB7
3F7C
0080
3FCA
0051
0020
3FC3
003A
3FB0
3FA8
0010
003D
3FE1
3FE5
3FBC
006A
3FB0
3FC4
0011
3FC2
0019
3FB5
3FE3
0012
3FA0
3FF7
0068
0001
006F
0066
003E
003C
3FA8
007A
3FFD
3FB5
3FD7
0007
0020
0054
006A
000F
3FE4
0071
0012
004D
3FF5
3FA7
3FD0
000E
3FB4
3F9F
004C
0036
3F9C
3F93
0017
3FD3
003F
0046
3FB0
3FC4
3FF7
005D
0013
3FAC
3FEC
3FD8
3FA7
3FD0
3FB0
0039
3FE7
006E
0011
3FCC
0004
3FE1
002C
3FC8
3FCA
3FF8
0015
002E
0009
007A
3FE5
3FF7
3F67
006A
3FA2
000E
3FB0
3FD0
008A
005A
0002
3FB6
3FD3
0064
3FBD
0051
3FEF
003D
002A
0053
3F9D
0036
3FE5
3FCC
001E
004C
3F86
007B
004B
3FB4
006E
0044
0039
0018
3FAC
0082
3FDD
0023
3F6C
0019
3F6F
3FA9
3FAE
002A
004C
3FE9
0023
006F
006E
3FAC
3FF0
007C
3FD1
002C
3FCC
3FAB
3FEF
0008
0037
0021
0004
3FF4
0071
007B
3FF5
0007
3F97
3FBC
0047
3FA4
3FB9
3FB1
0024
3FF9
002A
3FF9
3FDB
3FDA
3F93
003A
0087
0031
0005
0012
3FB7
0022
3FAB
0010
003C
0070
3FF6
0015
0033
0031
0011
3FAC
3F88
3FE7
005D
3FF4
005A
0025
3FCE
000C
3FAE
3FD0
3FBF
3F97
3FBC
0002
001C
3FCC
3FB4
0069
0019
3FB3
3FDB
0058
3FF4
001F
3FE6
0014
3F9D
000B
3FCD
3FF5
3FF3
3FE4
000C
0037
3F6C
0000
3FA9
3FD9
0078
0064
001C
3FBA
3FA4
3FF0
0010
0050
0047
004C
3FDE
0067
0023
0033
0021
3F96
3FF4
3FCD
3FD4
3FED
3F72
0064
3FEC
0030
003A
3FEC
0002
3F9D
3FAE
004C
0081
3FFB
3FEC
0035
3FA4
0043
3F90
0013
006C
3F8A
3FCC
0010
0082
005A
3F98
0032
0082
3FD5
3FF6
0059
0040
0019
3F94
3F92
0058
0000
3FA6
3FAB
005B
002F
0025
0035
3FC8
0041
3FBF
0009
0009
3FAD
0073
002F
3F94
0046
0008
3F94
0077
3FB6
3FF6
3FAE
3FFE
0039
0010
3FF5
3FF4
007C
0011
3FF5
0070
002C
003C
3FE3
3FE3
3FC3
002F
000E
002E
3FD1
3F62
0000
3FE2
3FFF
3FA0
3FF8
008D
3FE9
3FD5
0057
004B
3FCA
0053
3FD9
3FB8
3FF6
3F7D
005A
3FA8
006B
3FBD
3F87
3FB7
3FEC
000F
0014
0066
3FF3
3F85
0019
3FE2
0006
3FC5
005A
0020
0054
0042
3FAF
3F7D
3FA7
3FFB
3FB7
3FFD
3FCE
3F97
3FC4
3F6B
0006
004C
002B
0042
0037
3F9E
3FC7
0047
0060
3FBE
3FE8
009D
0058
3FEB
3FC9
0046
002F
00AB
0036
0089
3FD4
3FB2
0055
3F8D
0085
3FF4
3FA1
3FCE
3FEE
00B0
003D
3FB1
3F93
0094
0048
0025
3F7A
003D
002D
002A
3FD6
000F
3FB1
3FBB
005E
008E
0001
3F9C
0036
3FDB
3FFF
3F7A
0030
0000
0017
0067
3F96
3FF5
3FD7
3FD8
3F7A
3FD8
005B
0091
3F98
0036
3FF8
3FE7
001E
002A
3FD4
3FAD
004B
3F9A
0072
3FEB
3F8F
3F99
0040
3F99
0014
0086
3FA9
0049
006C
0044
3FE8
3FD4
0079
3F93
004A
0041
004D
001E
3FF8
003C
3FEF
3FDB
3FD6
3FE8
3FF8
3FC5
0006
3F83
0057
3F95
3FF2
002E
3FC0
0098
3FFC
3FFE
3FD2
0013
3F94
0032
0001
3FBB
005A
0050
3FC7
3FB2
3FB3
0028
3FC2
3F9E
3FBF
0099
3FBD
0021
003A
005B
3FEC
001E
3F9C
005B
3FBB
0056
3FBB
0086
3FC3
3FD6
0028
3FEF
3FE9
3FDC
3FFB
002D
0000
0000
3FEF
3FB8
006E
0002
3FAA
3FAF
3FEA
0030
3FBB
005A
0036
0060
001C
001D
3FD9
0023
0054
3FAC
001D
3FD8
0008
0017
001D
0012
0025
0010
0039
3F9F
0002
3FF7
0067
3FA2
0017
004F
3FAA
3FB4
0020
0028
0007
3F94
000F
008A
004A
3FB9
3FE8
0005
3F7D
3FDE
0016
3FCE
3FE7
0045
3FD2
3FF4
006F
003F
3FFD
0082
0030
000A
0057
3F94
001D
3F93
3FA1
3FCC
0047
0053
0036
007B
000E
3FC3
0036
3FF6
0066
3FB0
3FF3
3FA5
3FDB
0050
3FDF
0038
3FBB
3FA4
000D
3FD3
3F92
3F99
3FBB
3FA2
3FC2
3FCF
3FAD
3FCA
004A
3FD6
3FF8
0013
3FE3
0047
0038
3FD6
004D
0014
004B
3FAE
004D
0007
3FA3
0047
3FEB
3FDF
002B
3FD1
3FF2
3FC8
3FAF
3FF7
0034
0030
0033
3FBF
3F92
003E
3FDC
3F8D
000D
3F93
3FBA
0006
3F85
000C
0065
3FDA
3FD3
3F9F
0014
001C
0035
3F85
006B
0033
006D
3FD4
0041
0058
0023
0033
3FE9
3FA7
3FF1
3F8C
3FDA
3FE9
0069
0080
001D
004E
0055
3F9F
3FC4
3FEE
004F
3FCC
0045
3FB2
008C
006C
006D
3FA6
3F9F
005D
0023
0053
3FAE
3F88
0061
3FAC
3F8E
0031
3FA6
3FD1
3FEF
3F9B
0079
0038
004D
0045
0071
3FD3
3FD0
3FC2
0046
3FAD
3F64
3FDE
005C
3FA3
0011
0008
3FA5
3FAA
003E
3FB6
3FC6
3FCC
3FF6
3FA0
0019
0050
3F9E
0037
007A
3FCC
3FC2
3FCC
3FD3
3FAC
0053
006E
006A
0052
002D
3FC1
0082
3FB8
0079
3FA0
3FD2
3FA6
0061
3FD5
3FEB
3FF0
0070
3FE4
002C
0025
0051
3FA5
3FC5
3FCB
0017
3FA8
0008
0023
3FBC
3FBB
3FC5
0066
3FE3
3F62
005C
3FDF
3FA8
3FED
0029
3FDC
3F72
0004
0038
004A
0001
0004
3FF0
3FF8
0029
0041
005F
3FC6
003F
0033
3F85
0045
3FAC
3FC6
3FDF
3FC3
3FD4
3F82
0054
3FE1
0018
0078
002F
3FE5
3FEF
0020
0073
0021
3FF5
3F81
3FEE
004A
003F
0046
0057
3FEC
3FB0
0031
0040
3FCB
3FAF
002C
0044
3FC7
3FC3
3FEA
3FAE
3F8E
3FAE
0002
003E
3FC0
3FC2
3FB6
3FC7
3FB4
0016
3FFF
3FA3
0020
002D
008B
0025
3FC7
3F9E
0061
3FD5
3FD9
3FBF
3FFE
3F99
000A
001F
3FA0
3F8D
0003
3F96
0021
004E
005C
3F9A
3F77
3FC3
3FD4
002B
3FD3
3FEC
002B
002A
0073
0033
0043
0038
0000
0043
0072
000F
3F98
001C
3FD1
002A
0034
0026
3FE1
3FD9
0042
3FE8
3FC0
0054
007F
3F94
3FD3
3FCA
3FED
002E
3FD6
3FCF
3FE7
000C
3FD3
0017
0031
3FF5
3FCA
000C
3FDC
004E
004A
3FEB
0029
004C
3FEB
0042
3F72
0063
0024
3FAE
3FAA
0051
0071
3FA8
3F9D
3FB2
0057
3FE4
002B
001E
001D
0040
0030
0036
0056
0012
0045
3FC9
003A
3FD1
0005
0063
3FBD
0068
003E
3FC1
3F93
0054
3FF4
3FC6
3FD2
3FD1
3FCE
0083
0010
0005
0045
0039
0013
0045
0054
0026
3FBB
3F99
0008
004B
3FC1
3FD8
0059
3F7F
3FCC
3FF6
0085
3FE0
007B
3F90
005E
0027
005A
3FBD
3F7D
3FAB
0019
3FEC
3FC2
0002
3FAC
3F7B
0007
3FFF
3FB3
3FC1
3F86
0069
0004
0047
3F9D
3FFA
0010
0029
0072
3FEF
004C
004E
3FCE
3F9F
0080
3FCC
3FB3
3FFA
3FF0
0022
006E
3FE5
002D
0040
0032
0025
0064
0042
0031
005D
0032
002F
0001
3FE5
0007
0006
000E
006A
3FFC
000A
3FE2
004C
3FCA
001A
3FC9
0006
002B
002C
3F88
0039
001A
0002
3FCE
002E
0070
0037
3F7E
3F80
0040
3F80
3FF3
3FF4
0028
3F96
3FA4
0079
3FC4
0040
0020
000C
3FF3
002A
3FDE
3FAF
3FE0
0015
3FD9
3F9D
0048
0012
006A
005B
3F6A
3F91
3FD4
3F8D
006A
0072
3F89
3FAD
006C
3F9F
3FC5
3FC2
0005
3FE3
3FF3
0005
3FE1
3FCA
0059
3FE7
00D1
0026
3F94
00AC
3F8D
00B2
3FF2
3F8F
004B
3F8D
00A5
0049
0000
0068
0032
3FE1
3F82
3F95
0018
009F
3FFA
00B1
0034
003D
3FFB
008C
00D7
0034
0019
009E
004B
3F96
3FB7
3FD8
3FB9
3F84
0096
003E
0084
0002
001D
3F98
006A
3F9F
0087
3FB0
000F
3FA6
3F85
3F80
0008
3FAA
000B
3FE6
0016
3FF9
0050
3FD0
3FA9
3F85
0018
006B
0028
3F87
0064
3FFB
3FE5
3FB3
3F99
3FBC
3FC9
3FFA
0047
3FB6
0041
3FA8
3FF5
003F
0055
3FD6
3F83
3F9C
008E
3FF6
3FF3
0036
3F9F
3FA1
0007
0003
3FE7
3F8E
3FDD
3FE2
001A
3FE3
3F94
3FF0
3FE4
003E
000B
3F72
004D
3F86
3FDD
003B
3FA2
3FBE
003E
3FF2
3FFE
3FA4
0026
3F96
0007
3FDD
3FFB
3FE2
3FDE
3F96
0032
3FA8
3FBB
002E
3FF8
0057
3FFE
0034
3FA1
3FEE
3F8B
0040
0063
3F7D
3FC6
3F9C
0001
0072
3F85
3F9B
3FF3
3FD8
0013
3FBA
001B
0032
3FFB
3FAF
3FD4
3F85
3FD0
3FE8
3FAA
0016
3FC8
006A
3FDF
3F8A
006D
3FC5
0009
0038
3FE7
3FC8
3FBC
0037
003D
0062
006D
006A
3FA9
0072
3FCC
3FE6
0022
003F
3FDF
3FDA
001E
0067
3FAB
000A
0083
3FC6
0006
0010
0001
3FCE
3FDF
0008
0024
000D
3FA4
3FB1
004A
3FA7
005E
3FCA
3FA9
005A
0032
3FE1
0065
005E
0007
3FFD
3FE4
0031
005C
002D
3FBA
3F75
001E
3FCD
002C
3FCD
3FD7
3FDF
0001
3FFF
3FE7
3F9C
0083
0059
000B
3FD6
3F9C
3FC2
3FAB
3FF7
001C
001E
000E
006A
0031
0047
001E
0049
0040
3FBE
0060
3FA9
0007
007B
0038
0047
3FFD
000C
0059
001B
0045
0071
005C
0057
3FE2
3FDE
3FB5
0004
3FFD
0046
3FE0
3FBF
3FD8
003E
3FD1
3FB9
3FB3
004A
001E
3FC8
3FFB
3FDB
0038
0045
3F75
3F7E
0050
3FEC
3F94
3FF4
0057
3FB0
3F64
0019
3FDF
3FFF
0076
0032
3FD8
3F99
0064
0087
002D
0044
3FB9
002D
0071
3FF5
0035
3FFA
3F7E
0067
000D
3FB5
3FE4
0050
3FDF
3FCA
0054
006B
0070
3FA5
3F90
001B
3FFF
0005
0051
0043
3FD5
0085
3FE9
3FC7
3FEA
3F8C
005E
0034
002F
3FDA
3FA6
3FEB
0023
0044
003A
3F8C
001E
3FF4
3FF4
000A
001F
0026
0005
3F82
3FA9
3FD8
0060
0034
0025
3FCD
3FD8
3FA1
0029
3FF1
3FCE
004B
002E
0032
0022
0037
3F7B
0038
0029
0030
3FA0
3FEB
3F77
3FFE
0059
3FF2
000C
3FB3
3FAF
3FCF
004B
0038
003B
3FC4
0045
0070
3F92
0086
3FFE
004E
0039
0038
002D
0065
3F96
3FF8
3FCC
3F6B
3FCD
3FA7
0064
0024
0019
3FE5
0085
3FFE
3FAC
3FEF
0005
006C
3FF6
3F75
3FC1
004F
0015
0005
0038
003F
3F7E
3FCC
3FD4
004D
3FC4
0049
3FB1
3FBA
3FD6
001F
003C
3FDE
3FC2
3FC6
0013
3FA6
0016
3FB3
0047
3FE9
0011
3FD2
0020
3FF3
3F83
0020
3FD4
3FC2
0026
0072
0057
3FAE
3FBE
0034
0031
0059
000E
3F9E
004B
3FF2
005D
0019
0037
3F99
3FCB
3F9C
006A
3FA2
3FEA
0020
3FA4
3FA3
3FAE
0037
0069
3FE2
001F
0005
0054
3FCC
