3D84
3E3F
00C1
3F7E
3F3A
3ED1
008C
005C
3FD4
3F96
00A3
0013
3DEA
001D
00F8
0026
3F72
0283
3CA8
00C1
013F
3F87
3FB1
3F8A
3FDD
017F
3F75
007C
02A6
3DBC
3F58
3ECF
3F86
001F
023F
0132
3FD7
0053
3F15
0059
00AF
02CF
0124
3F70
0169
3FDA
0028
0140
3FDC
3F6B
02F0
020B
0227
3A5B
0053
3F41
00BE
3E5C
3F7B
021A
3E90
00DE
00F9
028E
01CD
0243
0148
0003
0148
03F5
022E
0018
3FAE
0115
3FF6
018C
00D3
014E
0216
00A5
0199
3FE7
031C
0148
041B
007A
01AC
00AE
01EC
004E
3F5D
005D
01DD
3FCE
3F01
011D
03A3
048D
3FB8
3F95
0244
0027
0171
0018
005F
3E02
0055
01E9
02B3
00AE
0099
0246
013D
032A
0209
3F48
3DE4
024E
02F3
018E
01C8
398A
031C
3FE6
033B
00CD
0335
02D5
3A5A
012B
3D31
3CFE
3A2A
021A
0060
3DF6
3FDF
3BB2
3BE6
0190
3B3F
00DC
389D
3B14
0119
3F47
0125
3C52
3FFF
3C3E
3B8C
3B41
3F77
3EFA
3F3B
3EAB
3BC1
006B
001D
033C
020E
3DC6
3EF3
3FEA
3F56
3CC8
3BDA
3C47
3CAB
006D
3FC6
3BBD
3FEC
3C21
3EE0
0051
019A
3EE4
39B0
3E94
3DD7
0265
3D3E
02CA
3FC4
000D
008E
3CE9
01B9
3BA9
02CA
3FFE
3EF1
01D9
3F4C
0045
3FD5
0391
3A24
3EFC
003A
0101
3FFC
3C86
0027
3D37
00A8
0057
02D9
396A
026F
3FE3
3E2F
0011
3FB3
3FD1
3A90
00A0
3FF3
3EDE
004D
0190
0071
0252
3DCB
3A4E
3C46
012D
3893
003F
3F68
3F27
006F
3DC6
3FBC
005C
3807
3FD6
3F64
3AE4
39BD
3978
019C
0261
04B0
0274
3C2E
0162
3BF5
0597
3C5C
013C
038C
3FA7
3D60
3B0B
3E7D
0283
3FCC
3F5F
3FE9
0321
397F
0000
3F81
3FC3
007C
3E26
3F4C
3C21
3ED9
3F8A
0229
3A07
02EE
3FDE
3EC3
0088
00B4
3F9D
3986
0053
00B8
3F72
3FCF
0139
0055
01D1
3E47
39B6
3D0F
3D1F
3889
3FDA
00C2
0084
002E
3EC9
00DB
0073
39BF
3FBB
3FE0
3BC3
3B05
3835
3FD9
3B65
372E
02F7
3D16
00D8
3B4D
043B
3B8B
004D
01C8
0083
3D9D
3C2D
3E07
0223
3FD0
3FE9
3F6E
01F7
3A49
00BB
00CF
0027
0084
3D7F
3FD6
3DD3
3EE2
0091
0178
3B97
00C2
3FAE
3F55
3F08
3F9D
0048
3A87
3F51
007D
0108
00B4
00AB
3F85
00C3
3DAC
3926
3CCC
3F6E
3AF6
0010
0005
3F74
3F5B
3F7A
00A7
3F21
3CA1
0025
3FCF
3CD3
3B18
3B55
3FA4
3E7A
3EA3
031A
3C5E
3F3E
3CB5
0278
3E00
001C
01ED
008D
3E99
3F32
3B5A
3E30
3F2A
3F12
006F
3E1E
3FB6
0160
3E4B
0134
3F5B
3F78
009F
3F2D
019F
0177
3E75
02D5
3DDF
00B5
3D7F
0025
0068
012A
3FA0
3FE8
0040
00D2
0233
3EFF
3F7B
3D70
3F45
3FDB
01B1
0087
00B4
01DA
00D4
0110
3FDF
01E9
3FE7
0043
01AF
0042
002E
0019
0094
3FD9
3DAA
01AF
01BB
3E4C
3F55
3FD9
0003
3C2B
3EBB
0076
3E9A
000B
3F47
0075
3D88
3F36
0205
0004
026A
3C92
0041
01D4
001E
0260
000A
007E
02D8
3F14
0534
0250
3D29
0066
0012
01AA
3B5A
0251
0337
028D
009C
01D7
00AF
0255
048B
3EF2
3FC8
3DCA
3B54
3DAB
0113
015F
3FE6
0371
0218
0264
02D9
0429
02BD
030E
0107
0370
025D
3FB2
015A
0066
010C
0269
00C0
3D45
3ED3
3CB7
3FD2
007D
3D5A
0131
3D77
0180
3E77
3D9F
3FE2
007B
005C
3FBB
0122
01D5
0114
3FC5
0032
00C1
0056
01CC
00A2
0235
3304
0055
01A2
0169
0192
00B5
009E
00D9
00C3
0010
0140
0053
3FC5
3F98
3A67
3E91
3FCD
3FE9
012F
013C
3FF9
3F19
009F
0067
0065
3FFE
00A5
3C90
3F81
0032
3FFF
0034
001B
01A6
00BF
0182
3669
3DB8
3F39
0130
0141
3F9E
012A
0110
01A5
00E0
008F
0196
011C
024F
3F2D
014D
396F
3B5D
36CE
019C
005D
3A1C
3938
362B
36CD
0105
370B
0056
3B1C
37AA
00DE
007F
0185
380B
008B
37C8
37F7
3739
0005
3BBB
00AB
3A14
3AC0
0062
3F89
016E
017C
0138
0009
0031
3FF6
38E9
380E
3731
377B
3F93
3A3B
37A4
00A0
380A
3A85
005C
00B2
3FA6
3C35
3DCE
3D4F
01E2
3F65
017F
0023
0264
0299
39BB
010A
387C
0193
0144
0112
0110
0084
3FA0
0102
02BB
0294
3FB3
0037
00EC
0110
01AA
008F
00EB
003A
00A9
01E4
0196
0232
3FF8
0272
0063
014C
005D
01BB
3FCD
3F75
0020
3D9E
3F70
3FC4
0072
033F
01E3
0030
3FB5
01E1
0009
3FF9
0104
00CE
3FD6
3FFD
3FE2
011A
0093
0083
0171
0038
0207
00AC
001C
01C6
00E6
01A3
0142
0082
3D72
01DF
3F64
02A8
3F4B
01B2
029B
01C7
021E
00F9
3F91
00CB
0319
3E03
3F17
3FAC
3FDA
0090
3DFD
012F
00C7
0225
3F9B
0262
00CE
028D
3FE0
3E3D
0075
00B3
0063
3C6A
3FC2
3F49
3FA3
02AE
013A
3FDD
0148
3F8E
3CA5
00AD
3D88
001D
014C
3F9C
3F87
3F9F
01FA
3F61
0002
00CB
3FA5
3F74
3FFD
3F31
3D52
0229
3B7B
3EEB
027E
3E72
3FE7
3FFD
02CF
3E5B
3F2E
0144
3E62
0007
016B
3C6D
0146
00E3
0047
0060
0168
0128
0044
021E
017D
3EB6
00B6
021A
0084
013B
01D8
019B
01C3
01B9
0032
03A8
00EC
0259
0290
0101
3F4D
00DF
0180
00D7
0182
003F
0476
02AF
032B
00C4
3F35
0129
3DB3
0224
0272
0212
3D2A
0268
0206
3FD5
01C4
0166
00DF
00EE
0146
0206
3AB0
3C68
00BE
0298
03B3
000E
0222
00CE
3D60
02FE
00B6
0285
0241
3E28
01DB
0051
0026
00AA
00B1
00FB
001F
0084
0068
0209
026F
0119
007B
023E
016D
0112
014F
0199
010C
0196
00CE
0171
010B
01EF
006B
3F6C
0093
0001
3EC2
3FC9
3E39
0138
00C2
010A
3D99
0227
3EAF
01F6
01FC
00C2
3E1C
0190
006D
0153
0197
01BD
3F7A
0223
0234
00D6
3B36
3DB0
3E72
0203
3EF6
00CF
3F82
0060
3AA2
006F
005D
0127
0059
00C9
3FC3
3EF8
3F58
3FB2
3FD4
005E
00E7
3E5A
3FB3
3FF0
00B6
3FD6
3E59
3FF0
008C
00DA
3EFD
3FB9
008C
00B8
3F1F
0036
006F
3F22
3FB7
3F78
0043
3F8F
3FDB
005A
3EA9
0147
3ED3
3F18
00D8
3FF0
00BD
0072
0077
009F
3F52
001A
0016
3EA6
00BB
3F59
3DFB
0005
3F5B
3F8E
3F97
3EA9
3FBF
0000
3F6E
3FEA
3DC9
00AA
3EF0
3FB3
3F51
00A0
3EA4
3D24
030C
3BAE
3BE1
3BCC
011B
0477
39F2
3D7A
3BB8
0037
031D
3C61
01ED
3A90
3BE6
011E
0356
03E8
3A6D
05B7
3B19
3C5F
3D1F
0377
3F6D
3F3D
3ACC
3DF6
3FBE
00A2
00A1
0363
058E
021E
3FBD
0353
3B31
3C70
3AFC
3B8D
3B9A
3A9F
3D1B
034E
3ABD
3B67
0246
03C6
0284
3A5D
3DAD
3D40
011D
05A5
3F17
02B1
0472
007F
3D15
00CF
3BFC
026F
01F1
3EED
3F1B
3E85
002E
3ED4
3E6A
0072
3ECA
011B
3FB9
0045
002D
3F80
023D
3FD3
3E8D
3F5A
008A
00DB
3EC9
01A6
3EE3
3F14
3FF9
003B
3ED0
3EF3
3F72
3E01
3F63
001B
3E50
00CE
3FCA
0176
3F14
00EE
005A
3F52
3F82
3F10
00F8
3E72
3F2B
0024
3E86
3F31
0039
3FD7
00C3
0186
00BF
00ED
3EAB
01EE
016E
3FC0
05FB
01A0
013A
3F33
3F1D
01F7
034A
3A9E
025D
3B1B
3D63
3E3C
02A7
0259
3AB1
3DF2
3CAD
3679
023C
3EE7
053E
3AC3
3D90
02C1
01EE
027D
3D36
0409
3AFC
3E66
3E1C
021D
0032
3FFE
3A56
3F67
01F1
3F56
043F
039F
3FA4
022A
0009
01E6
00DF
3CCF
3E4B
3E56
3FD9
3DD8
3CCB
00E2
3E1A
3A37
038A
02C0
0205
3D70
027C
02EE
01CC
035E
051E
038C
062D
038D
0067
033D
3B69
04AC
0678
3DF1
3D4E
3F83
3E77
3F18
3E1A
016B
005A
003C
0068
00F7
0190
0032
3F3B
01AE
00BC
3E31
016E
3E01
3FFF
3BD7
3FCD
3F01
0008
0063
0094
3FAB
013F
0042
007E
001F
3D0E
3B58
00CD
014C
3FBD
0192
0191
00B2
005C
3EF1
00E9
004E
3F5E
00E3
3F9D
00BA
01C0
006E
000B
0255
3DEA
3DAA
3DC5
3EA9
3EB1
008A
3C8F
3F92
0162
3DE7
3F69
3DFB
009F
3C63
3E11
3E86
0014
3A99
3FE7
0051
3CA7
011B
3B8A
00CA
011D
39E6
000F
3AB3
3A5B
3FC2
002E
3F45
3C83
011E
3EDE
3949
3988
002F
3CF1
001B
3C28
3BDE
3F27
3FCF
3EF5
3F91
3EFE
3FF8
3E7D
0060
0006
3A38
3AC1
3C36
01E7
3CCF
3A5D
3FA0
3BA5
3B33
3FFD
3F43
0017
00BA
00A0
0311
0008
3FF8
3F77
3EA1
00C2
0046
00D2
3F15
3EFD
002B
3EB6
3FD9
02B0
006B
3F88
0108
0273
021F
00AA
3F09
0067
00D0
0328
011F
00DC
0178
010C
028D
010C
038A
011D
039D
010B
0115
015E
0152
3FC2
3F99
000B
01EE
009C
3EF5
3F6C
0207
031E
0068
3F17
0262
3FBD
0098
0107
012D
3C42
3FC0
0118
027D
00F2
00B5
0159
0083
02F7
0140
3BEB
39DE
0167
0201
01F4
0040
39F4
0206
0082
02AE
0070
027B
01A1
028E
004B
3FFC
3F1B
3EF0
3F8A
005D
3F4E
3F43
3E30
3EEC
3F85
3F51
0108
3D89
3F79
002C
3E5C
0052
3EE1
0383
3EA9
3FF5
3F42
3F62
0069
007F
3FD9
0266
3F36
3F1A
037E
0153
0083
3E50
3FD8
0074
0398
3F7A
3EA4
0008
03AC
3F60
0158
3F0D
3F7E
3FF8
01AE
3FCD
3FBA
3AA8
03DC
0249
3F6C
0231
03AA
00A1
3D42
01C5
02C9
0140
0004
0286
029F
3E14
00E0
3FD5
3F6E
3FC0
01F6
38E7
3F4A
3FA3
0010
3F99
3CF2
3EB7
3F2C
3F49
0039
0282
3A27
0184
00AE
3E0C
3F69
3F47
3FBB
39EE
027F
0026
3FCB
005F
002D
3F4A
027C
3CE0
348C
3DBB
3DF1
3AC8
3F4A
0064
3F8E
3F5D
3DEB
3FA1
3EFE
3CCB
0050
3EF9
3F3C
3EBC
3885
3FE4
3E95
3DF7
0273
3B38
01C6
3D36
02D9
3C2F
0130
0205
00C8
3B23
3E26
3DA9
003A
3F69
3E37
0088
0037
00B4
0086
3E28
3FB9
0014
0074
0129
3FCF
3CDD
3F44
0063
016D
001D
3F11
3EBD
3EDB
3F73
0116
0196
3FAB
3F30
0179
3DF9
3E98
3F57
3E64
0078
001E
017B
009F
01EF
3CB7
3FE7
3F5A
00AF
38AB
3F80
00A5
01B7
00B8
00EF
0167
0126
01FC
3DA6
3DD1
3E4E
3F2C
0062
3D59
0108
3DE2
3F95
3C89
3FAA
3FD9
3EF6
0031
3DE8
3FEF
0054
3E46
3ED7
00BB
00F1
3E06
3E95
3EE5
3F42
0126
3F80
3F0D
3F94
3EE1
3FB3
000B
0131
3EEF
3F18
0087
3E50
3EBD
0109
0098
3F23
3EE1
3FB3
3E94
3FF4
3EA6
3FAB
0082
3FC4
3FF3
014B
002E
3FD5
3EBB
3F31
3F23
3E33
3FA4
3FD3
3E22
3DB8
3F46
0071
012B
3F73
001B
014F
00AF
3EE7
3E02
3F5E
3EF9
3F15
3FDF
3FD1
3EFC
3EAB
3E9A
3C8D
014E
3F97
3F7A
3F9A
01AF
3CA0
3DD0
3F2F
3EA8
0045
3E4C
3E8B
0086
3E86
0024
0107
3DB8
009D
3F18
3BFB
3F58
3F85
000D
3CF0
3FB6
006F
3FE1
007E
0058
3F8D
01D3
3BC9
32DE
3EE3
00BA
3DBD
3ED9
3FFF
3FCB
3FCF
3C60
3EF2
3F0A
3D73
002A
3E83
3ECB
3E16
3C88
3F1B
02F9
00BD
01AA
3ABB
021B
3F35
0294
3DEA
0046
0026
0029
3F4E
00AB
0118
01A2
3FDC
3FA2
00CF
0131
01D2
3FAD
3FD6
3FCE
0073
0130
0006
01D2
015E
3FC9
3FDD
0050
01E6
3FB4
0234
3FC5
3F99
3F3B
3FAF
3FA1
3FC1
3E8E
3E6A
3F7F
3FF0
00B9
009F
0174
0013
3FAE
0117
3EA9
3FB0
3F29
0008
00DE
3FD3
3F4E
00AB
3FC9
3FC5
0004
0153
0156
0170
0099
014D
3F5A
018C
01CF
0120
3B69
0096
3E87
01E5
3F64
0169
013E
3CEC
3EDE
3E0B
0039
3C22
0089
004E
0236
01E9
3B29
3EB5
0035
3C86
0115
3A69
3CFF
3F01
3FC7
3F81
3C9E
0138
3BDF
3BF6
3F03
0077
3FEB
3F10
0247
3C65
00B9
3FA3
3FBC
0060
02B9
000D
007E
3FF3
3D4E
3BF3
00C8
010D
0160
0197
3BE8
0046
0096
020E
0004
0040
0068
36CC
0102
025C
3F7A
3DCE
014E
00C2
3EE4
01CC
3E2E
3FCF
3E3D
014B
00FC
3C66
3F71
3D08
3EF1
3978
3FB4
00BA
3A8A
0078
3A13
3F48
0118
39B4
3E28
3CB8
39C7
3F9E
3EE2
3F09
3B17
3EDC
3D21
38AF
38C7
0034
3F10
3EF4
3A66
3D34
3E50
3F06
3E24
0083
0019
3FCC
3E39
0041
3F4B
39FD
393E
3BC1
007E
3AD8
3A9A
3EBA
3B04
3A4B
3F09
0054
3FF1
0114
012C
0236
00D3
3FBF
3DE0
3F02
0133
0085
3FBD
0034
3D4F
3FBB
3EFF
0140
012B
00E5
3FEB
3FD6
038B
0144
013C
3FBF
0053
015A
0243
0022
0065
0000
0160
0201
00F8
0252
00EB
0380
003B
00A1
01BB
020A
0073
3F4D
0109
0009
3FC4
3F37
01CB
02FE
0176
3F66
3FB9
0169
3FBC
00A7
016B
0110
3F29
0099
0091
00D3
01A7
014B
016D
0106
0130
00C3
3DF3
3F50
01B7
010A
026D
01AD
3CDA
039D
3F99
02BA
0138
0120
0281
3DE5
3F78
0014
3E95
3F1C
0008
3D2E
3EBB
3F56
3E4F
3FEB
3D3B
3F47
3D95
0213
3FF4
3FED
3D41
002B
3F89
3D36
3F47
3FB3
3F8F
3EA1
3F02
0004
3FA7
0349
014A
3FAE
0166
3B86
3E6D
3EA4
3FD4
3E8A
3FAB
3F97
3F31
0092
02BD
0067
3F9C
3C16
3F77
0016
3BEB
3C18
3E1A
026A
0322
040D
008C
3EFE
3E3F
3E7E
0524
3A34
0106
3F02
3F66
3CCC
3D4E
3DFB
00C7
3B70
3A3A
39E6
00F5
3FDE
3973
38C4
39EF
37E6
008B
3984
008F
3F86
3817
0037
3E9A
00B7
3930
3F69
3A6C
37D1
391F
0092
3D23
3F95
39A1
3E70
3F9A
3FD3
3F99
00FA
0127
3E90
3DC8
008E
3F02
3917
3942
3948
003A
3AE4
390A
3F38
399B
3ADA
3F1B
3FBD
3FBA
3C23
020A
01B4
00A5
3F9B
3F93
3F80
0035
3FBF
3EBD
00D6
39C8
3F69
3F7C
3EEE
3F26
3FC3
3FA2
00A2
002B
3FF7
00B2
0059
3FB0
00F2
00A6
3F9C
013C
3789
3EFF
3FF8
3F07
3FEC
3F04
3F7F
00CF
3DD2
3DF3
00ED
00D3
0061
3F3E
3C49
3DDB
000B
0173
3FD6
0106
021E
3F6B
3FD3
00C3
3DEA
3EDA
3F1E
3D9E
000A
3ED3
0108
3F8E
3E9F
01D5
3FFA
003F
3CDB
3FEB
011E
00CA
00DA
020C
0156
3DBE
005A
00FD
3EF7
0085
0198
3E9E
3E44
016D
008F
3F6B
0046
00CA
3DE8
0090
00B6
3FB2
3EEE
3DF6
3FFE
3F3F
3A77
00B4
007A
3F4F
0114
3FB8
3F05
3F76
3F5B
001D
3D04
3EF1
3F22
0031
3EA6
3FDF
001D
01EF
3E88
3E27
3EF8
3E4F
3F39
3F57
3FBD
3FB0
000B
0045
3F42
00B4
3FC8
000E
004F
3FC9
3E78
3F04
3A58
0156
022D
0128
3DA2
0015
0033
0186
3E6F
3F4E
01DB
0071
3D85
00B0
3E96
0125
3F95
3FEF
3FC6
3F6B
3D0B
00BB
00F9
3EDE
3FF6
3E75
3F17
3DE7
0335
0090
3FEB
3E70
0134
0028
3BC6
0001
3FDC
002A
3DAE
3FB2
3F26
0099
0092
3E10
3F33
01B7
3B9D
3F50
3E8A
0002
3EB4
3F84
0092
008B
0031
0338
007E
3F51
3F0A
0064
00ED
3D02
3C81
3E7A
0245
3FA3
02FC
002D
3E2F
3FCB
3DA2
0203
3C1A
3E80
00A6
3E70
3D8F
3DFE
02B4
0044
2852
34FF
289A
01D7
00BF
2C2E
2E71
26D1
27BB
017E
28A1
008E
399F
26CC
0197
01B0
0144
27C7
014F
2A36
269F
2679
3F80
3721
3EF5
2D06
3B21
00D1
0005
00D6
00AA
3FC1
0146
3ECE
0005
2C5E
26C7
283C
29CC
3D34
2E16
2708
00D5
272A
2B4C
00BA
3FD1
0034
3322
0194
00EC
0096
0086
0105
00E3
009A
010C
2F21
0194
28E7
00A5
0176
01D8
3F84
3E79
000D
3CCB
3EC0
01AC
0231
01E4
3CF4
3E07
006A
3CF7
01F3
3AA4
3CF1
3F9A
0252
3E4B
3EE2
04E6
3D94
3D84
3E19
01BA
3EE8
0023
026B
005D
3ED7
0044
0081
029E
0281
00A6
00DC
0283
3DF1
3DB4
3E33
3FDE
00CA
01B0
3D50
0255
3D5F
0202
02DC
0097
020F
01DD
01AD
006E
3EF3
039B
010F
016D
0028
02BE
3DA1
3F53
3E5B
01E3
0301
3E94
3FEA
0068
0005
3F8F
3D7C
0003
3FDA
0082
3FFA
3F82
00B9
0082
3F1B
013F
0010
3E62
00C8
3F34
0041
3D25
3FA8
00EB
3EDE
000D
3FD6
000B
3FF1
3E67
0088
3F03
3D21
3A56
3DB2
0242
3E87
011A
00A0
3FE8
3F68
3FAF
00C9
3F90
004F
00DF
3F75
3EF0
3ED9
0031
002C
3F0A
3FEF
001A
3DF6
3F4D
3FE7
0021
3D2F
3BE6
3FAB
3EF4
3F69
3DD3
3D76
3F2E
024B
3FE8
3FB3
010A
0281
3F38
3F51
0113
00C4
3FF3
3F13
0150
3F67
0254
3F87
0147
0084
01A0
3F50
011D
0081
3F52
3FEE
00A9
00F7
3EDB
3FA7
01B6
3F53
0031
0145
3FF6
0110
3F7E
3F44
0090
3F3B
3F13
3FE3
3FEA
3CBC
3F1F
3F7D
0099
0002
3F7D
3EE5
3FB9
0062
02A3
3D06
3D01
3ED6
3F98
3F03
3F67
3C60
3F63
3EC6
01B2
0162
00DC
3FA0
013D
0186
0085
3FDD
01C4
01F5
020B
0000
0129
012E
00FB
0282
01D2
0313
01F7
0099
01CB
0260
036B
00C9
048D
01CA
00DD
0061
020D
003D
00A5
00BF
00EF
008E
0011
0119
034A
02FE
0148
00A0
028D
00DF
00D2
002D
3FF4
3C63
002E
0106
03C0
00B5
0091
031E
0264
01C9
0025
3567
370D
3FE4
0354
0285
0327
3DB7
0319
0181
033D
015A
03B8
02C7
3EEB
019A
3FF6
3EF1
3FF7
0106
00C9
3EA0
3F26
3FC5
3F7C
0131
006C
3F8A
01F6
002D
000D
02AB
0269
3F8F
3F86
3F91
3F4B
0038
00BD
3F06
3F18
3F13
3FF3
3FA1
0032
00FE
3D77
3D4F
034E
3FED
0143
0224
3FAE
3FC8
00C4
03F5
3F76
3FCB
01E1
3F9E
3F3B
005A
00D4
00E5
3E99
00D3
018D
3E4B
00C8
3F43
0188
00D0
3E0C
020C
3F68
3FFF
3F1C
0172
3E72
3E35
0071
01A4
0211
3EED
3EF9
03F4
0246
020A
011F
3EE0
019C
3E22
02F1
0245
3EF0
3EAC
3EAB
01F4
3B3B
01FD
0202
0204
3E3E
0116
3FE2
0359
02E0
3FFC
3F41
3E48
3E1B
3E19
3EC3
3FF0
3E47
034F
0274
023A
0227
02B4
03CA
02CF
3DF8
0163
0301
3E58
3DD6
3EB9
01F0
0201
0325
3FAA
3D2A
3CF3
3DA4
3EDA
3E87
03BF
3F0E
0119
3FB9
3CCE
0024
00E3
0237
0192
01B1
3ED5
009B
0150
0207
027E
0155
3F6D
0197
3F09
03F0
02D8
3F76
01AF
0054
02CF
3F9E
00A9
027F
037F
0073
011C
3FEC
00F2
0377
0108
005E
3C27
3FF7
3FFD
01A6
00E9
3FCF
0294
0213
0289
014B
0155
014A
0292
00B8
02EC
014F
3E4D
0048
3F7C
0214
3EE8
0218
3ED0
3FD7
3D35
3FA7
00B3
3FEC
038C
0040
0200
3F60
3F72
016D
0111
009B
3F0F
003D
3F78
016C
3F0F
3E97
3FE6
3F36
00BF
0106
0289
012C
3FE7
0164
0159
017A
0048
041E
00D9
00B4
004F
3FFC
3F19
3FF4
3FE1
0321
3DC0
0028
3FF4
01BC
0143
00BB
3F70
0254
01A0
00AA
0114
00EA
3FB5
0072
0092
01A4
00E9
3F8C
02F6
00A6
00BA
00FE
0292
032C
3DB6
0222
0218
01C8
3E22
025C
00B4
00D5
00C4
028D
0349
3D9B
01AA
00A3
00B7
01E4
00AD
001B
0128
011E
0186
01D3
3EFF
0120
3EA6
0810
01CD
0168
3FC2
0128
027E
3C85
00FE
01A9
01B0
003E
0085
00B4
01BD
05BA
3F37
3F3A
3ED2
012F
3D29
00A0
3E8F
0050
02B3
02AD
00E0
0142
0194
00AF
011A
3F8C
0196
021E
3E92
3F6B
003C
3C9C
0484
03B0
02B2
3CCC
3C96
0081
029B
00DB
030C
00C1
0117
3EBD
3FE3
3B9C
018A
000E
3EF1
3EDD
007E
3FCD
3E7C
3F5D
3EEB
3F9C
3F47
3E4D
3EDF
0098
3F72
00B1
3F90
0131
3F7C
3CA2
3F97
3F7C
0014
006B
3F0A
0014
3EBF
0071
00E2
3F2E
0080
3C47
3F28
0005
00B9
004F
3FDB
3FDA
3FEB
3EA1
02DB
0010
0043
3E6F
3F79
3EB8
3F34
3E3C
3FFF
3F2D
00D0
3F6A
00B8
3C9C
012C
3E4E
3F6D
3BA0
0054
0089
3F9E
3F51
3EB7
012B
3E97
0017
0059
3FF2
0043
0285
0133
0084
3FFB
3F23
0317
0004
00FA
0068
0060
007C
01A9
3EFD
0045
018C
0014
00F1
3FD8
0250
3FBE
3EFC
0071
3E70
0024
3FEF
00A5
0112
039F
01C0
00AF
0256
3DBF
00BF
3FDA
3FCB
3D7F
00B1
0063
011A
00A3
00F9
015B
01F0
01CC
00CA
3DE2
3CB1
3C59
0152
3FC2
012F
3C9C
00EF
3DAD
3FC6
3FCF
0081
01FA
3E1E
3EEF
0121
00DC
3F35
3DC1
00B9
0280
027A
00D0
3FCF
00EF
3F40
007A
019C
000E
3ED9
3DEC
3EFB
0208
008C
00C6
0071
01E5
0076
3EFB
0036
0222
0320
3D50
3F97
00BC
02D3
00B3
3C6D
00DF
3E9A
3F7C
009B
01A2
016E
00C6
00E1
0094
3EF7
006B
023A
004F
3FAD
3EEC
03AC
0105
017E
3F01
035E
3F18
3EF2
3ED3
009F
3F58
3E97
0096
01B8
3ED5
0062
0137
000B
3F65
0175
017B
0042
0078
3E60
0000
3F5D
3F84
015F
3F12
013D
000C
00FC
004C
02FF
001A
00E7
013A
3FA2
0068
3FB0
3F5D
3F0F
0047
0246
3FDF
3F75
004E
3FD4
0062
3F3D
3F5A
3FAE
3FC2
3F39
008C
3EA6
3C5A
0033
3F9E
3FF4
3F9E
00D6
3EF9
3FF7
3FC2
3FDD
3D0F
3D18
3EF1
3E0E
000A
3FE5
3CCC
3FE1
00E3
0223
00BC
008E
3F8B
3DB3
0118
3F99
3E66
3FAD
0197
3A36
3F86
3FCA
3EA0
3FAA
3BB0
3F56
3A6C
00B4
3EA5
00C9
392C
00FE
3F6E
3C5B
001B
3F52
3EC4
3B62
0103
3F1D
3FE2
01EE
0176
0040
00A6
3C2E
3AB6
3A79
3FB7
39F7
3FDE
3F0A
3ED1
3EFB
3FFA
3EA8
0032
3A66
3E5A
3FB5
3AB4
39D7
3A65
0203
0524
05D5
01A1
3D47
3EAE
3A77
0424
396F
3FC0
0128
3FD1
3B05
3651
3E0D
03C1
3FDF
3E74
0000
01B9
3FA9
3F52
3E7B
3FC3
3F36
0022
0064
3DD3
0185
3FCA
02AD
004C
0371
3F9D
3DA8
3F1A
3FF9
3FC5
005C
0008
0083
3E76
0092
00DA
3F76
0028
3B91
3D6F
3F94
0090
3F9C
00C7
008D
3F41
003A
0287
3FEA
3FB0
3F49
3F29
3EEB
3F95
3F34
3F44
0089
006E
3D93
0271
3CC9
00AF
3F59
02C3
3A5E
00EB
0294
3EC3
3E8A
3C0F
3F3A
0136
0002
0041
3F32
0115
3D0C
0128
0086
3EE3
3FCC
3B63
3FBD
3DE4
000A
3E9F
0344
3C87
026B
006A
3D27
3F36
3F69
3FA4
3C6A
0071
3F7F
006A
00EC
0160
000C
0344
39FD
3F46
3D9D
0000
3D7D
0002
3F19
0070
00C9
006F
008B
3F43
3CDE
0042
3F6A
3C67
3C1E
3C24
017E
0294
0283
036B
3CD2
0003
3BA9
05BD
3C63
3E86
02CE
3F58
3C41
3E8D
02C9
3FDC
3DDF
0040
019A
3F1E
0216
3D9B
3E39
0094
3EC6
015B
0173
02F6
3305
3D29
3FDC
01C4
002C
3E1E
0277
016D
3C8C
3D27
0253
3FBC
3FB7
3D5F
3E1F
0015
3F74
0104
3E23
0190
0275
3E98
009E
0029
3D66
3D47
3CD3
393E
3DB1
3EC0
025A
3E5C
3D37
0250
0053
0130
3878
3BDE
3CC4
3E70
009A
0130
011C
022C
01EB
005A
3EA3
3FDD
0219
035F
3F1F
014B
3E76
3DA3
3E6C
00E7
0042
000C
3CBE
3F78
3E9C
0188
3FE9
01B2
3D21
0015
0099
3F4A
0105
0040
3EB0
3EDB
0050
00D5
0151
0020
3F48
3F5D
3FF0
00B7
3FFB
01BD
00EF
0125
3DFD
3E8E
0139
017F
00BF
3FC1
0090
0241
008A
002C
3F91
00A1
3EA5
3FCD
0087
0201
3A40
029D
0352
3FA3
0142
0094
3FEA
01EF
00C3
00AF
0083
3F3E
3FEE
3DA0
00FB
3F78
0043
3F92
0067
3F60
0159
3DCB
0055
010C
0025
3FC8
0128
042A
34B7
3F50
3FBF
01C6
3F3F
3FC5
0049
014E
3FC1
3FDB
0246
0004
005E
3E96
3AF4
0354
3ECB
0144
3E48
004B
0203
3E21
011B
0113
3E39
3F57
3FA0
3C7B
3F40
3F5D
00A4
0099
3DE2
03F1
008F
0045
36AE
3EEC
3DCC
3F1E
3FE2
0381
01D3
05A4
005A
00C3
3F2D
0062
0270
02E3
3C22
0051
3E80
002D
398E
004B
3FD2
3B3F
00F5
3B0B
0116
00D8
3A75
0040
3B38
39EC
0094
00C6
3FF7
3BC6
00A7
3D2D
39A7
3B78
0045
3E59
00C8
3A57
3CA8
3F46
3EF9
3F0D
0115
3F81
3FFE
3EB6
0038
3A93
3B0F
3BD3
3C17
3B27
3C9B
3B83
008F
3B7F
3B28
0107
0002
001A
0186
3E48
008C
0055
3F11
0004
3FB8
3F47
3F68
39CC
004C
3E2F
004C
0068
3DFE
0276
3EF6
00AF
0027
010D
0118
0001
0170
00C9
0253
000D
3FDE
01CD
00F4
3FF5
01F8
023F
01EE
0068
3F10
0069
0088
3F9E
0201
0024
3F2A
3F76
0003
3D8B
3F38
3FC6
01A1
0064
01A2
3F03
0161
3FAF
007F
3F67
0041
3CE9
3FBE
00B8
016D
0055
3EEE
3F96
0090
00CD
00E2
3C29
3FE1
01CE
01EA
3F77
00B8
04B2
3FE3
00E4
0159
022D
01FB
0217
39C5
0084
0110
3E9B
017E
3F25
01AB
0041
3E98
3F2E
3A22
0164
00ED
00C3
3BE4
022D
3DD0
01E2
00C4
000C
0272
3EFF
00E6
003F
0292
0167
3F5A
3FD5
0061
3F71
3F3A
3EC8
005C
3EE8
0137
000F
024C
3E63
0242
0038
003B
3E58
00E9
0094
01A3
0102
00DB
013B
00CF
023E
3DEC
3E91
3D39
3ED4
0144
0109
01A7
0177
00D8
3FB1
3F6A
3FF2
0177
0182
3D24
3FFA
0017
3E4B
005A
3FD5
3E53
3D3C
3D44
3F6D
3EA6
3E01
3F6F
0082
0133
3E7E
00BE
3E80
00A7
3F9C
3C9F
00CA
3E4E
3E1C
3E47
3FEF
3F1D
3E72
01F9
0093
006F
3FAC
3CE1
3CBB
3FC2
3F72
3F3A
01C2
3F6D
3E9A
3EEE
02F7
3CCB
3FFE
3FF9
3EAA
3D64
3F7D
3DA9
3EB0
0022
05FF
0775
010F
3DB1
00A7
3FB3
0013
3E29
018C
3FCE
0039
3F62
3FE0
3FC7
00AC
3FAD
3FC4
0015
009E
3DE2
0165
0089
3EE1
000F
3E0F
3F7D
3FE8
388D
006F
0048
3F1E
0080
3F9C
3F29
3FA4
0084
3F6D
3E5C
3F88
0009
011E
3D0C
0084
3F66
0188
3F68
3EE6
3FAF
3FE0
3F13
3F4E
3F5B
3F29
3FF4
00C6
0018
3F69
0005
3EBA
008B
3FB6
3E55
3E47
39FC
00CD
3FB7
0139
3EB6
014C
3FFA
017E
3DF6
00BE
018C
3F9B
3E6C
3FEF
3E0D
3FB6
3F46
3DBA
3EE9
019D
0021
3F17
3E14
3EE4
3EEA
00C3
3F60
3F47
3A74
3F5D
0029
3F78
0130
3F99
004C
3FB7
3F2A
3F29
0114
3FF7
3F76
3EF5
3DBE
0025
3EED
0053
0047
3FAD
3FE1
0073
00D5
3FE1
3ED5
00C8
0068
0001
0051
3FC0
0096
3F62
3E36
0057
0097
014A
3DE6
0161
01D7
00EB
002C
3F9F
3F6C
3EC4
0046
012B
3F7C
3E31
3FA2
004E
3CBD
3F88
3F45
0069
006D
3E7F
00A9
3FD2
0085
3F5A
3F9D
0085
3FCC
3FAC
0101
005B
3EB3
0199
3FCE
00B6
3D95
0077
3FC0
3FFE
00CB
3EE8
3F85
002D
0105
00E8
3F21
3EC6
3E8B
3F4D
01B7
3FF9
3FF9
3FDA
003D
3FB9
3F74
3F74
3F1B
3F90
3FB9
3FD9
004D
3FD7
007D
0127
0172
3F64
3EB1
3C4C
3EF7
3EAD
00C1
3F6C
3F56
009A
3FF6
3F6E
3F9F
0061
3F25
00F2
0030
0033
00EF
3F79
0315
019C
012B
002B
005D
011C
004B
023C
3F0D
3FEA
01AD
0315
0032
0041
0041
009E
00C2
0004
02D0
3FE9
3FED
01B1
01B3
3E6B
005D
013E
0216
0014
01CE
3F03
02DE
3F61
0022
3F26
3F5B
3EA1
00D1
0116
0237
3FB4
0155
026F
0292
02CE
3B89
3A5E
3ABD
3FF9
035E
0055
0223
0132
029E
003D
3FB4
0056
02A3
02EE
0015
025F
00C8
0014
002D
0346
0099
004E
000E
00A7
0009
019C
00B6
017E
3ED4
010C
039F
025E
0276
0039
3E35
004F
00AD
0067
0050
0129
3F38
008D
014B
011C
0024
0196
0199
3E91
0259
3FB4
01A1
005E
00D9
005F
005B
3FB0
00DA
011F
00AA
3F9E
0025
0045
00F4
00EA
3CF9
3590
33F8
035A
3F23
0103
0051
060E
02A4
00DB
02CE
3FC8
0095
009F

