BECBE666
3DDD6BEA
BDDD8FC3
3E5A19B8
3DE1E331
BDE9ED02
3F141DED
3E82EAFE
BF16C228
3E1802B7
BEA3F3CB
BDA1183D
3DEED146
BDD24B9E
3F1108AE
BF124060
3EB54BA8
3F1B3F23
BE5878B5
BF36006F
3EEC6B66
3E1FBC87
3F20E804
BE6062BD
3F03E465
BECFDE24
3E97EE0E
3E9AA448
BE85BF17
BE6CA708
3F114DEC
BED207D8
3EF46A27
BEA5F288
3F4FA948
BF5EDDAE
BDBC8706
B9F616C0
3E4BB126
3F20D1AF
3E42548C
BEB189E4
3F10A6A6
BFB0FBBA
BEAF1D55
3F1B823C
3E3F182B
3F395C89
3F823BF8
3E8EFC63
BE3E9909
3D97AAC4
3E40D280
BFD4FD32
3E94DDF1
BE35CF37
BFB78A00
3EA7B042
3E88D14A
3F147FCD
3F0AA661
3F3E66C7
3F0AC829
BDB2298F
3EC52300
BEC44DC8
3E41F01B
3F4862F3
3E08FCC0
BE55C21D
BEE37515
BEC83218
3EF41F1C
BD959F04
3E508990
3F10ADA4
BE5B0EF5
3D35B9EE
BE52E4E1
3DBB0B99
3E721E2E
BED9AB53
BE43E4BC
3F18E405
BEEDDB1E
3F76012C
3EE68DC6
3F919604
3F444968
BE6BA946
BE813A17
3EEF3F33
3F24B6D9
BDED6FF5
3EC12FF3
3E98A943
BF9D1177
3E5AB1E3
BDB00E61
3F56C9C8
3F18DF60
3F15BB11
3F1DE5B8
BEDFE96D
3F872930
3CE3998D
3F0DA1C2
BF20E871
BE2B25EC
3E2EE1CD
3F870325
3D147AC6
3F3A76D0
BD4E19D0
3ECA0FAE
BDB0FBA2
BEE0FA9A
BC3D4FA8
BE9A2C57
3DF28218
3EC25502
3DE38474
3F094EB2
BD7BDD63
BE8C6A64
3EE4BBC0
3F5DC57A
3F28A6F6
BF14E4DB
BF47DDEA
3E9538F6
3CEAE9E5
3D96406D
3EAF7786
BE986B0F
3F7CC90D
3F7FB447
3D1CA4BF
3EED2D72
BDDBE263
3E3F1747
3F6496C1
3F69C37E
3F0530F6
BEA51199
3EF83851
3EB6AC0D
BDDD3EF8
3EBA4BEF
BD09DA6C
BC14FAD2
BEA1BC47
3E934D1D
3D26F8D2
3E6E0B42
BDB3D74A
3F2FB678
3D1B388D
3FC6D4F4
3FA0F3FC
BDB27A47
3DD987C5
BED26F9D
BF17176A
BF060057
3E5D76FE
3F48305F
BE96C15C
BDE4C978
BF5C6A25
3F7CA0A2
BF76E572
BF14FCCD
BD89E7BE
3F125EDE
3F863500
BE381386
BED1F820
3D420FF4
BE8C44AA
BF449A58
3DF07AB7
3EC9B1A9
3F1B7DFD
3EDBCEEE
BE588064
3F6C855D
3DF10A97
BDD5AB27
3D9E2850
3F4B47BB
3F138CF4
BEB219F0
BED84935
BDA49F85
BE2FAF88
BEA18733
BF16365A
3D9C3D14
BE147D1E
3E6A547E
BD00499E
3F7D948D
3E1D9AD0
3DA5E3E5
3EADDE09
3F5D9B2D
3EE1B0B3
BE366377
3E916B5F
3F368706
3D884CDB
BE3AA366
BF00683B
BE872FB5
3CF9199F
BE44C929
BF13C502
3F24E119
BEF8A08E
BF8BC8B7
3E87CABB
3F625C15
3D687532
BDAC6B29
3E04DDD0
3EB05552
3EECEFAE
BD88DC1B
3D6D84D5
3F712127
BD84AFE6
BD7043AB
3DE6C126
3F7B90AE
3E7817C5
3F4E2CFC
3EBE2683
3F3377B3
3EF87DEA
BE13C768
BF193DF5
3EFC5B20
BF7C866C
3F29FC4A
BCC8D816
3F750E66
3EFFC886
3B22200B
BF3CE86C
BE3AB632
BE6B0A47
BE746299
3F1C690A
3E34EA27
3E931223
3D798397
BF55280C
3F4562F0
BF8670C0
3E0CC638
BDF4BE98
3F3B4CF1
3F54A275
3E47866E
BEF415B1
3E6D2779
BEBE3588
3BFAD837
3F262376
3EC5ACEB
3EC85713
3EA9DA22
BF026F72
3E8A3815
BF49A465
3E94CDD0
3E8701CC
3EA1F760
3EC7BBAF
3E68CBEB
BF04D94E
3EDE4C1A
3AFDC9DE
3E36E43C
3DBFFCD2
3F12AD9C
3ECF6DCD
BD9489C2
BEBEAA98
3E7B5888
BEE5AE18
3EAEBD0B
3EA5AB2D
3ED4963C
3E97561C
3EBD74DB
BD6285A7
3DDAC0B0
BE300273
BD84BFAA
BE282390
3EBDE357
3E6B0376
BE19ED16
BE0C36D2
3ED654E0
BDE9C7DF
3ECD2361
BECD3E4C
3EAE18EB
3E20F9EB
3ED01AD5
BE19F53C
3E7D0B55
BE80AEF0
BDA02841
BD0A1949
3CD8DB03
3EB38E6D
BD8FA84E
BC92147D
3E629A92
BE517936
3D9F484A
BEBA0759
3DBBD0EA
3EAB07AD
BD4EC959
3E048713
3F0ADA71
BE8BF610
BCB5F0D5
BE138E2F
3E6C79FE
3EFD59A2
BE061BBD
BE36DEF7
3EEE8A45
BE39E02A
3EFF280C
BD9785C5
3E9F5B9F
3F1EC479
BB86F629
BE347D01
3F12C2FE
BE189FDA
3ED44DAA
BE7AE7CB
3D1E078A
3F0AF3B4
3D2AECCC
BE9AD082
3EC703BD
BF6E61D6
3E6ADD8E
BE1A7336
BDDD3798
3ECA9956
BDCA7564
3F0C378F
3E83760A
BBC3DA4A
3EA75FE1
BDE825F5
BD2F0FF0
3BBF0613
BCCF710A
3E2F1834
3EAC2A4F
BF4C714D
3E2FE181
BE4B5D77
3DCF73EA
3E732BEE
3DF3811D
BDEAFC72
BE7A56E5
BD03A514
BE1F9C58
BE1A44CF
3E89A0B9
BE5315F6
3D0077FC
BEB390CF
3B1C3CDD
BF36B264
BDB7D612
BDA98218
BE1B546D
BB3B3E6B
3DE2CFEF
3EAC37F1
BDA1389C
BDE321BC
BF155F85
BDBB8390
3BA03EED
3B678211
3E0B4C22
BE676EE7
3E9730E9
3E4BECDF
BE4CA51B
BC02EAA5
BC38C0B7
BD6EF5FD
3E9F7F28
BEA83141
BE5DB2B0
BEC5D89E
BE037337
BA83A01D
3DD700E3
BD33ACDC
3E3373CC
3D41A5FD
3E176569
BE005F05
BDC1EC92
BDB8BB76
3EA180A1
3EBC8A40
BDA408CB
3E14B947
3E612328
3E2AD41B
BEAD2416
BE3EF281
3C915A67
BA84744B
BCBC99CF
BEBCF824
BE1585C8
BF201015
BE0026E1
BE3B0369
3E3DDF55
3EC66A15
3B7CC472
3ECCE2C3
3ED7F8E6
3F3409B4
3F12B786
BE24CB1F
BE01E5F0
3CE88AA4
BD914CFF
BE92A371
BE1A978B
BEF00904
3BD09AE1
BE1685A0
BDA748BA
BD81AE4C
3DC10DDB
3E13DF38
BE01CC28
3CC09B5A
BDFE3BDA
BD646A9A
3E7DDAE7
3DC78275
3C26AFC7
BD0952D6
3EF2923E
3E95DD02
BE4C1351
BD60035D
BC9EC0CE
BC3316F6
3E823D49
BE0A0AFE
BD95C236
BECD20AF
BDB61E54
3D21E0A4
BD8C43BF
3DAE50EE
3E70FF48
BED3AFAF
BE85BE7B
BF1890EE
BE5DA2C6
3CBCDB85
BD4C64E1
3DDDA9B0
3D8BDCA9
3E870623
BD96779F
BD8D9328
BEA4122D
BD58FC03
3D968B38
BCEE4909
3E2C7172
BEA464E7
BDA1F8C6
BF73AFA0
BEAB4E23
BD6F9F27
BE3DACE2
3C35FFA6
BDA57FB3
BED424C7
3E3485B3
3E502785
3E84ED60
BD7FFFD3
BBEB7B1C
BE5358E1
3EAD8D5D
BD99C3B2
BE781492
BF37E99F
BEED998E
BD7648F9
BD852A67
3EC63C9B
3E85316C
3E054488
BE5FEEA1
BE2AEAB0
BEE100A5
BDD8B452
BE09C8A7
BDC94943
3E30A013
BE9101DD
BD8F7747
BF486C1F
BE416782
BD21DB0F
3D687419
3E78A21C
3D0C7590
3EA5537C
3EBAB2B0
BE408B60
BE298A63
BE296C2B
BE42A96B
BE2E3084
BE6C504F
BE257716
3DD77AF6
BDCC1B27
3E13B902
BE545BC6
BDC58192
3D93593E
3D543D92
3EFB790B
3E571535
BE8BBC58
BE23666F
BE225443
BDA0C1AB
BCA8D742
3E1806F8
3E747A2E
3EBF09E7
BF0556FD
BE60FD10
3DA337AE
BD07E252
3D2731F3
3E3A0B4B
BE768123
BE5890C7
BE62F291
3D1DC057
BCB82AD9
3D4EE4C9
BD553966
3D8B8A78
BE979F6A
3F5798EB
BF44838C
BEE22495
BD7EE6A2
3F422D6E
BDECDFAB
3DE18C6F
3ECC014A
3ECAA993
BEF31809
BE915F80
BD9D9539
3DBC239B
BD94B974
BE5DB87E
BE35AFF9
3E830FA4
BEAD06B1
3D684349
BDCD2E2E
3E5EE129
BCF548FD
3EA8082D
BEB600FF
3E255866
BC735218
3E3F04E8
3E440C22
3E8772CE
BC17A425
3E54F8DD
BEEEA4E3
BE1F94D6
BF3D7B46
BEE8B8BB
3E9B15E1
3DAEA54D
3EB98493
3EEFE82A
3D6173D9
BDB5D871
BF136D60
BED7EE8B
3E367A84
3E15DDCA
3D3F1C2D
3EB73766
BE4EE0AD
3E88F422
3DF33195
3DB7A167
3E951EE8
3EB229B8
3D25FF99
3F2925C4
BD9B333C
BE85723B
BEA3CF29
BDBA235B
3E6EF720
3DD77576
BDA50EC3
3D41A5C4
BE7DA58E
3E40C320
BEB741D0
BAA551C9
BD8E2E9E
3CBCED63
3DA0EE12
3ECF11B7
3DBD78F0
BBBC5796
BF1D440D
BEA82BB2
3D7978B0
3E104D8C
3CD1B65A
3E5A745A
BEB4F4CE
BD8360F8
BF539AE9
BE9629F1
3E17C299
3D49F336
BD77B30F
3EFF2CC6
BE88D530
BD4C7030
BE840A2E
BC507C91
3E36112C
3DCBA0BC
3C4090A8
3E877C9C
BD997489
BE0963D9
BF326791
BEBA1900
3D694CC2
BD0012C7
3D28D7E4
3ECAAE56
BC3727F7
BCB8EC27
BEE47CF9
BEB50B7E
3E13FA8F
3D3F2148
3DB6A102
BD3D6844
BE46AD96
BD333ED0
BF379480
BE9F3275
3D592759
3C501E03
3E2E863A
3F0906CB
BE12F1B7
3E0D1315
BE2D0208
3DBD047D
3DB07D96
3D926DA3
BDEF1C86
3DB6254A
BE8768FB
BD9E22D5
BF2DC914
BE3AE0FC
BD89EFCB
BDDB3253
3DDE56F3
3EAF34FC
3E896C2A
3D6803B4
BCEB9D26
BEB5A0EE
BC2E2DB2
3E1BB9E3
3D298B69
3E96E593
BEA0EB4E
BD2E8A10
BF1E9CFC
BE50F670
3E1574D9
BD2BB261
BE08E148
3EEA5F2B
BE0F55E2
BD9C488A
BE0B6372
3D125327
3E4B5A47
3D11A180
BDD0F298
3E62B448
BE8202EB
BDA0BF6A
BF07A9AE
BEBAAD4F
3E37EA74
BD8392D1
BE302334
3E54EF01
3B925152
3EC10C84
3D6EFD57
BE91A718
3DC2F19F
BD8FE50B
BB3D3C3C
3E78438C
BE4A843E
BC1140DE
BED55C0F
BEC688E2
3E136758
BC55C089
BE02CDFA
3DA76274
3F289939
3F405F36
3F2AA27C
3B81FDC6
BC261888
3CBD5EC7
3F30A6D6
3DE898DF
BDD2A9BF
BDB2A418
3F4DDA47
3F12AD83
B989BAE7
BC7ACC7B
BDEAE165
3E692C51
BE3B3374
3C1D9EF2
BECBD47B
BE748C7C
BD3DFCE3
3E05F625
3DD3748B
3E31F468
BDE0C200
3B3F5012
BE9BCB6A
3BBE01EC
3E0A65F9
BE1D15E8
3D5B8471
3ECD50E2
3E3A4F68
BDB9CDFC
BB811DF4
BC976C9D
3DA1B706
3E5CF86D
BDC18BF5
3E3555A5
BE47BD8E
3D95F4B5
BE4ABBF7
3C8F9038
BD03C9BF
3CFEF5E5
BDAD8201
3F0657EB
38F7A966
3DB7CB83
BD721792
BD8CF78D
3C7B87EB
3D5D92D8
BD8BA0C0
3DF48E03
BDA9031B
3DDC9F93
BE434D31
BC987225
3E3392C7
BDF3EBD3
BDC122C4
3EEF13A1
BD97E7CE
3C8C7C85
BE51AEAD
BDFBCD3F
3DB13704
BC64755A
3DB6F4EE
3DB3D299
3DACA2C0
3E052D17
BD30CDE1
BD3AA1AE
3D17D1A5
BDDACFCE
BAA93074
3F0023C5
BDBA58B8
3E285574
BDAFD6D6
3D62DAF2
3D3B1B4F
3D16ACAE
3C7DC192
3D9FE124
BDB44B90
3DF3FB54
BE813ACE
BCC86073
3BB80C33
BD83D2D2
BD862F76
3E3028A5
BE71FF7A
3DB46E2C
3DE311B8
BDFCF4B4
BD829817
BD3F89D9
3E895168
3E7D2D97
BD65E6D9
3CB6805D
BE9441CE
BE21915D
BBACB8A9
3CA87B53
BDDF748C
3ED6DF95
BD878049
3D9A9915
BB1B6FD4
BD2A45D6
3DDB5712
BBE8F7F9
3DF3759E
3D26D3BD
3D217450
BD2FA8A8
BDA118E9
BDF0B3F4
BCBF3975
3D07E559
BE3AE3AD
3E11928D
BE29F8D8
3D8112EE
BD989A20
BCD770A6
BD13710C
3DB3AF18
3E0B3E71
3E8272A8
BD48DE5B
BD391AF0
BE5C10C1
3CEE27BD
3E10E067
BD962EA0
3C8E50FE
3EE9EC02
BE58F91C
3DD823B7
BE9839CA
BDD41BF9
3E3212D0
3DFC2391
BD813231
3E4DCBFE
3DCBA78C
BD8E963C
BD1CC130
BD52B874
3DCED317
BE10AABF
3D18494E
3EF45455
BD871B28
3CBC5DB1
BE8960F6
BDC70688
3C5500F8
BB1DC517
BBAC590B
3E351BE8
BE38E508
BD9DE7B0
BE69F7ED
BDDC43E8
BC989985
BD0CE44F
BDE9D793
3E97CE00
BE5AD30A
3E278D29
BE3AB1BF
3C773525
3E4E5517
BD8AB0E5
3D0F1CA7
3DDE9697
BDDC1278
3E28CF0C
3DBF3ACC
BDCD5236
BCA7059F
BCEAEAB5
BC520219
3DF0F5BF
3C962F55
3DBC24D7
BD3B86DC
BE06F106
BD1FE390
3BE10242
3EA1C5E5
3D3B0A01
BE8359EA
3CD23EC5
BE90A440
BCFF5EE4
3E34330E
BDE94AFB
BE13E2AB
3EA4C115
BE1859A0
3DBF36BF
BE1BA3E9
3D4CE09C
3D94AF78
3CCFCA58
3D325D6A
3D4CEF59
BE4F1362
BCC2AF05
BDC7EED7
BE0330C2
3C93EBDD
BCD2A8BF
BD802978
3D5B01E6
3E20A6B2
3E39E8BA
3E9890A5
3D3B6B65
BCB60ACB
BC935AD6
BE2BF243
3B3ABCB1
BDC7FAFD
BDA9E1EF
BDD62931
BD74FE03
3D80AFD5
3CD90B76
BDCF6978
3DEACD4B
3CA9DE3A
BDAE4B3E
BDC1CD47
3D9B1A8B
BD0996DC
3CAC0773
BD8C153B
3E13F7C3
BE14BB59
BB8EA204
BE769A3D
BD777125
3E35A83F
3DB52E77
3D904816
3EB2E122
BD6A8674
3CAC6C9D
BE2565CB
BDB44A14
3E49648F
3E141DF1
3DA13855
BDB920CA
3CCC4B4A
3E35D80C
3E618335
BD0FE151
3C9EDB04
BCE59148
BE1B6046
3E033667
BDCBFB59
3C9D24A7
BE4D4087
3E0B0414
3E08FF81
3DA4B6F2
BDB5D75E
3E86A67E
BDE17A82
BD44787E
BDD0B4E7
BCADDE87
3D83A45B
BDC5718C
BCD9A5BD
3DED5EED
BE371294
3DFABCD2
BE044B34
3D4C9A4B
3E516116
BD6EE6EF
BD7D79CE
3E1B6992
BD892D37
3E0B3EB1
BE45E27B
3D351051
3E3C9D0D
BDC0AF19
BDA7CE7D
3E323623
BE3481FD
BD389DEB
BDF13DBF
BBEC64C5
3D4AD953
BD5F2023
3DEEFCD0
BE9A8930
BC0EFACA
3B9212AE
3E895ECE
BC5FD9CB
BB5F0837
3DE80EEA
BB20FB51
3D4A3B13
3E6A33A9
BCB2D40F
3E2D7DDE
3CA95DC3
BDFA66CF
3BD1C150
3E471E1E
BE290374
BC32D2F4
BE0CF4B1
BD6C334D
BDDF4883
3DC6033F
3D317CE1
3D903F57
3DD6D3CF
BD7BA9C8
3E18666A
BDD1BD85
BDFC5F0F
3DD4B590
BD52C6B8
3C431D8B
BCD5D459
BE3FF2F3
BDEC4DD7
BD7B464A
BDDF49BC
3C431B91
BC11EC9F
3E5E9364
3E8D2960
BDACA11C
BC106646
BE3BD98F
BCE0748F
3D6F484A
BD939419
3D35A574
3DDB8C7F
3CFDD29D
3C8B4A73
BE2C2583
3CD7DE87
3DD96BC1
BD1FA561
BDF2BF52
3DA80D84
BDDC3565
BCEDC827
BD7A9CB0
3D4753C3
3D402A8E
3C8FFD7B
BD229658
3E3BF7D4
BCD7662A
BC647806
BE2D3F5C
BD5DCB85
BC22D40C
3DC5861A
3C780731
3DD8C90D
BDFBEA68
3D42C272
BE809320
BD5530BD
3DBE1FC0
3DE735E5
BB74A408
3E6D9554
BD9D65D5
BD00CF93
BD3994AA
3D961C91
3D9FA1C4
3D958036
3D689198
BAF2BB9C
BDCB59CD
3DEFF90B
3C494EF3
BDE6697E
3DE0E0C3
3C03DD30
BD99F38B
3B7FD230
3E398877
BD087719
3E09A778
3DE6B5DF
BCA7483A
3E09991A
BDBD5244
3D996AA9
BCAB2EE8
BD721E6C
BD4753EA
BC5DD068
BD9B79D8
3C927F6D
3DF1AEF7
3E01B217
3E09D871
3D8E3338
BC8BCC55
BC8B9660
BD7F3ACD
3D671377
BD239AF4
3DD7A764
BE02B0D3
BD546A2A
BD8A741B
3DC08005
3E15F620
3DEF51B4
3D639C73
3E2D0254
BDD08B4A
BD8B8F11
BDFBEC95
BD3EA124
BD7BDB3B
3C8B8C20
3D52420A
3E0560BD
3C2D9E44
3DAF9BDF
BDBC66A6
3DA1C6FD
3E0BABDB
BD7DC41F
3D343852
3D61D12F
3D4D09B9
BD856D6B
BE194A12
3D83116B
BCC3DADF
BDCA3FA9
BC3CC856
BD807DE6
BD9E5085
3C7AE007
BE063294
BD4E0A62
3E0829D0
BBE75DE3
3D9B7350
3C63FFF5
BE19D437
3DFD53E9
BD9E3824
BDCB9838
3D9B4090
BCF6BF3B
BD1914C1
3D71A016
3D61D9DC
3CE703E6
BDDEFC3E
BD944378
BCFF24EC
BD9994D4
3D4DDF4B
3CE1B652
BD25C237
3D8CA2F8
BDF7DAE7
BDA3646A
3D99E438
BE0CE339
3D03BB93
3C037B37
3DC1FE88
BD3C817F
3D4F92AF
3C2F7D80
3C1700F2
3DA0117F
BDA25E69
3D27FE5B
3CA47D94
3D9806F9
BD42D218
BDBEEAD3
BD9D31E1
3C919AD1
BD031453
3D528442
BC46C742
3DF14AD3
BE025597
3DDC45DD
BD3FF484
3C3055BB
BC1C7DC4
3C818941
BDA19095
3E0465A2
BD05EE64
3D8DDD4B
3DD0213E
BD110FC9
3D89C46A
BAB5EF8A
3CA6680C
BBBABBC3
3B9C3A09
BCE0BB1C
BDA7931A
BCD0BF87
BD993BA9
BBDA24A0
3E37038D
BD6C1DE3
BBC5A300
BC07AF00
3D42D7A7
3E3A7D4B
BCA2FDAC
3E0F4F64
3D301F0B
3DB8CEC7
BD4DE8CF
3D67E0E6
BD12147A
3D5C1DA6
BDCCD2AB
3D467A8A
3D0604BC
3D4591BC
3CCC0F6C
3B6299C0
3D3ABADA
BC2FCD0B
3C3CD4DC
3D756B62
BCC3E1DB
3DC08A8D
3C88FA90
BDCD3307
BD08CDA8
BD2F0B7A
3DB9C956
3B8C7ABE
3E1F37EC
BCC1C30F
BCFEA87D
BDD81F34
3D351D86
3DC3A822
BBBBA8D2
3DF09D80
BDB1A7D2
BCBBF2DF
BE1532FA
BDBDD42E
BDB4DD88
3BB83B37
3CD5D171
BDFC068D
3E1B1135
3D10D960
BCD15FEA
3DA8290D
BD0A3DA0
3D576DB5
3D1F4A51
BD759C18
BD2EBD87
BCBBD39F
BD0C493D
3DB800D7
3DB484C8
3D8F6FBC
BDD40137
3CF6EACC
BC298B40
BDACBF23
BE054CCA
3DA86397
3DF96F98
BDF1A3BF
BD9EAE50
3D6B635A
3DF7C649
BE0C76EF
3E0CE1C0
3DAFF411
BD6E5517
3E291FFD
3B67EB28
3DC46F4E
BE111958
3C9FD3AB
BD7CE96D
3D8C80C3
3C81FED3
3D00BD33
3D00B8C8
3DEE006E
BDAD8CBB
3D766CD8
BD9921E3
BBB41E50
3D91FA1D
3D50F938
BDD30B71
3D935900
3E173543
BD809F7C
3D00A344
3DB3709D
3C80882F
3DA8CD1F
3D76CB73
BDFA82F0
3CC09D80
3D0FCD40
3DF146E0
BD961CBC
3D9DDBE8
3D528B7D
3D0EE4D1
3DEEAF7C
3CFDCF1C
BB51799E
BC324838
3D6D4FC6
3D9FB286
BDA617AF
3CAD7621
3D859F3E
BCEECF8B
BD98F8EB
3C6F33BE
3DB3325F
BDC6D917
3E099181
BCAFA5A5
3D630F2E
BDE34ECA
3E086686
3C9BAA8E
BD3555EA
BD8CBEAD
3D29D1AE
3C267FF3
3D66C356
BDA14629
3D4B5FC4
3D8821D0
3DAC06B7
3C50D284
BD8DB366
BD229DAD
BC71AC91
BDF46964
BDAFEC4D
BD00A479
BD995F42
3DAEF08C
3CBA34B3
BD98B312
3DABD0A8
3C0DEA04
BA426279
BDE5E411
BD04CE86
3DF6C020
3CB16ACB
3D92EB1A
3D9F8CA2
3ADF06C3
3C6D907F
BDEB7DBD
BDBEF580
BDC20496
BC10799B
3D68310B
3DF0A256
BD3F1CB0
BD8688CF
3D69EE10
3D0B688E
3C50F29C
3CD92370
BD51115E
3C216229
3D3CCE71
3E0538D1
3D2038FE
3D8B05D3
BCEE0E9F
BD58744D
3DD92A72
BD1787B1
3E4FFC33
3D520A75
3E36BF9E
3CF195D4
BD859162
3E013103
BE139E7D
3D0DB042
3DB3B506
BB4592C2
BD2E2AC2
3D834EB3
BDD8604D
BD437D5C
BDB045C9
3D301B05
3C50550A
3D8FB57B
3D3AAB00
3DC72777
3DB1254C
3D0CD233
BD9BCB92
3C71260F
BD8C6E05
BCB8E907
BDAD2D19
3C92EE94
3DC0B73A
BD3F3FAD
BDACABFB
BD5C4CC0
BC6CF190
3DC0D077
BD4F6B2B
BD79E74E
3D38C262
BE0910A5
BCE655D7
3C8C7496
3D1FECCC
BAE736F7
BDC7C678
BD3DC338
3C7117ED
BD718B09
BD1831A5
B9CD8E52
3CABC7F4
3E077177
BBD9D655
BD312590
BD815469
3D0BCD7B
3DA1A62E
BD825EC3
3D8FAC02
3DF26F13
BE11DDE4
BD8AC1F3
BC1B2C0B
3C3637B5
3C1D3D2B
3E0600DA
BDCC54C0
3D82517A
BD9D6FEE
BCAFC924
3BFF174E
3D40740C
BDBF3E33
3C96F2FB
BDFD803E
3D332EF4
3D21C25A
3DB9BB03
3C20FBE3
BE031D05
3CF447B9
BD4E2E14
BD71A829
BCB284E7
BC6A1D36
3D2BE0C2
3DB67E38
3D9602A0
3D6383C7
BD426CBB
3C771BB3
BCB94319
BB076F66
BDDC98AE
BDCD23B6
3CCD0E1F
3D870690
BC9F81AA
3C16A244
3DAB7EC5
BCE0B8FC
BD96DA99
BD15AE6A
BC6FFB13
BD2BC1D5
BD8C8EC3
BE1F21B4
BD26CC80
3D0B48C5
BD91F48A
3CD2802F
3C699C41
3DC2EBA8
3DB7C374
BD8EB141
3D44F62C
BDA83209
BDA01780
3D63230A
3D98FC44
BD5A97EF
BC2AAA71
BD41D8D1
BD67A4DB
BD47E52F
BD81D156
3BD887FE
BD11C381
3D543F0F
3DECB746
3D800DCA
BCAF4EB3
BD9BF092
BDB5D302
3C9CFBAB
BD92D0B3
3CAAEF31
BC8038F8
BD5D7E84
BD9F0163
BC936790
BC4EFCF0
BC6C3367
BC85A5A5
BC396C24
3E0B9BD5
BC552AD0
BD818A5F
3C1D5286
3CA23C74
BCE0DEEF
3DAFFE4E
3D7D09A7
BD0DB2FE
BDDF830E
BD64161F
BE1AB038
BD3AD76C
BC91905D
BDEC6A41
BDC0ED31
3B67A9D7
BDE548FA
3DA38CD9
BDDE7267
BDD6BBEB
BD878D07
BD3B2AF7
BDB74B87
BD3F43C3
BE04A12F
BD086EF0
3D07B9A5
3DA8D571
3D2FFD26
BCE77913
BD6AA841
3D2E9BAB
BE1B5191
BD6568CB
BDC832EA
3D5CDC6A
3DF6549E
BBE18AAF
BD73D5E7
3D603EC3
3D242FDE
3C974734
3DAAFE27
BDA2F34A
3D91DD4A
3DC4C994
BDFB58B7
BDBA057A
3D0FEE73
3BB1EFE5
3C1B162A
BD0C51AA
BD820BEE
3DD86EE6
3D4BB69D
3D87AFCA
3E15A686
3D1BECCC
3D7BDFB9
3CB6CE2C
BD71C35A
3CD1386B
BD76C24C
3C066640
BE11BE54
3C97000F
3C68B640
3CE0B1B4
BBE1DBA1
BC056D1C
3DB1A00A
BC84AF70
BDDDDA74
3D89C173
3D8109F2
3D838739
3DD1F930
3D8C33F8
BCC68227
3DEBF1A0
BCD62194
BD33DA81
3D2BEEA2
BD6DA32F
3DC0D4A4
BD040983
BD3D4CEC
BD92597F
3D430D9C
3D1C30EB
BCE0936C
3BD7A040
3C34041C
BDCFF9A7
BDD12EA2
3C692917
BDE35992
3D85636F
3C2BDFF6
BD5170D0
BD5FDF6A
BDB99E3C
3C1267DB
3D176083
BE14758E
BD482C06
3D4B212F
BC89E78C
BD194EEE
BD363054
BCBA6BDF
3DC7081A
3D416F2F
3DA61A51
BE08437F
3D9578C7
BDC237C5
BB94EF0F
3CBD7211
BC921A26
BDA0125F
3DE631FF
BD69979E
BDB37B19
3C11CCCB
BC6DE273
3DF25BD6
3D26C5B1
3DD33E2E
BDB41C84
3D85232D
3BA27A20
BDBF7868
BC231FE1
BE14C7D0
BA6491A6
BBF5347A
3D182A3F
3B8DC9B0
BDE83B6F
3DFEFEB0
3D20ADBF
3D7A456B
3C2E9E47
BDAF1D41
3D8B6EAE
BDA897D6
BDA4D968
BDAD1CCA
BCB0473D
BDA2E131
3D8F3CDB
3D7C2B32
BD898081
3D4B326B
3D0C483E
3DC5C49E
BDB727A2
3D1E3563
3DCBEFA2
BD8A9D14
3DE28A1F
BCD042C2
3CECDDAC
3D97E29A
3DB60C1E
BD031717
BDA48E42
BB62D689
BD3A50CB
BBD428D3
3D00199A
BC8B482D
3D5C1422
3DE2BA06
3D9F9D16
BDB63D7A
3D3056C3
BC4B7D96
3B35C080
3BB5BB8E
3DAF6EE2
3DA2F754
3E098AA6
3D8A27BC
BD212203
BDD2B168
BD863FCF
3D7371EA
3D306AE1
3D1ADD2B
BC162EA1
BE186E2F
3E0C004A
BC6E5826
3D02912E
3D849515
BDD6BF66
BDC2DECD
BDBB589A
BC211412
BD04F16F
3D6FC35F
BDBD404A
BD88E5C1
3DBDC8F5
BE0F6BA5
BE0CEADB
3CF9E7AE
BD8EC5EA
BB90CC64
3CB190FC
3CCED959
3DF133A8
BDC06E0A
BD206F17
BB9E7DF6
BDFE6AA7
3CC59AEA
BCAB44F4
BDECDD9B
3C290A24
3D8D207E
3E006C90
3D46E1C9
3D859A63
3D46413A
BDCE4D60
3DDA5726
BDF5427F
3B2FCB33
3DD431D2
BE09D732
3E0357EC
BC9C5F92
BDDE61B9
BC03B064
3D6C7DA8
BCE2D56B
BC470083
BD51BE6C
3DE2D16D
BD7657A6
3CB24A1C
3D2BF3C2
BE041313
3D7C0117
BD6BF14C
3D54F486
3D3C8BA0
3B0ACD16
3D9448AD
3C84D383
BC10E5FB
3DF14424
3DF5E18C
3C4B6892
3983EC15
BD674EA2
3DD6D6E1
3D8A45BC
3D09B0A3
3DCDB1E2
BCC38A0C
BDF26D30
3DE72475
BD8D0E8F
BD9B7F30
3C39A75C
3D2D822D
3DE61796
3C0EF049
BDC8B5CC
3DA37291
BCF0D904
3CD170EC
3DB034B6
3D2F16AD
3DCF033E
BD5DB3E2
3D85BA66
3DD321DF
BBD2A3F3
BD4A3974
3DA86F8C
3D63A963
3DA3CCA4
3DA03C3C
3A0A3341
BDF4713F
BA125072
BDDB885D
BCBE5C39
3D69CE85
3C4A814C
3C69D8BB
3D359197
3D150498
3D6AB47E
3DC189FF
BC22D293
BCD69EDE
3D3B0801
BCD577E4
3D231223
BC4C41FE
3DE67164
BD93F529
3CE76150
3DEC4EF3
BD216E34
3E04B829
BD9BD316
BD945887
BCA5FC0A
3B2581E0
3CA5A187
3D638C3F
3D4BCB6F
3CC5C730
3D7873E2
3D71ADF4
3CBBB8A4
BDE77731
3D0E2792
3D186783
BD906709
BDAE2DDF
BDAD4A52
3D0A510D
BE074E2A
BD28C0C4
3D4D5E0A
BD12379F
BD212D13
BCA9474E
BD7229C3
3C8CD417
BCF4DDF0
BB98DED0
BDB05BE7
3D4CF844
3DC77E7E
3D8F4471
3D2A61E8
3D7E246C
BC068D28
3A45D080
3C15054B
3DB4EDFC
3D925590
3DF860EE
3D129CC6
BD2B5A31
BD743830
3C8E8114
3DE5F248
BE0AA944
BDAF0E6B
BD37B412
BE0513E4
3D0C625E
3CC8BBDC
3D8DCF75
BCB5A819
3DA3C656
BC9F0213
3E0FE13D
BE03C624
3DBFE607
BE0EE7B2
BD1FD4E8
BC893775
BDDAA0DB
BD884B06
BD697CFE
3D88A452
BDA5771B
3CD7C2D4
BD89AC04
BC5F3256
BCA0696B
3DAB8EB6
BD9BE453
3DC21B1F
3D914A36
3E307724
BD05CA4C
BD085DC8
BB634C73
BDBC18B5
3D60F41C
3E0F80B0
BCFF6686
3DDB6F82
3D2240FA
3D6851EB
3DE5C178
BCCE0715
BDBFE7A9
BC88C60E
3DB45CF1
3DF273FE
BDA4F6DC
3CE7E14E
3DDE3E8A
BCDC0649
3D85A83F
3CF47A8D
3DDFD11D
3D92A3F2
BCEE28F0
BC08723C
BD740407
BCA22D83
3D6A346E
BE10724E
3E005FB7
3D70E948
BDA60012
3D4502BA
3CCCAAA0
3DD10DA0
BD9AE8CB
BDF50F1E
3E023989
3C6BC212
BDAB5507
3DB38BEE
BCC1143C
3DB70042
3DE82E80
BDACD7F2
BD8E3F0D
3C720522
3D8E1BD7
3D0CB59E
3D800972
BD3C5D68
3DDA3398
3D07164F
3DC3D28F
BD08CDE6
3D296A72
BC1494FC
BD84CE8A
3AC87522
BC473573
3A134F2E
BDA8AB1D
BC1BD8EA
3C7F2C58
3CA6308F
BD8F5E76
BDD896C0
3D7149CA
BD5690CA
3DA779F3
BC13FA58
BDB1FC2A
3C8A5F67
BDB804F3
BBCB74ED
3D4393A2
3D04100C
3C8034BF
3B0B4FD6
3D06AEA2
BD52EB2C
3C25C99B
3B4B9B94
3D63BDAA
3E0D4087
3D0D5387
3DC216C5
BDBB3111
BD2FE028
3D26620B
BD57E9B6
3A418137
3D450773
3D61CA1C
3D243FF6
BB974660
BBB8CA80
BD6D9CBD
BA80F5A2
BC7F0589
BDEAAA8E
BC254D7A
3D3EB4A4
BDAE44CB
BDB74FB2
BCF550A7
BDB52CC0
3C9D6F2E
3C425792
BD8B9679
BDA6B31D
BD88814A
BD9C52AF
3C955209
BD58F150
3D214253
B9DABF1F
BD7CA247
BDA941AD
BDAA56F8
BD95C4A3
BCEE7367
BD7E3B79
3DB6BB3C
BDC80EB6
BBFA5D3F
BD746372
BB9A48D0
3DE03478
BD99D73D
BD6F2504
BD379BAE
BC8DC33C
3DED0E4B
3D6C2B94
3DCB56B7
3D990D02
3D97555A
BDB89398
3C8B2622
BDA5006F
3DA9E587
3D48D156
BDA90410
3E01ABC7
BE03A6CD
BD633FCF
BD9E597F
3C139014
3D8FE35D
BDA48E88
3CCAE2AC
BD684B7D
BD2A22BE
3CA264E1
BDA284DA
3BDB1375
3CCE85AF
3D011281
3D3EBC62
3DB0150A
3D8DD50E
3D44E15F
BDAF059F
BCFEC2CA
3DAE00E5
BC402268
3D45D086
3C4A5CE4
3C09E5D7
BD4B83A6
BD4EDEE0
3C583159
BD7A9A7D
3D504C3E
3D8462F1
3D74ED65
3D2CE276
BCAC4002
3C0A1A37
3D638C44
BD4C0476
3CD7A29E
3D067AEA
BD8446DA
3E002271
BDC0CCA0
BB5CCFB6
3DEF2EB0
3D1F52D4
3C65BA4E
BDAB5807
BD42DF9E
BCE9CBE8
BD8FF96B
BDAFEC24
BD89F57C
3DD0EDBF
BE1446F6
BD414BCC
3DF70906
3D3301DD
3C9CA647
3CC77E80
BCCF9404
3DC78B95
BC673446
3DD78CF7
BDA1C5BC
3D4597D8
3BDA64C2
3D7038DA
BDE31628
3D7D3818
BDD4C21F
3D45B8D2
3D388DE6
BDDA80C1
BDA2377D
BD50D81B
BD18E686
BC0B0C12
3D0615C9
BD61C3D7
3D5F315A
3D84DC7C
3D94D0CA
BD0DD22F
3C799DAA
3E09C3C9
3CCB8C3C
BD3EB948
BCE0B2C3
3DA7CD60
3DC7C36E
BD07341D
BC566710
3DA6BDD1
BDE00957
BD8AE1D0
3DE1EA8C
3DA7B67E
3D5EF4DB
3BC95C69
BD82818A
BD52E0FC
BC335668
3C9B8BF4
3DB5012C
BDBB79FD
3D97F288
3D481CA2
BE0BF6E7
3BE2C23F
BD3604E1
3CD1E81C
3C8844E6
3D78F904
3D991082
BCD575CC
3E22822D
3D9588A0
3D358672
BDB9A4D4
BD88CDFE
3DB60823
BD3FCD14
BCC0A48E
BDE1AB00
BD4F023B
BD0E73FF
BDBCEA8B
BBA5B5C2
3D147B37
BDCCD47A
3DA8BE2A
3D36BB37
3D0C7B84
3E188A4C
3D2DBECA
3DA1BCF8
BD6AF861
BC9DC013
3CDF82BC
BD72E5F7
3E0ACFA7
BDC838C6
BCC3B5D8
3D6ED532
BE018B40
BD9FA1F0
BD9AD72E
3D75E901
3DA20BE5
BCF45CAC
3CCBEC34
3DDE5442
BD239318
3C957ACF
3D991A9A
BD9E0821
BDB1DC53
3B8EF6F0
3C15B138
BD9F942D
BD8491A3
BCD37539
3DDC6F6E
BE13F40F
3D0E988A
BD4CD0E9
3DE3A3FB
BD8D1BF7
BDD979B9
BDA85049
3C8F932B
BD45587D
3CE42097
BC3B3DF8
BC40C0E0
3DF1CBEC
3D8EDC76
BC3D570C
3D6842D2
BC9D0A3C
BD4E6E4B
BC1EA35A
BDB2B885
BD8003C7
3C005EC7
3C8589F8
3D707E2E
BE1DC647
BD2B3005
BE02205F
3C7440F8
BD6AADC8
BB92678F
3D9950D4
BD82BF8C
3E2B4FF9
BC3132E6
3E140A14
3C7BCC98
BD125DD2
BC2E38E7
3D5A396B
BDCA3DF1
3E0665F5
BDD8EB65
BD114FE7
BDD5DDD2
3C9C9B1D
BD9AB739
3D05BA51
3DACA406
BD0E9817
3B07663D
3DC10416
BD1C0FFE
BDC0CE27
BD97B6E1
BD8CBD7E
3D8A3AAD
3C2D6624
3DA79479
BD9EAD60
BDB6EF5F
BD400176
3D8E033A
3BE33F52
BD5F9BCA
3D7B4732
3C49510E
BDF587CD
3D4FA736
3E0088B0
BD4E8F13
3DBA7B4E
3D45D51A
3D8BECA0
BD05C252
BD924F58
3D5FE32A
3DDCDB58
BDBF9E83
BCDD0BA7
BDAF1C9D
BE1D071A
3B8F9A6F
3D824F38
BD64D0F7
3DF1B924
BDFD140B
3D459033
BCAF7816
BD93329E
3E0B9E83
BA94F36F
3D047256
BD31FD5E
396F175C
3D50CDEF
3DFE8A30
BCC2B6FB
BD0CB24C
BE0D5256
BDC58A35
3D40ABA2
3BB3DE35
BC338A6C
3D8B9789
3C0F2FD4
3E05FCE7
BE027121
3BFBF5B0
BDC4BD96
BD440577
3DDC8560
3D47191E
3C648EA2
BD59523D
BD47A57D
BC400A48
3D03515C
BD1BB3F1
BD2FE9A5
BD6ABF75
3DB2A86C
BC59F296
3D4AD089
3D52ACAE
3D97DE5E
3E04B729
3C769EAE
3CB1F672
3D22674F
BD5A89FE
3DAAC62A
BDC12FBD
3CD68857
3D9AF673
BA9F1DE3
BD0662BD
BAA77B4D
BD678797
3C9FAA96
BD3ED308
3DDBE940
3D7416BF
3D09F5CF
3E034093
3D1279E3
BDAC2E13
BCD8297A
3D30017E
3E035AA9
3CE11671
3D819A42
BB0A0843
BCE90044
BD1E8580
BB90062F
BDD68C76
3DEC4AA4
BD8D3EC2
3C52BA3C
3DE15916
BD29D605
3D3D945C
3CF66A65
BDAD8293
3D26E59E
BE046CDD
3DB3A93A
3D6F6896
3D67F9BC
BD4BF2DA
BDA73F13
3CAF35F4
BD6FED35
BD76B0CB
3C8CFFD4
3D190B07
3C62BE92
BD522397
BDA37BC9
BB4DC7E0
BCEF9EA2
3C37F795
BDC8F247
3DDC89EC
BE01AB5F
3DE52713
3BFE9B8B
3D5A59B6
3D5744FE
BD9F2D71
BD086B33
3DF3E5FE
BDD25A82
BC92ECC1
BDEF57FF
BD9797E2
BAF2CC06
BDDAC68D
3D0EB553
BDAD6C10
BD8ED171
3DF08ED5
BC9AF9E2
BD91B06F
BD7176DB
BD178BDD
BD0E8F11
3BB74E0B
3E4B491D
BD2533D9
3D050374
BD5B7557
3D859F04
3E396ECD
BD829885
BD99398A
3B4454C9
3D6413FF
3DBEDD9C
BDB51D4B
3D737705
372F4AEE
3DA20B8C
BE055317
3E10D9F2
BD8B757F
BD418E81
3B9F4480
BD537364
BD72A09F
3DC3EC0E
BC21DC79
BE11D0A8
BD530578
BDFBA71D
BD2F5A16
BC87C27B
BDEB6013
BDAE3A3D
BD669084
BDA44AB4
BC6CFAF1
BC5C4A76
3D5B806A
3D049125
BCAD06EA
3D898436
3CE51314
BE1FAD7D
3BF65CAF
BD6BA39C
3D3F95F2
3D1536FE
3D902CD6
3CEB5769
BC103501
BE0477B5
3E050337
3D455FD5
3DAF5531
3D0A618A
3B7038A0
3D0D356B
3E10353C
BC8C8DCD
BD53F184
3D89BD22
3DA02DF9
BD8415E1
3C2B77CB
3C888AC8
BD5788D6
BE07E678
BD8EB0C7
3D47FBB5
BD70C8C1
BDAED5B2
3D0AA1AF
3D6F43AF
BD761726
3C68E6F2
3DD16917
BC80ECA7
3D5FF79A
BD924593
BD11F367
3DC9AE9A
3D8252C6
3D8E4A06
BDAB019D
BD8349B9
3BAA92E0
BDA66671
BDE66416
BD967278
3B4B2805
3DD73952
3C1D4FCA
3D457F3D
BD6663FA
BD3CA01C
3C8B5C8B
3D340A79
BCA1EE7A
BE0920F3
3CC012E3
BCDDE5F4
3DE56D8F
3DE26596
3D999778
BDB12446
3D9648E9
BDECA16E
3DAA385B
BDD55F81
BDC5C398
BD63F942
BD06411B
BDC0484F
3D4A4BBE
BCA60A04
3D8839BA
BB24211A
3DABF475
BD377DC4
BD85EAD3
3D690643
BC278099
3BC078F4
3D7A6178
3BE0D268
3DB2F467
BD99A12C
3CE0CD79
BDB29D60
BD925A4E
BCEB8F14
3BD7DFBF
BDF5F6AA
3DD2D27D
BD9BD268
BCAED5E1
BBFF8E8A
3E07E3EA
BDFE8592
BD8AC713
BD9E4456
3CE04434
3AE8FD7F
BCA0D48B
3D63102F
BD5A0ED6
BD9DCBCF
3E06F9B0
BE01F008
BCCEEC44
3D2FC98A
3D6DA447
BCAFCAD3
3E0E2022
BDBC17B4
3D776570
3C232206
BDDC651C
BCE41C6B
3BC7A195
3CAEA3D1
3DE9B2E2
BDDEF1E2
3D1E7094
BD53840B
BBC37830
BDC61114
BDF47234
BDA1FEA8
3DCC9000
3CBB8464
BD7298E4
BD8658D8
BD605227
3CD3DB0B
BDFEBA2B
3C7C1BB4
BD1BB800
BE0AED40
3D0E527A
3D73235B
BDAD679C
3CBF1A7B
3D61FCA3
3D2ED69F
3C356697
3C86FF8B
BDF2B681
39E6AE83
BD4DB814
3BE5DEDB
3CCD4E43
3CD0F637
BD26B3B1
3C2742E8
BDE7E1AB
3D9DEC06
BD2E86F2
3CC14E67
3DC938F6
3DBB460C
BDD153A7
3DDA8A34
BDC91735
3E08B3C6
BC8C7478
BDF127A3
3E03E02B
BD718D08
3DAA09AC
3C84F64C
3C68D7A7
3C946BCE
BB59BF80
3D502CE6
BC71524B
BCE938B3
BD095638
BD3BB927
3DFF663F
BD4DE40D
BD1AB8C6
BD9698D1
3DA39E0A
BBE5444D
BD11256F
BD2AA171
3DC5F75B
BDBEA830
BD251536
3DBB90B0
3C84F3E9
BDBDCDC8
3DEB71CC
BAF85D4B
3D44E97C
3D94142E
3D0F79A6
BC80FC83
3CC68CE9
3DB53C16
BD4358EF
BC0AC8C4
3BB622DF
BE147D42
3DA300AB
3D467BFA
BE027515
3D4ADE07
3CDFAE64
3AD04E44
3DCD7441
BD423130
3DE912C5
3CF0B111
BC4E5EEB
BD49BC30
3DC35E70
BDAA07CE
BD066C5D
BE0CF01B
3D3A81BA
3DAAB310
BDA1208C
3D8A1244
BD6C4B06
BDF5A81A
BDB62D79
3D5F63CC
3C45F438
BD1E2AC0
3D1AE287
3D7E2DD7
BE03B7C0
3E151C11
3C9354C4
3DB0691A
3D1AFA56
BD8E3EC7
3D8B11D6
BE0235F4
3DB90822
BD744C8D
BDAA0527
3C9E0B16
3CAA5334
3D8F62CB
BDACEC9A
3D1E360B
BD9E0A95
3D887A1E
3D813583
BE1A503A
3CC39D24
BB9DA8A4
BE04AF71
3DB6A266
3D16AD81
BD34BF47
BC7CE553
BC0318D8
3D3C358E
3DFC1DAA
BD1B049B
3DAEF0CC
3DBD0F66
BE180AA4
3DBAF69F
BDE345EF
BC80D034
BC3E9B6D
3CEBAA5B
3DB4279A
3CF6C99C
BCF99D92
3DB13B29
BDB75D99
3D200DC6
3DBD5376
3DB3C75C
BD61BBDA
3D672ED2
BE1EBA24
3C758F4F
3B2D5ED6
BCB44F7C
BD9BCC30
3CE14419
BC926AD3
BD9135E3
BDF525AA
3DFC789D
BDC257FD
BD34B542
BD108622
3D627A0F
3D4DF29B
3DB5B5F0
BE20E160
3AEB917D
BC5DBE46
BD922868
3D66F9CA
3D01FBDF
BD05E88F
3D38E542
BD3AC272
3DB70A59
BDC3C229
3D120D5E
3AD038FC
3DB40D8E
BDBC3485
3D54A78E
BDE98ECA
BD20072F
3CC98FD4
3D7A094A
3C6E706D
3D9DA030
3D168D5F
BD8C8455
3D46D4AD
3CA2595B
BCCA52BA
3D321EEE
BD701E53
BDB556C3
BD80219F
3DE23862
BB8B8B96
BD6B501F
BD688A74
BDE4C3DF
3D104F96
3D9F970E
3DBF68BA
3DA1C444
3E147259
3D03C81F
3D2876DF
3DBEAFD7
BDAA02A4
3E2496F1
BD1F34ED
BD27A401
3D4D0938
3D1E1AD0
3E1C86D6
3DD2C125
3D8E88A8
3DDD750C
3DC26540
3CED35F7
3D6F2DFF
3D7838F5
3C270932
BCFE14AC
BE0270BF
3C9F4A9B
BD9E30AB
3DBAF7A0
BD9E1D5F
3CA9ABEB
BD2B314D
3BAB5AD0
3CCC232B
BD23C562
3CC34BF1
3D081B6A
3D617B08
BD949859
3C9FE214
3D55782E
BC0887A4
BD6FF1B5
BDCE490D
BDAB3853
BDD8C850
BCC35B5C
BE0E9072
BD18F42E
3D227122
3D9D8FD4
BAD74C20
3D0C8B24
BCE45214
BC72B33A
BD4E09FD
BDDD9479
BAA9A0C9
3D84C60E
BD03A397
BCBFCC16
BCC96BE3
3C922720
BE135448
3D1C7556
3D06D832
BD93BD15
BCF0ED1C
BD006616
3D73D478
3CB51C7F
BD3E1307
BD950AAB
3CE64193
BDD1C113
3DF3C3E4
3C3E05F7
BDD885B4
3DB08C79
BD37BFB5
3D5328B6
BBDD9272
BD988CDA
BDA01B55
3DECA0CE
3A5EAE57
3DC4CC77
BDBF493D
3D628D56
3D419AC2
BE071247
3DB54518
BC41EE9F
3E39CE7D
BDD36BCF
3E36042F
3D9B876B
BE042ECC
BCBEC751
BD8B05CB
3CA8AABA
3D1013FB
BB12329D
3AFB770C
BDB683AB
3DF78922
3CCB2D00
3DD5BE2E
BD7472CD
BB5764C9
BD214AF7
BB85C350
BCF264E8
BD92F65D
BD82EB42
3CF911C1
3DAB2EAE
3D3A7F4A
BD12BA55
BE0CA082
BDBF61F5
BD797127
BD10D709
BDA4767F
3B162E57
BE0DB597
BD73FDB8
3D9245D0
BD672B4E
BDB34247
BDA39F64
3D8631B2
3DE0BEFE
3D2CCE0B
3D8FE09F
BDDA3E5A
3D735696
3DEA6CFE
BC6941BB
3DEB0610
3C3B65DF
3D2B361B
3DA0034D
3D6D9CF4
3C87A2B4
BD3D2C68
BE00AF89
BDAD3128
3D4A46EA
BE135B82
3D8B9C0C
3D31BC12
3D9F79A3
BD73CAA8
BCB773DF
3DC31C62
BCCB22C6
BCF6BCC4
BD27DC32
BDC6D576
3D5268B2
BD880DCE
BDD54530
3D7F44E3
BBE45B17
BE0BA9CD
3D710BF0
BD066331
3DB089A7
BD3AD4D2
3DB04C20
3DC08222
BDAF05D2
3D693B9C
3D0E4703
BE0D8332
3CAA3564
BDA36116
3D85E092
BCF356BC
BC0EA657
BDAE032E
3DE1686F
BDF6954C
3D97EC59
3CA8F337
BE045B0E
3CAD9869
3AEADF5C
3D209294
3D3C498C
BE0E397F
BDA4D938
BDAC03B2
3D18939B
BD277647
BDA96491
3D1E6E64
3AA0D686
3D389AE6
BDE2D597
3DB707EE
3D70194E
BD449CB2
3DF68552
BCE6E2EC
3D0A397D
3D272296
3C942F5C
3C02BA66
BDA3A37D
3DCBA386
BD2FBA8D
3DAB27BD
BE080FE8
3D4B905B
3D670B16
3D04E715
3C585E5B
BDF5F4B9
3DB691F2
BDC5FEF6
3C32A6F6
BDD07D21
BA3D9E00
BC1710A4
BB664FE8
3D949478
BDA0040C
BD5E9EBA
3D459D68
3CC0D984
3C45CC08
3D279562
BD8CE9CF
BD0691AB
BD8595E2
3E479341
BD5E4C91
3E05C106
3D5E2FF6
BD769013
3CC0DA36
3D23C482
BC91F3BE
3D38B3D6
3DFCEEBB
BD59D6F4
3D5DA60A
BDC0555F
BCB3BDE8
BDD77109
3DE4C46E
BDE4245C
BB82D513
BD84D948
3D775CB2
3E043A21
3D44D840
3DF53F56
B8EAA51F
BE01B3EB
3D7EC488
BE10425E
3D5E6776
3DAAEB04
BC92E669
BD508181
3CCB4816
3E3A1D53
3D061747
3E19102E
BD9BAC6D
BD91736B
3E375D7E
3D698367
3D7D6182
BE1DCB4D
3DC50171
BDACA114
3CB47C2C
3C0E8BD3
BCB28A35
3DEE572C
3DAA5826
3C86EBEE
3D7BD614
3D5E4080
BD13C3D8
BCFA2877
BDEC4F17
BDA0137E

