BF1ED682
BEE05F9A
3E414DA2
BE01423E
BE454251
BE97477C
3E0C031E
3DB9300E
BD2D9836
BDD329AA
3E23C05D
3C9EE07A
BF05760F
3CEC08B6
3E78CBE5
3D184772
BE0D8EF3
3F20E873
BF55E22C
3E41B705
3E9FDB12
BDF03C55
BD9D1B71
BDEA929F
BD080EAD
3EBFF5E3
BE0A313B
3DF99F1E
3F29AF85
BF10EBE4
BE271E80
BE981210
BDF2FF5E
3CF9D7EE
3F0FFF8C
3E99769D
BD2106BB
3DA71702
BE6A8AE8
3DB20A17
3E2F3A31
3F33CF08
3E92407F
BE0FF6FA
3EB4A530
BD1783EC
3D206A30
3EA0754C
BD0D2186
BE143506
3F3C2BD0
3F02E7AA
3F09EE52
BFB48A68
3DA6DA4E
BE3E3104
3E3EADB9
BED1B84F
BE04C054
3F06A02C
BEB79539
3E5EAA40
3E79A22F
3F2395E6
3EE6BF66
3F10F247
3EA44B25
3B47926F
3EA4143E
3F7D5FAC
3F0BA22C
3CC5C2BF
BDA221ED
3E8A8374
BC191DCA
3EC60599
3E53D042
3EA7413C
3F058EB3
3E25A9F2
3ECCDFC7
BCC715EF
3F471D40
3EA4259A
3F8372FB
3DF5C27A
3ED62B0C
3E2E10B2
3EF60445
3D9C9916
BE2291B7
3DBB8089
3EEEA4AE
BD468F9B
BE7E585C
3E8EE717
3F68FA36
3F91B285
BD8F31CE
BDD5BEBE
3F112B65
3D1F879B
3EB899F0
3CC184AE
3DBE6269
BEFEBD2C
3DABEA02
3EF48E20
3F2CD436
3E2E9DB0
3E19F4F9
3F11A70B
3E9EBF6B
3F4AA817
3F025AC6
BE375BB8
BF06C428
3F138394
3F3CEE19
3EC749CD
3EE417D5
BFCEA884
3F47183F
BCC97356
3F4EEF44
3E4D3F2C
3F4D707A
3F354594
BFB4B687
3E95D6D4
BF33825A
BF407D7A
BFBABF8C
3F06B1DF
3DC12B00
BF02678D
BD01DE61
BF89BE29
BF833DBD
3EC87A22
BF98028A
3E5CB757
BFEC47E5
BF9D70FE
3E8C822F
BE38DC6D
3E9280D2
BF6B7D03
B51AE0F0
BF706133
BF8E634D
BF97CF0C
BE08B643
BE8285ED
BE44F41D
BEAA3C2D
BF87CBF7
3DD631BC
3CEC9E79
3F4F3080
3F0395A6
BF0E4044
BE8631A8
BCACCB73
BE292F6D
BF4DEB2E
BF84A641
BF6E2B3B
BF5524E0
3DDAF2CE
BD667CBC
BF885D5B
BC9B3125
BF77A148
BE8F9AED
3DA3DE8C
3ECD107A
BE8DBB18
BFC9FB98
BEB5888A
BF0A3AC1
3F1973F6
BF3048CD
3F32BC05
BD6CD014
3C5813E2
3E0E4DE0
BF458B67
3EDC8384
BF8ADD81
3F3294DB
BAC83D3B
BE8772F6
3EEC819B
BE3352B7
3D8B6DA0
BD2A4A38
3F647FAE
BFBB6290
BE81C4D6
3D6B402E
3E80B44F
BB5B2D5C
BF5E79CF
3D1E8806
BF3202A0
3E28ECC9
3DAEB88D
3F3677DD
BFD2A98C
3F1BFB95
BCE2EEFA
BEE860E2
3C8F92B7
BD98A79C
BD3B3DCB
BFADFF25
3E203D68
BC46796B
BE90ACC4
3D9A8DC6
3EC84A52
3DE3AEB2
3F14891C
BF0D3504
BFB635FF
BF6E6918
3E96AD5C
BFED83EF
3D7EB823
BE178440
BE5863DC
3DDEDEFB
BF0E5148
BD87A90D
3DB9A398
BFFF06F6
BD252AAF
BE1BF1F4
BFA37DD0
BFC85EF2
BFD0E7F8
3ECE3793
3F187D0A
3F961096
3F1D2257
BF747AE6
3EB10FED
BF8156D6
3FB2F331
BF68C5A3
3E9E7661
3F633967
BDB0CA16
BF27DD66
BF9E8E5B
BEC13EE7
3F20C2BD
BD4FCC0F
BE204D14
BCB2BC29
3F484552
BFD0085C
39E9F0B2
BDFD03C2
BD72CD52
3DF9085E
BEEC91AB
BE3360D5
BF779FD1
BE932B55
BDEBF6C9
3F0A59A1
BFBF0346
3F3B9455
BD067FA7
BE9E6AFB
3E08C18A
3E348A5F
BDC5477C
BFCF2FDB
3DA6E98C
3E383428
BE0DE5EB
BD400629
3E9C9D11
3DAB3F66
3EE8D39A
BEDC1AAD
BFC9298F
BF3C275E
BF3820E4
BFEECC06
BD1417AE
3E423510
3E04F687
3D384ECC
BE9B4439
3E5B1312
3DE6D838
BFC818EF
BD89D979
BCFE26A7
BF879901
BF9F5455
BFF95A67
BD180DB2
BF93477E
C00D1F82
3F3DF71A
BF3A4CE0
3E5817E5
BF964215
3F8776B8
BF8E83B3
3D9B3DAD
3EE4564B
3E03A762
BF18AB62
BF749511
BEFC07C6
3F08E04F
BD3FB573
BCB60A12
BE119911
3EFBC5C9
BFB6D44E
3E3B7668
3E4F36F4
3D1C5D3B
3E0458E0
BF203B8D
BD261C41
BF0B1BE7
BE8EB7F9
3E11A05E
3EBC1633
BF8D1DD6
3E42A05E
BDA3B220
BE2AFC45
BE776B5B
BDC45687
3D900F38
BFAF01F0
BE2E879D
3DFA8EA6
3E845504
3E345A4F
3E2B553D
BDF40532
3E43211B
BF14D368
BFDB2DBA
BF4CDB97
BE112D09
BFA123A3
3C848C18
3BADA10C
BE0B2492
BE24F5D1
BE050BBD
3E27920E
BE5E84E1
BF579E01
3D161413
BD40CE3E
BF4B0CB3
BF9CF934
BF955F97
BDB65B45
BEC2CF2C
BEAE0DE3
3F46A782
BF685B0B
BE41CC04
BF528C7F
3F1E04A4
BEFFF960
3CE48987
3EF6DF20
3E0D9F12
BEB33A0A
BE4DADE3
BF94B5C3
BEE7929D
BE55E391
BE6D437E
3DDF7561
BEF0D9E1
BD9232F9
3EB01BB9
BEDA7B69
3E9A4EF9
BE24D1A0
BE07458B
3E1F261E
BE52F897
3ECFF644
3EBBDD6E
BEC56D42
3F3576C7
BF0819E2
3E35FFA7
BF200457
3D16AB16
3DD127CC
3E956B7B
BDBFEB2B
BCBF19DA
3D814A9D
3E52B44D
3F0CF07B
BE800944
BE04139F
BF23F9CE
BE3AFC42
BD120E5C
3ED8F4E9
3E07D23E
3E349022
3EED6FAD
3E543AC7
3E8804D9
BD03C299
3EF48063
BCC589CB
3D87160C
3ED7E8D6
3D85BDCA
3D3A385E
3CC88D91
3E1412EB
BD1B5803
BF15636D
3ED7EF19
3EDD89B4
BED9D0D3
BE2AC078
BD18B034
3B7C9AD1
BF7504F7
BEA27A27
3DED313A
BEB2AFB4
3C3D16A2
BE380E7E
3DEACA03
BF1DD756
BE496358
3F016A0E
3B82BB3D
3F1A802C
BF5B58BB
3D820C2F
3EEA266A
3CF31C6A
3F18182E
3C2DFD97
3DFD6AA9
3F3629BD
BE6B0FF5
3FA69976
3F141C2E
BF359CBC
3DCC8F34
3C9389AE
3ED54A90
BF94AFD2
3F146667
3F4DD8AA
3F235A59
3E1C1543
3EEBD230
3E2F9F8C
3F155178
3F916FBE
BE86DB91
BD5F3FE4
BF0D7329
BF957EC3
BF150648
3E89C5C2
3EAFD2D9
BCC9D197
3F5C56EB
3F063F4A
3F193852
3F367363
3F852B66
3F2F6C09
3F43883A
3E83BFC4
3F5C1334
3F176B68
BD9A1743
3EAD7553
3DCC3900
3E8606DC
3F1A4437
3E40F98F
BF2EB746
BE9619BC
BF5222CC
BD34D22D
3DFA1DFD
BF2964B8
3E98B641
BF220119
3EC00570
BEC41263
BF1826AC
BCEC4A93
3DF682CE
3DB88EEA
BD885BF9
3E916E51
3EEA868A
3E8A3366
BD697381
3D49DBAD
3E4107EE
3DACA6E0
3EE616BD
3E223733
3F0D4C97
C04FB7DF
3DAADC0E
3ED1659D
3EB49539
3EC90287
3E356D58
3E1E4402
3E596417
3E43F857
3C81416D
3EA04210
3DA7E489
BD696686
BDCE3A0E
BFB30734
BEB70EE7
BD4BF411
BCB5DB7C
3E97B1A6
3E9E14DB
BBDA4489
BE662D66
3E1FB2F3
3DCEB3D8
3DCAF6E1
BAD587BB
3E25097B
BF5BCE78
BDFCED51
3D496263
B8C4DFD0
3D53F443
3CD9B0CF
3ED37D59
3E3F57E2
3EC147F6
C0196BDA
BF11E60C
BE466B09
3E986B96
3EA09BAC
BDC22E27
3E95744A
3E880D29
3ED2DE54
3E60945F
3E0F9170
3ECB638F
3E8E4B0B
3F13EE5A
BE521DE5
3EA698F1
BFD205ED
BF944760
C013170C
3ECE4442
3DBBFB2E
BFBC7FA9
BFD8FD8C
C01D4220
C01324A2
3E8288B3
C00F409D
3DAD27E6
BF9C760B
C00557A3
3E5EE7E4
3DFEA696
3EC2C7B7
BFFE9142
3E0B6580
C003752A
C0008727
C00C6D2A
3BA071C5
BF8892B0
3E2B5485
BFBD6423
BFA7E6EF
3DC5CBFC
BDED6E56
3EB74C12
3EBE2081
3E9C0D63
3C1024CE
3D446D12
BC1DFD07
BFE2C11E
BFFE33E7
C00CE3F8
C0084A0F
BDD80607
BFB88AA9
C005BBA0
3E20CBEC
BFFEAA87
BFAF4321
3DB912B5
3E3282A6
BDB2B2E3
BF729613
BF0C537F
BF2C3FCE
3EF14711
BE1A8828
3EBFAC75
3D0CDB2D
3F191E82
3F26561B
BFC898CE
3E850FBC
BFF064B5
3EC9A463
3EA21AB8
3E896F36
3E881898
3E0494D7
BDBEFCE0
3E817A08
3F2EC2C2
3F253810
BD99EF98
3D5CEF58
3E6CBE31
3E881FF0
3ED50877
3E0F5E93
3E6B1DBA
3D692709
3E29C152
3EF27D43
3ECB41E1
3F0CBD11
BBED4F1C
3F1C8CBA
3DC6BB9A
3EA6597E
3DBBFDC7
3EDDAAB7
BD4BFC8C
BE0A1DB8
3D02C04F
BF185D47
BE0FD5A2
BD6CACC0
3DE41919
3F4FC987
3EF1C007
3D425DF0
BD957152
3EF0FD70
3C1E0EB8
BBCAF6AF
3E82774D
3E4E7176
BD26A3C4
BB2BC2FC
BCEE2E84
3E8D420B
3E13F130
3E03B2D6
3EB8DDB6
3D63FF9A
3F01C8C9
3E2C839C
3CE4B31C
3EE31FA3
3E66C7A4
3ED1D314
3EA14B9C
3E0297C9
BF235A3C
3EEFDB12
BE1BAEB4
3F2A2AC9
BE349C7A
3ED906E4
3F26FB3E
3EE39C79
3F079205
3E795DD5
BDDC0384
3E4B43CF
3F465431
BEFE17FA
BE68424F
BDA76345
BD152784
3E100AAF
BF00B2CA
3E97D7F2
3E473A45
3F0973E1
BDC96215
3F18B830
3E4E5B30
3F236CE9
BCFCDC04
BEE14402
3DEA9FD1
3E330331
3DC6BB00
BF657ED5
BD75C80C
BE362123
BDB9D745
3F2B9512
3E9D1FEB
BD0B73E0
3EA44B22
BDE2A773
BF568678
3E2DDF9A
BF1DE4E7
3CEE0378
3EA6799E
BDC61755
BDF11026
BDC0CFD1
3EFD5C53
BE1E39EF
3B1C237B
3E4B000E
BDB5838D
BE0B2AEE
BB0DFF3C
BE4E0A10
BF2B7164
3F0A6DC7
BF909B6C
BE8A1813
3F1F9953
BEC6E0A6
BCC75874
BB2A4A12
3F33C5AB
BED23455
BE513AEF
3EA26501
BECEEB68
3BF8BDAD
3EB5EA8F
BF649CF8
3EA35774
3E63B486
3D8F4479
3DC16A80
3EB470A7
3E947B3A
3D89B944
3F07A490
3EBEC49B
BEA4E9A1
3E3694A6
3F06B64A
3E049226
3E9DDA03
3EEC3832
3ECD8420
3EE1F973
3EDC8FED
3D4A8C1A
3F6A00BF
3E6C014C
3F166FA0
3F240C3F
3E809FF8
BE32A898
3E5FD2E8
3EC025F5
3E576EE5
3EC10FDB
3D7E4508
3F8EDA03
3F2BCFBA
3F4AF86D
3E440D82
BE4AF04F
3E94A4FA
BF130D51
3F092F84
3F1C9E06
3F04A409
BF35756D
3F1A0EB2
3F019F08
BD28C4A5
3EE23EE9
3EB31A0C
3E5F5369
3E6E0A38
3EA31C8D
3F0186ED
BFA9F6ED
BF65F805
3E3E9A99
3F26314F
3F6CD554
3C685A54
3F08A212
3E4ED018
BF27F22F
3F3F9C83
3E367B4B
3F215FBB
3F106C3E
BEEBCBB1
3EEDBDC2
3DA2B105
3D1987CF
3E2A05F6
3E31DB7A
3E7BACC5
3CFA3C15
3E0464AB
3DD14B71
3F024E31
3F1BD212
3E8C8FD5
3DF7CCEA
3F0FB058
3EB6F1C1
3E893292
3EA781F9
3ECCABB3
3E86614F
3ECB3DF4
3E4ED49C
3EB8DF26
3E85DF3A
3EF7961D
3DD68011
BE13592A
3E13C2EF
3AE617DA
BE9EDC5B
BD58E101
BEE34875
3E9C2DFE
3E428CB8
3E852E6F
BF19A5FB
3F09D67D
BEA82ABF
3EFB39AA
3EFE301F
3E4238A6
BEF18478
3EC83BF4
3DDAAFD6
3EA9EA75
3ECBC866
3EDEA954
BE052762
3F08CF3A
3F0D12B1
3E56D14A
BF99270B
BF13D522
BEC69AAD
3F00C947
BE8492D2
3E4F1AED
BDFA2819
3DC0C245
BFABB3E6
3DDF5388
3DBAE00B
3E93A5C6
3DB27E6C
3E49729F
BD706A81
BE83B73F
BE2758F9
BD9B78AB
BD2E20EC
3DBDDDA4
3E67C162
BED2B69C
BD98F40F
BC74F53C
3E360DD9
BD27F4C6
BED374B8
BC712878
3E0CAD65
3E5AE510
BE8128DC
BD8C1956
3E0CE0BB
3E38265C
BE605AC6
3D582659
3DDE0003
BE5D34C7
BD911000
BE07C634
3D86890A
BDE19286
BD13E16B
3DB4F0B6
BEAB55E4
3EA3EB6B
BE9638E1
BE6781D7
3E583E78
BC7076DC
3E3DF609
3DE506F8
3DEE0937
3E1FC5C3
BE2DE821
3CD36859
3CB14F16
BEACD38F
3E3BFAC9
BE26F1E6
BF0119D7
3BAA9E6F
BE24D5A2
BDE37B31
BDD02C4C
BEAB16AD
BD807CED
3A1BC8A8
BE11DB0D
BCA82F53
BF0D9989
3E2A64BD
BE878D86
BD990794
BE2E7AF6
3E2000FA
BEADAE5D
BF36C986
3F4315BC
BF8A28E7
BF83CC9F
BF86719E
3E8DEDAB
3F8EE6EF
BFC1B531
BF215505
BF88F65F
3D5CB42B
3F47417E
BF67A83A
3EF6B9B8
BFADE98F
BF832B83
3E8F6038
3F55BD42
3F7A3127
BFB2474F
3FB6F357
BF9CDA23
BF680068
BF3821AF
3F5DDBAA
BE12E62C
BE426684
BFA66B7C
BF02462B
BD82CA9A
3E2224A3
3E2176B7
3F58EE84
3FB1CD15
3F079D5C
BD84D8AE
3F54D69B
BF99C20C
BF63E733
BFA079BC
BF8E5BD3
BF8CBAFC
BFAC160E
BF3907CE
3F53B197
BFA843A8
BF9302D0
3F11A724
3F7194D5
3F213B7F
BFB45503
BF149B5C
BF2FF13F
3E8E9205
3FB4A51C
BE68BA6B
3F2C5271
3F8E4597
3DFFFC6E
BF3ABDB6
3E4F7157
BF806F97
3F1BDEE8
3EF8E154
BE893BCF
BE64DBCC
BEBD24E9
3D3ADA1D
BE95BF7D
BECAF808
3DE422C0
BE9AF020
3E8DB75C
BD8D519A
3D8B6AB3
3D3613C3
BDFFA053
3F0F66DD
BD309BE8
BEB941EE
BE25178E
3E0AD9F9
3E5BE116
BE9B19E6
3ED34AEC
BE8E1067
BE6BDEE5
BBD0B8D3
3D6E80FE
BE979887
BE86269F
BE0DE646
BEFF2604
BE1C72B7
3CDE4F27
BED7AEDB
3E4E1F5F
BD5484E6
3EBB706F
BE6B5B27
3E6E05B4
3DB599CE
BE2D664B
BDFA203E
BE6FA07A
3E7859A5
BEC6B4C0
BE5467F4
3D116DC8
BEBCC3E3
BE4E2C89
3D66A273
BD234B50
3E431279
3EC329EE
3E3F7716
3E6D9DE2
BEAA0F8F
3EF732DA
3EB74CE8
BD7CDFF3
3FBF7556
3ED06251
3E9D4F0E
BE4C31D8
BE62D1E7
3EFBC60C
3F52B4C6
BFAC324C
3F176A2A
BF9C9053
BF270170
BEE1CE70
3F29E6F5
3F16529F
BFA9D1D7
BF0374D4
BF54ABA7
C0186FF2
3F0F2097
BE8C1369
3FA7C1F6
BFA7854E
BF1BDE2E
3F307CC5
3EF71C64
3F1F7352
BF325CE5
3F812703
BFA065E0
BECCFC9F
BEF18D2F
3F07535F
3D4B3A66
BAD5FC3D
BFB52EE5
BE1879DB
3EF8C8BE
BE29FC05
3F87FA1F
3F67C856
BDB67EF8
3F0AA5D6
3C18A4DA
3EF33AE1
3E5F32BC
BF4C1B3A
BEDA278B
BED4CC85
BD1B0DE0
BF09E86F
BF4D0317
3E62FB0B
BEF2EF6D
BFB90680
3F62A324
3F301C2A
3F0171EB
BF23D678
3F1F171F
3F3BB38D
3EE6444E
3F57842E
3FA3C110
3F631601
3FC5A71D
3F63575E
3DCEA09F
3F4F745A
BF92C4B2
3F959776
3FCF0667
BF038370
BF2C5F7A
BDF9E52B
BEC472BC
BE67CD26
BEF2D36E
3EB59FA7
3DB50669
3D71CD40
3DD1FA7B
3E774B43
3EC82960
3D493183
BE445E9B
3ED73F04
3E3C85AD
BEE75CCC
3EB76BD8
BEFF7B63
BA66DBF1
BF850A11
BD4A3F03
BE7E106F
3C0F2735
3DC705F9
3E142F49
BDA999F2
3E9FBAFD
3D857527
3DFC67D9
3CFB8727
BF3C49AC
BF94E839
3E4D2EE9
3EA65980
BD84F2CF
3EC97505
3EC89FC7
3E32184B
3DB9EA78
BE872256
3E69F841
3D9C092E
BE213A0E
3E638356
BDC51F19
3E3AF160
3EE027D9
3DDCDC01
3C34C7C2
3F157219
BF057EB8
BF155F6D
BF0EA957
BEAB124A
BEA743E4
3E0AFB1B
BF5C0DCB
BDDAD8A9
3EB13CD7
BF063E08
BE160DB0
BF013093
3E1FE187
BF672A20
BEF71932
BEBCFD86
3CA14EF0
BFACD5AC
BCC384D9
3DA27AA0
BF562FD0
3E8DE4E2
BF8EBD46
3E4A3FCB
3E8EB25B
BFC325AC
3C7BC065
BFA998BD
BFB493EB
BD76531E
3D39307E
BE3A1F07
BF5F27F6
3E8F0CAC
BE90C4AE
BFD6C317
BFCEFD14
3D3F9363
BF439FED
3CDF8272
BF75F64F
BF842F4A
BE586262
BD434084
BE855E5E
BDDC638B
BE808380
BBF1BA64
BEC13FE6
3DC103B6
3BCA9895
BFB8EAFE
BFA7DFD2
BF72545C
3EF3D648
BF4C047E
BFB45FF1
BDBFBF67
BF8B44B4
BF999E6E
BB230D8F
BE3C4216
3CB9B50A
3E3AAF4C
3E20E833
3F447936
3C02BE47
BBE0BE46
BE0831DB
BEAF2324
3E42A73A
3D8CC370
3E52FEEA
BE6A6DFF
BE814593
3D2DA171
BEA4AF44
BD1B860D
3F2C35A1
3DD79A83
BDEE77C4
3E846543
3F1CEEBE
3F07F270
3E2A4604
BE761991
3DCE8F4A
3E50B322
3F4A15DB
3E8F8CC5
3E5CB254
3EBC2CC8
3E86115E
3F23717F
3E866983
3F628A9E
3E8ED228
3F677345
3E8593A8
3E8AB83C
3EAF0E6F
3EA93333
BD761D27
BDCCF546
3C335FE9
3EF75988
3E1C4583
BE8506BE
BE1324A1
3F01CF58
3F478DC5
3DD1055C
BE6813A8
3F18A77B
BD847ED5
3E181A29
3E83842F
3E96F0D3
BF6F5FBA
BD7C809D
3E8C7861
3F1F72BE
3E72CF35
3E35105F
3EAC9EB2
3E031F09
3F3DCEF8
3EA00706
BF82984D
BFC4389B
3EB3C382
3F004418
3EFA449E
3D813A9C
BFC179BE
3F01A059
3E021E87
3F2BB186
3DE07A7E
3F1EFB18
3ED09D61
3F23A827
3D9719D4
BB6210FB
BE64F80B
BE87D599
BDEB4CC9
3DBAA17A
BE3180F3
BE3C50C1
BEE7A32E
BE89934D
BDF58D24
BE2EDB72
3E847973
BF1DB8FE
BE06CD5E
3D33BE06
BED1850D
3DA5CD9A
BE8F6CC4
3F60C93D
BEAB7813
BC28E7C7
BE3D72E8
BE1D7FD7
3DD378FE
3DFF93E8
BD1ACFD7
3F198AB2
BE49A036
BE653503
3F5FA75B
3EA9D030
3E0332C2
BED7F637
BD1C2AAC
3DE900B8
3F661DBE
BE050329
BEADEE33
3C07FAF1
3F6B1665
BE1F543C
3EAC297C
BE72D137
BE014CB4
BBE541E1
3ED7704A
BD4BEF7D
BD8A0213
BFAAF235
3F771307
3F127A4B
BE137268
3F0C5FC9
3F6A8DCD
3E213AAF
BF2F4774
3EE28A88
3F3268F7
3EA07A70
3B818739
3F218390
3F27F8B8
BEF5FB1C
3E60A217
BD2AF601
BE1136E0
BD7EB98F
3EFB1D9D
BFE315B7
BE3552A6
BDB9D041
3C8567A9
BDCD5F4D
BF43515C
BEA42F0C
BE5390FC
BE360604
3D650AC8
3F20A36E
BFBB1570
3EC27E7A
3E2EF5E3
BEF993CB
BE16C654
BE38BB05
BD89E542
BFC22201
3F1FF80A
3D18686D
BD52441B
3DBE62E5
3D35A465
BE358AF7
3F1F106F
BF47F6FB
C0373D31
BF11095F
BF03A899
BFA6F47F
BE35700E
3DC814E1
BDE245F8
BE2288B9
BF050208
BDBC3425
BE8083A9
BF4D1C43
3DA12078
BE830FFE
BE434B53
BEA1C187
BFEF55F7
BCDEBB00
BEB5058D
BF0217CA
3F1CFC78
BF98F59D
3EE36F5B
BF324418
3F364604
BF74054F
3E982EC8
3F0157DB
3E4876A1
BF9B9152
BEEC8BAA
BF158880
3D6BB234
BE16DA29
BEE42F96
3E08DD7E
3D5D62BD
3E34FB4A
3E063F5B
BEEB9704
BD8DB798
3CA5F81A
3DE9338C
3E948B56
BD405EFB
BF48BFBB
BE3B2BC4
3DC715DB
3EB6DAA2
3CED9266
BE6E89E4
BEA1611D
BE924EA0
BE0CC39C
3E8B7CFE
3ECB1E8D
BDA9F859
BE4F0D81
3EBC8727
BF01B0E4
BEB3A1A4
BE280741
BECDB268
3DF0957A
3CF68116
3EBDFA13
3E1F274A
3EF7DBC9
BF520A7D
BCC2DBD6
BE25408F
3E2F5D68
BFEA9788
BDFE4AA7
3E252A0C
3EDBCD4A
3E389400
3E6F8D6F
3EB3A8BF
3E934415
3EFE59F2
BF167A23
BF0B8C8C
BED8BD94
BE53F200
3DC55724
BF29B8C3
3E84593E
BF07686C
BDD4C2A9
BF5DB2A2
BDABE0E7
BD19C41F
BE84F05B
3D46D44F
BF05F44F
BC862B11
3DA84D90
BEDC9ADE
BE9460C4
3E3BAA74
3E713013
BEFC9954
BEB50A7D
BE8D37D2
BE3DB497
3E933713
BDFF1542
BE7276F2
BDD6D8F7
BE8F2881
BD99E991
3C3AF912
3E98C37E
BE887243
BE67BCED
3E07916B
BED7A485
BEA1772A
3E84D340
3E180B5F
BE5C55B3
BE8F223F
BD980F55
BEB5C7AE
BC346A4F
BEACBFCF
BDA9E395
3E024C77
BD6F6432
BC45560A
3EA5E428
3D3857C2
BD2B2F26
BEA2143D
BE4EDD21
BE5C4B77
BEE63BDC
BDB6A378
BD32D868
BEEEDEF4
BF11E10A
BE3910FD
3DE32179
3E95FDD6
BE0CB17C
3CD96D6E
3EA7A6A0
3E2F7483
BE8C086A
BEFECF62
BE218F77
BE8366A1
BE6A0EB0
BD01228E
BD3A3ACF
BE81B900
BEAA154C
BEB2E0C8
BF5C8742
3EA73D42
BDD1398A
BE055287
BDCB8E7E
3ED7E214
BF57C472
BF0BD703
BE500F76
BEAB8FAD
3D8A9C13
BED997A7
BEBA3FEA
3E0683D2
BEBCEA50
3D113FDC
3E83910E
BF11FAFA
3E1D0DA7
BE6795DF
BF808534
BE27E3AC
BDF50B28
3C5F8EDA
BF43D898
BD938A5D
3DDE3FE1
BCF306B8
3DFCD2F3
3DB09A5C
BDE4E6F6
3EE9A0FE
BF86DE80
C0521233
BE8E25A9
3E3A35C6
BF108476
BE9371DE
BA065F20
BD529DE4
BD402EEE
BF67F4DE
BE868F91
BE759D26
BF230A64
3D28CE08
BEBE7020
BE9A77EB
BEF48723
BF5DF940
BE649D86
3F3E6588
3E3DDD8D
3ED55721
BFA88BDD
3F06D10B
BE4AA4D6
3F253681
BF0540D4
3D8C283E
3D1AA300
3D27E36F
BE31782C
3E2B7463
3E8C0A72
3ED178F5
BD0C3235
BDBA3E08
3E4FB4B7
3E98D97E
3EE907C5
BDA4C181
BD25D64F
BD4543C9
3DE634F2
3E983F51
3BD550FC
3EE9355F
3EAF2DDD
BD58E788
BD0910A7
3DA1ED01
3EF31CFD
BD973E86
3F0D00A5
BD6BAFF9
BDCCE02A
BE44E53C
BDA02FFC
BDBDB3A1
BD7BF066
BEB8A157
BECACFB7
BE003643
BC79931A
3E39FC14
3E1FB399
3EBA0610
3C9E8DE0
BDA2B6C7
3E8BB99A
BEAB6B90
BD9F813C
BE565617
3C0144FE
3E5EB2A2
BD31C2EF
BE31BCF3
3E2B5248
BD5BC09F
BD6A691C
3B9A283D
3EA9FACD
3EAB739D
3EB84E13
3E19DD0C
3EA6AD40
BE25912E
3EC65A32
3EE7E8B2
3E9076D8
BF92DD31
3E166257
BEBC3CA9
3EF2E9E8
BE1B171F
3EB4EB7C
3E9F3131
BF44D3C6
BE90EC95
BEFA46D9
3D67BEF6
BF77476C
3E09B002
3D9C9504
3F0DAA2A
3EF4E9FB
BF9ACE1C
BEA522AC
3D564D06
BF5E4846
3E8A9DB4
BFB2D464
BF400E53
BE7EB26D
BD63C3D8
BDFD05F5
BF584FF3
3E9C05BE
BF840E13
BF8129DE
BE7C8E67
3DEE6F00
BCA23C6E
BE6FF211
3F11E6ED
BF668DCC
3E396614
BDB88001
BD875392
3DC1460F
3F2E5F12
3C51A8C0
3DFC5865
BC45F88E
BF2C675C
BF8191A9
3E48F05C
3E868E94
3EB07687
3ECBE587
BF82EA5F
3D8D62D5
3E16C643
3F038E7D
3B923AF2
3D818B88
3DD1996E
C013380B
3E817668
3F170D6D
BE05DC81
BF0C657B
3EA75FCB
3E42CFD5
BE8DFC4F
3EE656AB
BEE8D0BB
BD41065F
BEE12236
3EA5A239
3E7CD1EB
BF667239
BE0E32C2
BF3DD808
BE87385F
BFD0F32D
BD96149A
3E3A2AB9
BFAEA133
3DF0BA68
BFBD9A20
BE37583F
3E8C4EAB
BFC9627E
BEEBDE52
BF51E99D
BFC701CB
BDC327D0
BE8EBF56
BE76FD87
BF9D1F70
BE91AF32
BF3795CB
BFEA00E0
BFE70325
3D512935
BE6F568C
BE85B86C
BFB32E0C
BF32C56E
BED7D6F3
BE798564
BEEDBE04
3E034DBE
3CC95F56
BD4D9DEB
BEE335A5
3D83A781
BE34CDB5
BFC04375
BFD82EEE
BF87D0C3
3DFDE1FB
BFA4E96B
BFACAAC0
BEA29A72
BF9F753D
BFB68C9A
BE763756
3DA9CAC3
BC621F01
3E8A05C3
3E962C7B
3F0D94C0
3E534A42
BD81A0FB
BF07F798
BE7D4AD7
3E998835
3E05A114
BD859926
3D532E0A
BF2C2410
BD881427
BE8035B0
3EA05A51
3E95EBC2
3E659AF9
BCA7AF96
BD25DB3D
3F62C866
3EA27377
3E9E4A04
BD80E241
3DA76ADF
3EAD30EE
3F10FD29
3D0ACC7A
3DCB3F58
3790F034
3EB00AA2
3F005733
3E78EC27
3F14A641
3E6BDFDE
3F60367C
3D6CA2B0
3E211A5D
3EDDC647
3F028399
3DE63ED6
BE323DAE
3E84E561
3C1DB4E4
BD6F4714
BE48F5EB
3EE5C5D2
3F3F8CBF
3EBB603B
BE195BB7
BD8D14E8
3EB48070
BD872D8D
3E2743A7
3EB58B6E
3E880311
BE5640E8
3E19356F
3E117BFD
3E531E84
3ED3BA2B
3EA5C3FB
3EB69A9A
3E830BAE
3E987291
3E4359AB
BF033665
BE2FF9FB
3EDBFC98
3E854265
3F1B5BCA
3ED6CC8E
BF49550D
3F6747B0
BDCCD79C
3F2EA40B
3E9C618C
3E9034DF
3F204D78
BF06B5CF
BE075A13
3CA075F7
BEB556E0
BE63F4F1
3C01FC29
BF345239
BEA260B9
BE29A3D4
BED80277
BCA5EF05
BF3100BB
BE385203
BF1AAD4D
3F04F491
BC3EFB2A
BC931AA2
BF2F9382
3D2FB2DF
BDEC29D6
BF32642B
BE38C6FE
BD986A33
BDE0044A
BEAF43E2
BE7D3CE3
3B8B417F
BDB0BA38
3F524543
3EA546E6
BDA25066
3EB33436
BF8F2431
BEC92DB0
BEAD8C03
BD2D7367
BEBAD0AA
BDA8F46A
BDD19339
BE4E327A
3E125537
3F2F65A3
3DCE1F8A
BDC64E11
BF7A5D48
BE0870CA
3CB03F34
BF829A89
BF79E7DB
BEF29B9A
3F1ABD5B
3F48B463
3F81B6B6
3E0C3EFC
BE80FEC1
BEE06339
BEC09EE6
3FA494E9
BFB978AC
3E836788
BE7D4528
BE19DA4A
BF4CDD8B
BF2C72F1
BF012741
3E474039
BF91F50F
BFB8B8E4
BFC322C1
3E759B0F
BD049B9D
BFD182F4
BFE7671C
BFC21F16
C00195B6
3E0BC44C
BFCF6A5C
3E0FF577
BDF297CC
BFFD1706
3D5C9E31
BEB2EA16
3E37ED1C
BFD9EA66
BE165C46
BFB27006
C002E50E
BFDC1484
3E122881
BF371AF5
BDD5490E
BFCBD3E6
BEC785B1
BDCA4C86
BD335291
BDCC5A06
3E7A4E4E
3E93F8ED
BEB7DB71
BF0DEBD2
3E0EFDBF
BE7D858D
BFDD0AC2
BFD7AABF
BFD6EFE5
3D6955E6
BFA36C07
BFDEBEEE
BE47B4A4
BFCC96FD
BFA4B01C
BE64F5CD
BD853ED5
BD8BBA87
BF772B13
3F02B57B
3EDA7ACB
3E25A7C4
BDC919E4
BDD85718
BDFE94AE
3D57166C
BD80242E
BEA16D59
3E56C731
BFC6E766
BE1631DB
BE03602D
BE888EC9
BE59EDEA
BD738099
BDBA9712
3E224824
3D2EBE42
BC084BC3
3E325D3C
3DB39329
BD9F1E68
3E725D1C
3E260A04
BDC63E35
3E9E5472
C00769E5
BE803C66
BBE26FEF
BE78AB3C
BC9E50AB
BE7BC570
BE00F9C8
3E4FC13E
BF0B4DB3
BF032D6A
3E6DFD2D
3E53F840
3DC2E09F
BE41E1D7
BF6D8206
BF092777
3C3A348A
3EB9C43C
BD25AEF2
3E830C52
3F079E01
BE14A605
BD315E36
3E4372B4
BF05424B
BE929691
BE61E3F3
BF1868AE
3C2162BB
BE965A78
3E846FA9
BDE3B90B
BEB00BBC
3EEAA916
BBB522C5
3D7DCC8A
BF49118C
BCA1BDF6
3E8F1D64
3E4A0B2F
3E5AB436
3F032E27
3EAB3889
BF104153
3DB42A2E
3E7D3EAB
BE84511B
3E05B3E9
3ECC472C
BEB09323
BEDDC127
3EB6B23C
3E0F9D93
BE14EF07
3D8D30F9
3E4A7DE2
BF05FBE2
3E10DBD7
3E360C3B
BD9B6CEE
BE889F63
BF024EF6
BAD7D9F4
BE4043C5
BFB106EC
3E34A68F
3DF449E1
BE3070C6
3E8A6713
BD8F0E14
BE7ACA37
BE093FEE
BE241F8C
3CEFEBF8
BF3EC360
BE875F39
BE5D046B
3D44881C
BEAC9D79
BD034237
3CE8357E
3EF7FA08
BEBBDF8E
BEEC0BDB
BE838A5F
BED81896
BE4644EC
BE28B08E
BD84A09B
BD9E72EE
3C3F154F
3D8B447B
BE3D805A
3E34371A
BD5ED870
3C678789
3D9E5A06
BD5A3E90
BEC3D7FD
BE7B1BD2
BFB4FAF1
3EAB4509
3F0B6C70
3E944BF0
BF177979
3CA8D06F
3D4D332A
3EC31AE5
BEC83F70
BE316542
3EEDE2A8
3DE38147
BF1E8A41
3E30D2D9
BEB4A1B8
3E9298E5
BDD51B78
BC86788C
BD648A74
BE14A748
BF3D300F
3E3BBFFC
3E79F22F
BE90AC6A
BC1A5AEF
BEC5522F
BE68EB09
BF060883
3F4D7AF8
3E104518
BCA403B4
BEC7D24E
3E9A2340
3D216F7A
BF8726F1
3AE1B924
BD0CCF52
3D2ADFFD
BF147968
BD9A191D
BE5956CB
3E19A2C6
3E12EC4B
BEF7ED66
BE4C34B1
3EDB9E75
BF8C5DD0
BE2F3D02
BEBAC698
3B27F59E
BEA588D2
BDF6182F
3E12A95A
3E0BAB05
3D46DB67
3F4E132D
3DFC2F60
BE2E3D2B
BE75C1E7
3DC83AA9
3E6DB96D
BF3F7D2A
BF5FB698
BEC2F112
3F11627F
BDB896DF
3F3F0026
3D373202
BEE81B33
BD50A5C1
BF175434
3F00D2E8
BF7969CC
BEBFBC6B
3E261A1E
BEC7A353
BF1C0497
BF0071CE
3F2D1C06
3D88FF1C
C0BD6A14
C030000C
C0BB2C0F
3EEB86C1
3E3F2FF6
C09E8F80
C08C753C
C0C9744B
C0C221E3
3EBF6FAB
C0BAF7DB
3E0E0C0F
BFCC0363
C0C99C26
3ECBEC86
3ED82027
3EA23824
C0C1C583
3EA7E6F3
C0AE4B5B
C0CB045F
C0CC3149
BDFE09C9
C00DEB0A
BE850F55
C097CB01
BF9BDBD2
3E518A5A
3BB85E59
3E56F998
3E2A3B1B
BD79E182
3EA303C1
BE9895D3
3BA8A953
C09D0E5A
C0C9C22F
C0BE198D
C0B19EE9
BF32C691
C08F48FA
C0C7B802
3E55F9D7
C0C6AC3D
C0A59AF0
3E3A9076
BD3BFB6A
3D536D93
C04DD8B6
3ECA66DF
3E6C9923
3E16015F
3E061E2E
3E82DED3
3E63F34E
3E1A6167
3E8605D1
C086F3ED
3ECA5E83
C0B8C2FF
3E2597CD
3EBB3C2E
3EEC5896
BDF6C491
BEC323CF
3C51815D
BF4D0107
BE9FF4E7
3ED60278
3F0C51A5
3EF26842
BF42F24A
BEFC3A81
3DD5FA31
BF420F91
3EF9B045
BFAB617E
BF43849C
BDCB6BF1
3F14AFE6
BEDA52A1
BE8E8164
3F9CCADF
BF1AED08
BF1EC66E
BEF37C97
3EDD6D34
BE8B9ABC
3D0F0003
3F1AD86A
3DBB85F4
BE941D1F
3D8930BE
3E01DBB4
3F27ACE9
3F206677
3E26012C
3E5C951A
3F20CD16
BF039DE3
BF12E790
BEE65CA6
BD040E44
3E4A8880
3ED813F4
BF2BE12E
3F156080
BF282C01
3F00A353
3F372DA7
3E17DC67
3F03EB3D
3EEEE867
3ED6BB00
3DDD66E0
BE862AEF
3F66CADC
3E87D404
3EB6BA70
3D23CFA4
3F2FB5EC
BF17A129
BE2C8792
BED211FF
3EF1CB60
3F40535E
BEB593E5
BCAA9114
3DD0A849
3BB7D2BF
BDE09EAE
BF20D7BA
3B65FFA4
BD1796BE
3E021A94
BBA2FEE5
BDFB66C8
3E397591
3E024434
BE642052
3E9F98B8
3C83AC83
BECE959C
3E487A64
BE4BAE94
3D834F00
BF3690CE
BDAF5883
3E6B9D21
BE9082A8
3C581EF8
BD263C52
3C39B4B5
BC68E1A4
BECC5118
3E088CAF
BE7C536E
BF378C7F
BFB525E5
BF13481E
3F108700
BEBC6447
3E8D3587
3E202CFE
BCBE393C
BE17A561
BDA06880
3E495903
BDDF6496
3D9FB0EB
3E5F7222
BE0A9955
BE87B0EE
BE93737C
3D440CAA
3D31A70A
BE75E833
BC82DF2C
3CD7FBB1
BF024F92
BE321829
BCC22BEE
3D060776
BF34169C
BF833862
BDA9FC4D
BE85D418
BE16DF68
BF0B3053
BF2278B2
BE51BD93
3F12DB2B
BCBAD9A9
BD99AA95
3E8574BA
3F205726
BE47567C
BE2EC6E0
3E89AE61
3E447D10
BC417F56
BE6C1E68
3EA82A94
BE18CE6C
3F151490
BDF0ED28
3EA39A9A
3E04AA06
3ED04B80
BE2F600D
3E8E8847
3E0110E5
BE2D9D34
BC8C2D6B
3E2981D6
3E7720B0
BE920A1B
BDB0F4D9
3EDB237A
BE2CFF7D
3D447958
3EA2C823
BC12C715
3E88477C
BE010B06
BE3B7148
3E103303
BE44FAD8
BE6CB4EA
BCE3B893
BCAFE813
BF50C280
BE604C51
BE025F34
3E19265F
3B0FA2B3
BE02C0E6
BE8D4B3B
BD8CF072
3DC5BF07
3F28CF74
BF3E43C8
BF3FAB86
BE94D9D8
BDCFA376
BE7C04B3
BE186184
BF67EBE9
BE1C153B
BE9C8DCD
3ED90E19
3EB17595
3E5CC59F
BDBF5326
3E9EF40B
3EC33E98
3E0571F3
BD087DCC
3EE259EC
3EFAB64B
3F02F0BE
39C572E8
3E94CC2C
3E97350A
3E7B9309
3F209551
3EE959CF
3F44C17B
3EFB8C8B
3E190F41
3EE5B943
3F183D4B
3F5ADB8E
3E499486
3F91A24F
3EE55816
3E5DED7E
3DC32153
3F03660E
3D776376
3E25C185
3E3F9C18
3E6F8C34
3E0E64DD
3C8D20B0
3E8C8CD8
3F5294AF
3F3F96B7
3EA42CD7
3E2019BF
3F2364D5
3E5F7A18
3E5248AF
3D345D90
BC30D58F
BF67128C
3D3909B3
3E837251
3F703A07
3E35442B
3E115EC1
3F47B83A
3F192053
3EE4ED86
3D1539DC
C0298498
C00F2F27
BCDB3A85
3F5537E7
3F21645E
3F49E3D8
BF120AB5
3F46475C
3EC0E4E1
3F4F672A
3EAD29C2
3F6E33A1
3F31F943
BE8A23B8
3ECD24D4
BC1D6818
BE877F02
BC0F6726
3E8336B1
3E493C91
BEAF997D
BE591659
BD6920AB
BE0308A2
3E98E9DA
3DD8534E
BDEB8DCE
3EFB2F26
3D34618C
3C5CF7B1
3F2ADE25
3F1A7337
BDE17AAB
BDF3454F
BDDCAFD8
BE34BA13
3D606843
3E3D916A
BE793716
BE6781A8
BE6C7421
BC4CCA52
BDBDB215
3D493211
3E7ED103
BF221F08
BF2C2095
3F53841D
BC97E5B1
3EA19B27
3F093693
BDA2599D
BD5C20C9
3E44A9BA
3F7D5207
BE09DD21
BD52FE68
3EF08CBE
BDC20702
BE4474EA
3DB5998D
3E5476F1
3E65B0B3
BEB350FB
3E530C4E
3EC6F11E
BEDA2843
3E485220
BE3C350A
3EC43D35
3E506393
BEF9D02D
3F033EA1
BE174972
BA429CA0
BE6369B3
3EB91730
BEC6EC64
BEE501CA
3DE38C8E
3ED27DE2
3F0461DB
BE891BBD
BE83586C
3F7D3791
3F118476
3F02910D
3E8F912E
BE8FABE6
3ECE52B4
BEEEB626
3F3C7246
3F117C69
BE87B912
BEA99D68
BEAA58EC
3EFA7CD0
BF98803C
3EFE926A
3F0088B1
3F012A77
BEE0DAC5
3E8B7E8E
BCEDDF50
3F564F5C
3F3827BD
BB694C00
BE3E4A06
BEDBFCAE
BEF27001
BEF30252
BE9E5F07
BC7A1EA1
BEDC7C47
3F53CBD6
3F1D2BA1
3F0EA799
3F09DF55
3F2D131C
3F72A6C8
3F33F106
BF01E3FE
3EB1B086
3F405466
BED384F3
BF0A79F5
BEA35457
3EF82FE8
3F007A83
3F496295
BDABBE2F
BF357FD2
BF431E60
BF16E4A3
BE92A318
BEBC7931
3F6FED81
BE715421
3E8CA992
BD8C35C0
BF4C5D2B
3D12BD38
3E634616
3F0DC9A0
3EC91850
3ED888B3
BE95629A
3E1B6558
3EA87870
3F01C6CB
3F1F8478
3EAA94EA
BE122F02
3ECBCCD6
BE763AC2
3F7C34A2
3F3634C1
BE09C62C
3ED78272
3DA874F1
3F33CD45
BDC31670
3E293FF2
3F1FF02B
3F5FEFEE
3DE6DE85
3E8E3960
BC9DCB6E
3E72C3F4
3F5DE92D
3E84621B
3DBC84B2
BF763A6A
BC0A0A77
BB3E7CA3
3ED34239
3E69823C
BD429B4E
3F251EED
3F04C5CF
3F2263A7
3EA5C4CE
3EAA9146
3EA51CDA
3F2483F2
3E38EC23
3F3B1509
3EA7F8E7
BED9310C
3D914080
BE03E732
3F05056A
BE8BC15C
3F06066E
BE97F96C
BD23E38C
BF32923D
BDB0825A
3E33A28E
BC9BA3A3
3F632074
3D8088B4
3F003082
BE1F216B
BE0D4FFF
3EB691F0
3E88A8E8
3E1B8B67
BE7051C8
3D778D96
BE073750
3EB652E5
BE709662
BEB46257
BCC9A5EF
BE49C113
3E3F218A
3E836AC5
3F22744E
3E961D16
BCC0A564
3EB24383
3EAC8DAD
3EBD2A30
3D91DCB6
3F83C71B
3E595685
3E3459C3
3D9E06BB
BB7CDBAC
BE66FC5B
BC33452D
BCF5880A
3F485105
BF0FC808
3D20D3DE
BC36AEDF
3EDE6855
3EA1B0FE
3E3B925F
BE0FA84C
3F150209
3ED0377F
3E2A1B33
3E8A26FB
3E6A08B9
BD9421CA
3DE40F01
3E12C15B
3ED20878
3E695A41
BDE61159
3F3DBF5D
3E26B610
3E3AB323
3E7EEDD1
3F24B1CC
3F4B0F5E
BF1275EA
3F088EFA
3F0632D8
3EE42F20
BEEED366
3F1720F8
3E34333E
3E555C5B
3E44768E
3F23465E
3F525DE7
BF1909A1
3ED52048
3E231E19
3E371FC0
3EF27347
3E2D9A5F
3CDB92D6
3E941238
3E8F253B
3EC32D90
3EE9F846
BE805BD9
3E9020C9
BEACB184
40010513
3EE6F3F3
3EB41614
BD769327
3E9458E1
3F1F8094
BF5E8B1A
3E7E9418
3ED4B891
3ED84D49
3D790C89
3E05635F
3E346F6B
3EDEBE67
3FB750C4
BE48B54E
BE452342
BE96D230
3E97D07A
BF358820
3E203690
BEB86E40
3DA05CE7
3F2CC759
3F2B59B5
3E60C47C
3EA17584
3ECA1221
3E2F90C1
3E8D6940
BDE64C9A
3ECB3D33
3F078787
BEB6A83C
BE148B6F
3D700D51
BF58C947
3F909D1F
3F6C0371
3F2C94F1
BF4CCC38
BF5A6610
3E017AD7
3F26D313
3E5B6E5D
3F431900
3E41601F
3E8BAEFB
BEA11C58
BCE48916
BF8C6C6F
3EC522F8
3C6A1CC9
BE877725
BE911F3B
3DFD3E9C
BD497F65
BEC1E0A3
BE229232
BE8A0895
BDC77858
BE386A08
BED94F71
BE903EE5
3E186031
BE0D3104
3E31EE67
BDDFA07B
3E98ECC4
BE035FDB
BF5741CF
BDD1843E
BE03CAA0
3CA63A1D
3DD7A59F
BE75A594
3CA57143
BEA06B80
3DE3BDC3
3E62F9DA
BE51C5B1
3E00F385
BF6E33BF
BE575B39
3BBD7F6E
3E393044
3D9EA8F8
BD105AE0
BD160112
BCA6C49F
BEAF05E2
3F36E38D
3C84C3B8
3D870EB3
BEC84145
BE063A4C
BEA3D155
BE4BC7B6
BEE1C9D4
B9B2F0E1
BE52DB8A
3E50C0C1
BE158A38
3E3880DF
BF58D76B
3E967998
BED88A49
BE12CC39
BF8BEE54
3DA87D76
3E09B8F5
BDC2070C
BE2E2F34
BEA47330
3E95B07F
BEB418FC
3CBE85D3
3DB31C3B
BC576BC1
3D860E7E
3F2147FF
3E99A87C
3E046074
BB8B392B
BE5CC31D
3F45D50F
3B9C1E15
3E7ADD5B
3DD1A86C
3DC0D9CA
3DF9A534
3ED4D3F6
BE8128EB
3D8A4291
3EC637FB
3CA174E8
3E71E48A
BD1E95DB
3F140F7B
BD827780
BE81D22D
3DE29F7C
BEC7D23E
3D10B359
BC85989F
3E25D9F4
3E897A6A
3F67D21C
3EE07C20
3E2F251C
3F158CEC
BF102C3A
3E3FF263
BD14C1F6
BD52B2EC
BF2030F8
3E319422
3DC61218
3E8D4484
3E23839F
3E79C0FF
3EADB3C0
3EF831FD
3EE6435A
3E4ADE80
BF074499
BF53A399
BF69A7E8
3EA96F43
BD770721
3E97DD0F
BF58FAB9
3E6F8B67
BF148E5A
BD6582BE
BD41A76B
3E019550
3EFD612F
BEF09652
BE880DDA
3E908D8F
3E5CE65D
BE4A22DD
BF0FA574
3E392AF0
3F201ED4
3F1EBC9E
3E504ECC
BD40832A
3E6F6670
BE3FE9F1
3DF53D03
3ECE3320
3C631CBD
BE9327BC
BF04E7B3
BE824725
3F020E57
3E0CB41A
3E46BA99
3DE36BE8
3EF2A118
3DEC4B3D
BE821511
3D5B3085
3F08A2B9
3F483568
BF2BCDFE
BDD1C7A9
3E3C3CF1
3F34DE89
3E339FE5
BF6483CA
3E5F3479
BEB2F09D
BE03527E
3E1BA520
3ED10F65
3EB751B5
3E468CFF
3E612A59
3E14A064
BE846559
3DD6333C
3F0EA7F3
3D9F4070
BDA43298
BE89842A
3F6B179A
3E82DFAC
3EBF6817
BE7E9C9C
3F5788A9
BE675693
BE86F381
BE961A14
3E1F2DE3
BE27456E
BEB471BD
3E1613F6
3EDC41D4
BE955313
3DC471D2
3E9BC326
3C3FFEBE
BE1ACDAA
3EBA8B95
3EBD9A71
3D851D5A
3DF0D3D4
BECFA9A7
395E8718
BE223EAA
BDF79D9F
3EAFD295
BE6DA16C
3E9EFD59
3C4E6376
3E7C3F82
3D992F98
3F3FDF64
3CD72574
3E679BF2
3E9D0A2C
BDBB0F4F
3DD09DE1
BD9EE501
BE224EE2
BE709CCE
3D8E32D4
3F1193D8
BD039BCB
BE0A4534
3D9CE4AD
BD2C6621
3DC4DCE3
BE42ED2D
BE25BE35
BDA35EF8
BD74988B
BE46863C
3E0CD845
BEAC92EF
BF697AF4
3D4E3845
BDC332A0
BC37417C
BDC24C8D
3E567C4A
BE830371
BC0C5705
BD769433
BD091FF0
BF3C163A
BF39DDDA
BE873E7C
BEF8B749
3C23EE03
BCD30FBD
BF4CF166
BCF5D797
3E637503
3F08EA60
3E3C5ECD
3E0E86AE
BDE88B90
BF131B39
3E8C178E
BDCC0636
BECCD5ED
BDA4A180
3ECBF3BC
BFB9273B
BDF2910D
BD55CED1
BEAFD225
BDAA056C
BF89EB87
BE299434
BFB27E1D
3E345241
BEAD209A
3E4996E0
BFDA7FFF
3E7E6CAC
BE11EC2A
BF690A73
3CDA05A0
BE2D709F
BE9D95A6
BF93A5B4
3E81DE8F
BE628F1C
BCE95087
3EF7031D
3EBB09BB
3D81BAA8
3E2633D6
BF7473AF
BFA931F7
BFB0D7B7
BD90E1FD
BFC109BA
BD05B2C2
BE75EF18
BE977016
BE821362
BBAA8B23
BEABB6E2
3D481FB9
BFB337DE
BED2EC57
BD95AC14
BFA97D1F
BFC50E97
BFB35535
3F00EF79
3FA486CD
3FBABB34
3ED0F459
BF2E2705
BEA8FD14
BFB10A30
3F84827C
BFD20BB4
BD7DD9A4
3E9451F7
BD387F69
BF9F4599
C01AE87E
BEF93A27
3F707F95
BD0052F7
BEC5F540
396C093C
3EDC983A
BDAC60E9
BE2D2FDD
BEC22559
BD73BCF6
BE49E5F8
3D0B1649
3DC9113E
BF0B3ED4
3EC29634
BD56CD62
3F2B7B5C
3D98E2FD
3F5C6062
BDC512C2
BF15EC89
BE6502EE
BBC775AE
BD6B78F8
3DB830BC
3C098A25
3E03F03E
BEC486CA
3E126FFE
3E5AA2DA
BE09AC39
3D20CB6E
BF8DDDD0
BF243ED9
BDD745F7
3E10F743
BDC7B16F
3E47511E
3E0D8A35
BE3E16E7
3D6B6B18
3F21F9CF
BCABC654
BD9F2480
BE365588
BE56DDE5
BE8A25D4
BDD41B3D
BE4B800E
BE3B2B6B
3E09B579
3DDD87E5
BF1B394C
3F1C788F
BF4D91BF
3E2FF9FA
BE26D290
3F30C3FD
BFB43CCB
3E6B8627
3F2521D7
BE9E287B
BEBAD016
BF7C3738
BE45C35A
3E9B4C2E
3B2747BC
3D83648C
BE4DE73B
3E8AC884
BF3CE61C
3E943191
3E06DDBB
BE8E02E3
BD4CCB62
BF9381E9
BD8401FE
BF06D76D
3C258F75
BEB04905
3F510596
BF5E21A1
3F1AC4F4
3DD51240
BF362C98
BE493391
BE16C48A
BDB6604D
BF6550F7
3DE283C0
BE006DF0
3DD4212F
3E6CA34D
3EB07E09
3C4A1B60
3F5110F1
BFC043A5
BE39C751
BF18AF2E
3A528284
BF2098B0
3B2E256A
BE664536
3DE012EC
3E49B7F5
3DDE2C09
3E0B08D4
BE3C6B3A
BF486F58
3D85105E
BE154BAC
BF661DC7
BF78571A
BF76E02B
3EBF552C
3F2532B7
3F20C211
3F5AC4EC
BF4B6432
3B6E2237
BF8AD263
3FB7B511
BF670D5D
BEBCBFDA
3F33A315
BE2793A8
BF6F9488
BEB919DA
3F327C49
BD0FD927
BF0801F9
3D81E77D
3ECD31F6
BE61C381
3F05AA03
BF190FF9
BEE33AA4
3E145D76
BE9CA078
3EADAE11
3EB9C949
3F3D8735
C04FAA64
BF359573
BD0F7F7F
3EE224B8
3D32ABF8
BEF0AD4A
3F1DF906
3EB6E439
BF5CFBDE
BF363128
3F14F61D
BD8747F6
BD91CA5A
BF283A46
BEF00A78
3CAE67ED
BE0B9497
3E82075F
BEEE1CDA
3EC85D74
3F1D5D1B
BEB3A86C
3E1EF93F
3D25A199
BF267CBC
BF2E3240
BF4B1809
BFD82604
BF13866F
BE9FBBE9
3F169C36
BED189D3
BF32092C
3F141A82
3DA6D3FC
3E980F4D
BFF0FF38
BF842347
BF4EEEA6
BEC7C0AD
3E1AD755
3E986201
3E8E738D
3F0B36D2
3EF5B17B
3DB46484
BEAE1A55
BD097A95
3F066D0E
3F57DC66
BE606DCE
3EA5D93B
BEC4E5F1
BF171FD4
BEC98074
3E67F8F9
3D84F9C4
3C4255E7
BF504125
BE07F4E1
BEB1A626
3EC46CFD
BCB6A799
3ED930F1
BF37BF45
3CABCD05
3E193487
BE35F21F
3E82E36B
3D8013B2
BEA79C58
BE9264E2
3DA095C0
3E55A7B4
3EA8E688
3D0202EC
BE37DBAD
BE22A2CC
BC74CAA3
3E379E0A
BB8E4066
3EDEC846
3E6F96C7
3E928CF4
BF009831
BEB8D011
3E9C9931
3EBF991C
3E3F93E4
BD78735D
3E10C3FC
3F105CB7
3E0AE19D
3D311AA9
BDDC4287
3E2137D1
BEAD7B5F
BD4A065C
3E07A379
3F0077BA
BFB7F0B1
3F27721D
3F54A0E3
BDB8A9E2
3EA13D22
3E14A690
BCAA0DEC
3EF7F66D
3E43739A
3E2F47F0
3E0338B5
BE4134B7
BC8C8B88
BF17E2CC
3E7B6006
BE07D9FC
3D869BFB
BDDA72E8
3DCF5407
BE1F2BC7
3EACB8C1
BF0D1B80
3DABB25C
3E864A77
3D15E475
BD5E54B1
3E940CC1
3F8542D2
C0348606
BE2FF8A4
BD80327C
3EE34F76
BE40C3D9
BD6843C0
3D9345BA
3EA75FDE
BD7B52DB
BD1193E3
3F119212
3B9F506D
3DBD8C62
BEB4C491
BFA17713
3F550503
BE9A3A93
3EA20C0D
BEDB9E8B
3D96A3DF
3F00D359
BEEF2A64
3E8DF6AC
3E8987DA
BEE32409
BE288CA7
BDBFB1CD
BF610B3E
BE3F28D4
BE22B550
3E240D01
3E199C85
BF0776CF
3F7C74CD
3E0F8148
3D8ACF9D
C0151CBC
BE89EDA1
BF0CF67C
BE61FB31
BCED06A1
3F604BF3
3EE9B516
3FB49E0C
3DB4A22E
3E433F08
BE5262FB
3DC5BD62
3F1C0878
3F38EC36
BF775730
3DA34D2A
BEBFCC39
3D36D09F
BFCE34A2
3D97F772
BD35E72A
BF9812B7
3E75019E
BF9E8166
3E8B4C93
3E58CEC1
BFB15D0C
3D80456C
BF98F7AA
BFC26490
3E14E067
3E46F894
BC04A337
BF873497
3E27CA5E
BF349C8E
BFCB13C9
BF90FCD7
3D8B4674
BED338EB
3E481B23
BFB50DE9
BF55D836
BE391353
BE830465
BE72B27F
3E8AD55B
BDFCB496
BA931150
BEA4C813
3D601189
BFAD9C73
BF9E0CAE
BF858554
BF7A1D36
BF9B0810
BF592A42
BF8F9A80
3E0FDB6B
BF901850
BF9AFC24
3E83D715
3B298801
3CD4ACAB
3EC3784B
BEDBF8FF
3E0CD0D1
3DAB89A2
BE6EC9FA
3B8D959D
BD8FB48C
BE384286
BE174D04
BFC6743C
3D9840F7
BEE80E29
3D99F83C
3DD01633
BF0049AB
3F1DB869
BE84B86B
3E2F6B40
3D1E8F8B
3E86F31C
3E8C7FF4
3A9A4BC4
3EB87BB8
3E499684
3F14C459
3C527925
BD079A5A
3EE6B968
3E749482
BC226C57
3EFC5FC4
3F0FCE85
3EF726B0
3DD047C4
BE6F29D3
3DD2A57D
3E089417
BDC25746
3F005476
3D113647
BE551E31
BE0948EA
3B7163DA
BF1D08AA
BE4709A0
BD65099F
3ED0A297
3DC89535
3ED115DD
BE7C1995
3EB0B6F5
BDA0846A
3DFF9006
BE18E5B7
3D83369B
BF458FCC
BD82873E
3E38863F
3EB69E21
3DAAE21D
BE889260
BDD319DE
3E10A340
3E4DD075
3E621B32
BF759899
BCF2C78D
3EE7556E
3EF535A6
BE08CA02
3E38A66B
3F96533F
BCE495D7
3E640497
3EAC9B87
3F0B607B
3EFDFD62
3F05F9CC
BFC7558B
3E04AEF5
3E883AC4
BEB22AF0
3EBF6ED2
BE5A8676
3ED5BB22
3D8305C4
BEB3C150
BE5131E7
BFBBBAB2
3EB249BA
3E6D2664
3E43D5B5
BF8370C0
3F0B5C7A
BF0BF9CB
3EF14BE0
3E44CD66
3C41B250
3F1CBD1B
BE801F49
3E666BF2
3D7CC737
3F248E5C
3EB3C313
BE25B5FE
BD2B074B
3DC2304C
BE0EF824
BE451F7D
BE9BE7FF
3DB9908A
BE8BB2CA
3E9BD61A
3C71734D
3F1302BB
BECE1D0C
3F108E8B
3D6319D5
3D6F090B
BED3BED9
3E6927B1
3E14A690
3ED18CA3
3E81587E
3E5BC400
3E9D811B
3E4FE29E
3F0FA6CB
BF04C35D
BEB706AB
BF31BC5E
BE95CD39
3EA27CA6
3E848C75
3ED38E20
3EBB9B8F
3E58CBF8
BD9C9A10
BE153AB9
BC5ACD67
3EBBD9FA
3EC12F7E
BF36F94D
BBAB3D55
3CBE2882
BEDA78BA
3DB45021
BD28FA5F
BED63733
BF30DD22
BF2EE5D3
BE12CDB5
BEAC9A9B
BEFF1D87
BE10E766
3E029673
3E99B090
BEC0E8BB
3E3E4B5E
BEBF9BD9
3E278636
BDC7C48F
BF5825AB
3E4A9AA1
BED8888C
BEF1EAC4
BEDC242F
BC86585F
BE624A3A
BEC6E9ED
3EFCED8D
3E1316D8
3DDF2134
BDA67F10
BF47A2FA
BF5133E5
BD761C51
BE0D02D4
BE45A0C5
3EE16EC3
BE122D02
BEB28A79
BE88E023
3F3DD87D
BF4D33B7
BAF13A5F
BBC3F09B
BEAAB5B2
BF26F70F
BE02D54A
BF15A901
BEA7CC72
3D0A9092
3FBFFC95
3FEEB506
3E87EB82
BF138A4D
3E276AB3
BD992A8C
3C9AFFF8
BEEB6F14
3EC60FB2
BD455FA2
3D65F84C
BE1DEF46
BCFB7D79
BD63C64E
3E2C387B
BDA436A1
BD6D8DB4
3CA84806
3E1ED7DA
BF07517D
3EB2EA53
3E096F38
BE8F6CE6
3C7BBA4D
BEF82C59
BE02F6CD
BCBB7D9C
BFEE426F
3DDF341F
3D906D5A
BE61C282
3E008546
BDC64C20
BE56C5D1
BDB6CC13
3E044D28
BE127069
BED1AB86
BDEE823B
3C1FAADC
3E8F16E6
BF3CFFFF
3E04E87F
BE195DD8
3EC47CAF
BE17D3A5
BE8CEF43
BDA066B6
BCF9A1F7
BE6C1F09
BE317E9D
BE248010
BE5634BB
BC3919BF
3E460281
3CC3256E
BE166C5A
3BAF6D02
BEA2D957
3E0B4A76
BD92F0D0
BED53267
BEDC4240
BFC06FCB
3E4D1C49
BD90AC63
3E9CF390
BEA4F0C2
3EA6388D
BBA013A3
3EBF068E
BF027B6A
3E3E3E1A
3EC6362E
BDC858BA
BEC9A757
BC82BF3E
BEF96B4E
BD939759
BE393E24
BF11495E
BE8B4363
3ECE9443
3D05285D
BE685240
BEF5BA9F
BE8DA618
BE8AFCBA
3E434C25
BE1F4969
BE38989C
BFB1798E
BE225F42
3D25D7E8
BE07A4EF
3E986A3C
BDCCEF9B
3D98FD97
BD90C3BF
BE55CF56
BE5632BC
3E8A7855
BC0E3D7C
BE093122
BE8546BC
BF105C77
3D179E07
BE8939C7
3DA794BE
3D8E0CF8
BDA5C934
BCF7660A
3DE64ACB
3E55232C
BCF71CE4
BE951B37
3E486A78
3DD03FC0
3AD54594
3DA21272
BD7E68AD
3E161F58
BE1D46E9
BEE4FA66
3DAE965E
3E17193E
3EA54DF4
BF064CA8
3EB0BE99
3EEB8FA6
3E6BBD72
3D32DDBF
BDC09F18
BE13DC2D
BE9DA80D
3D8CFB24
3E9594A5
BE031B23
BEE71132
BDBA2B26
3D9DA03B
BF508492
BDEED641
BE3AFA02
3DD35437
3DDBE9AC
BEC039DD
3E294F34
BD353AB9
3E055DD6
BE2545E0
BDC59EEC
3E0535D5
BD4DC891
BDA78C10
3E80DBB5
3DB641A1
BEA629FE
3ECCCB4D
BD461DE5
3E362FD8
BF1AB480
3DEF3381
BD7D84F5
BAF964B5
3E4B8554
BE8BCC6D
BDF486DE
3D344DA7
3E82AA29
3E6890A7
BE5EE6E8
BE9C8064
BEBA722B
BE325F90
3EDB9595
BBD9F5E4
BBD34732
BD1662AF
3D746537
BD8C9303
BE0B22C2
BE0B65A1
BE64D0E7
BDDFCB7E
BD8D3723
BD18013E
3D9B41FB
BD2080C5
3DFAF539
3E93C0BC
3EB92EC1
BE1B00B8
BEA72A4F
BF6CDA4B
BE84682B
BEA92C64
3E41F056
BE13AAD7
BE29826B
3E1AD5EE
BC1109EE
BE119729
BDC15D6A
3DC2FFE1
BE5A237D
3E7208B9
3D4058BE
3D4C8901
3E6FB8CA
BE063844
3F454B66
3ECE2F27
3E95FA50
3D2DE61C
3DBB551F
3E8E7EC8
3D97F95F
3F0F1723
BE724B50
BCABB623
3ED6CC88
3F4559C2
3D489789
3D82D366
3D82409B
3E1EDCBC
3E4277C6
3B9A19A9
3F34073F
BCB01B51
BC96FB9A
3ED88C10
3ED9A20B
BECA3E69
3DBA3A62
3E9F066B
3F0587F6
3CA6854D
3EE77E21
BE7CB542
3F379CCC
BE1EF4DB
3D0A0D23
BE59A047
BE241B07
BEAF3662
3E51C8BB
3E8B2AA5
3F0DE8CD
BD97C4A8
3EAA878B
3F1BDCDF
3F248BB8
3F33B736
BF8ECC22
BFB434E8
BFA854E6
BBC8655B
3F57A1A1
3DAB430A
3F08F930
3E992827
3F27BBD3
3D7579BE
BD97B0CD
3DACF09B
3F28E538
3F3BB862
3CAC67A6
3F17ED53
3E48738B
3CA4A623
3D37BD9F
3F51A66F
3E193083
3D9D82EA
3C688D26
3E27713D
3C1F359F
3ECE41BE
3E360548
3EBF03B9
BE959AB7
3E864DFF
3F67D807
3F178F84
3F1DBC06
3D65C51F
BEE5706C
3D9FC662
3E2D48BE
3DCF2542
3DA1DE98
3E94C035
BE4714E2
3E0DDEFB
3EA5BE3A
3E8E7A41
3D12DE43
3ECB627C
3ECCD7E6
BEB7083F
3F166B96
BD969A48
3ED0EDEB
3DBD30A1
3E599A3C
3DBEA6B2
3DB7EE26
BD9E3BC4
3E5A9C7F
3E8F89C8
3E2A5E04
BDC31550
3D1710B4
3D8B6FC3
3E749122
3E6A2489
BF419A60
C026FC6C
C0407154
3F56ABC7
BE5C3020
3E81E589
3DA33822
3FC1DDFB
3F2910BF
3E5B50E2
3F33868C
BD5F83CF
3E1582DC
3E1F19C8

