BEA7181E
3E78223D
BF002641
3EE040DB
BDD47FEB
BE8D94AB
BE276574
3DDB186E
3EC19AE6
BE44460E
BE616386
3F22862E
BEC2814F
3E1A39E1
BEDADCF8
BD615AE9
BF7513FD
BEFA6695
3EFD37FE
3EE9B83C
BEB5D63E
BF48DA60
3E9482F9
3EF9CFFD
3E8C12D7
BE872168
BDEF02AE
3EE60D30
3E567B46
3EB6C306
3DAC0115
3F2D668C
BF1E3914
3ED42D4A
3F18C7FF
3EDBAF70
BE95284F
BE92EBA2
3F1A84B8
BE9F21B8
BEBFDD97
3F5029CD
3EE068A9
3DB152E1
3F52DFF2
3CA31A61
BED02444
3EE43114
BCAE9D92
3F0BA5D1
3F3FB67A
BE8C5573
3D56A5E8
3E16701B
3E6978BC
3CC66ECA
3C75A57E
3F279F92
3F15DA4E
3DD3A318
3E82339B
3E54832A
3F26C201
3D03613E
BE4538F4
BF6815D7
3EFBB7D0
3F005BF7
BE8EC12F
BCC42CDA
3F0D12EF
3DAA87B0
3BB72804
BF634D57
3EDC7242
3F42DFE4
3F53CA90
BE2E0695
BD7F9378
BD6B8AFF
BEF54FFD
3F754A93
3EF83EFF
BE17890C
BFB22297
BE2718E1
3F0F42DE
BD0BFED9
3E1BA6FF
3F342E3B
3CFD1BF1
BE84A322
3E8FF5A1
3F158588
3EED726E
3EED1E03
BF5C15F2
3EDA83F3
3F0C4BE1
3F09A34E
BF019551
BF223BDE
3F01648C
3DE8D863
3F87D56C
3F3FF204
3F294949
3F42B963
BE3F8D47
BD10A819
3E819A1A
3E41E958
BF55952F
BD80A6D7
3D42B74C
3E809ECB
BEBEDF1E
3EA36D0F
BE9E3269
3EAF6626
3EAA49D1
3F65E80A
BEFE6F5A
3F0BD53C
BDE93E20
BE712104
BF0FC82E
3DCF1EBF
3F1CC8E2
BEF40295
3EA900B4
BEB63FD3
BCC794B2
BE41DDE3
BEECCF80
BE74D790
3CCC75F0
3F60F55E
BE362245
3EC4031D
3EB8F35A
3F03035B
3E8CA234
3EF8E1B1
BEC13371
3C6BC10F
3DF2E19F
BF027A9F
BB7FF386
BD8460EF
3F3253F8
3E96CF7B
3F3640CD
3F81D9CF
BF55FCF9
3FEAB128
3F7B7080
BE6BB071
3E69CA30
BE26407D
BEA8F06A
3F0BA27B
3F3DD7C8
3F2E3869
3E411682
3DA04416
3E90F0A7
3E4179F7
3F2FC12B
3EE9FB10
3F548370
BA5027C1
BE15B4D3
BD08D961
3EE90CB6
BE442120
BDA0F204
3F020A77
3F4445C9
BE4BCE88
3DB5B7D4
BE6EF69F
3F0FD600
3D699C7D
3CC0E4CD
3F816911
3E2A3A09
3F93E307
3E549836
BDDE1675
BC52C2BF
3E7A4F2E
BE581AC5
BDC62DD1
3F8C6ECA
3F14AE67
BD0A7F08
BE6D6029
3F84FF35
BDA23BFC
3DF14EA0
3F856BF1
3D5430A0
3F6AE5E2
3E8B5853
3EB9BCEE
3E4A795B
3F286FA6
BE9961B2
BE097685
3F09F14F
BEEA11A7
BF0A1E6E
BEB6BFA8
3F8CB44F
BED24463
3C0E2701
3EAC6E2B
BF2C2BE5
3F2B2BE0
BEB4BE19
3F0170D9
BE10160A
3F67D572
3D4C711B
3F4AF4F1
BDEF344A
3F6D8EE4
BCA8DC01
3E9B0AD0
BE07514C
3E7AD17F
BE76644B
3FAFB309
3F893AC3
3FAD1C15
BE9378D9
3E390BA7
3F640157
3F144241
3E7162C3
3F8A66DA
BF2A1DE7
3F77903B
3E1479B8
3E0D1DCB
3F2CA8BD
3E87AFA6
3F37DCDB
BE0702F5
3EC008D5
3DACBD82
3EF53640
3F31DD4A
BDAA60F0
3E7978F3
3EA78A84
3F863343
3E91FC6A
3F26CF79
3D5EEA42
3E2A88FB
3F2CF90E
BE515CC0
3F636C90
3E8B6237
3E9CFE37
3D75283F
3F110A41
3F1DFA1B
BD88B5C4
3F385BC6
3EF29A50
3E9B5E20
BDA5F6C2
BE3A787E
3E7E19A6
3EC739F2
3DADED63
3E42A8E2
3F07B61C
3F0F910C
3D0D45D9
3F05BB53
3ED33FD2
3EE0F44D
3D2045C5
3EC1EDC0
3EDB23AD
3E6235AE
3DBC46A7
3E6DF664
3E197527
3EC99943
3D1D860F
3E268B94
BCA42BBB
3F15274E
3E3C3F66
3ED635B4
BE08D5B6
BCED287F
3E8A3837
3D4AD090
3DDE7A55
3EF7D92D
3D9F691B
3E15C8F5
BE6E37CA
BE48C39B
3E52A89B
BE30AF3D
3E94042C
3E9EC365
3E7DAF47
3EAD8281
3DCA3D54
3DC3CDBD
3EA87F63
3D5E9B9E
BDFAF58C
3EC2FAC4
3E030F6A
3E74B539
BDA8B80F
3C6F7EDC
3E9D35DB
BE8708F0
3E038450
3EED5713
3C9A6AD6
3F0E9FA4
BE12AD07
3E440395
3E9E593F
3C159142
BDD6D2E1
3EE6C3DE
BD1B782C
3E981D4F
BF07E298
BE976CA0
3EA18224
BE6021E6
BCA2778C
3F10B7C1
3DAFAE54
3F0583E7
BE471D70
BE1BEF5B
3EE1E075
BDAC4CAD
3D0CDEAE
BBC784B7
3E0036D0
3E0936D6
BCB9DEF5
BD80249C
3E51F596
BCB30A0D
3DB61ED4
3D5A9E78
BE409E46
3F278140
3DC95785
BD8F20AB
BD6B7BAB
BEC677F0
3DB51070
3D03B964
BEC0C6ED
BE0A0B8A
BCBBA3DE
BDA4AF14
3EB3657C
3D389523
3D80A7BC
3D7BCAC9
3E2FE5C8
3EF7711A
3E970296
BE1CC5AC
3E0366CF
BDF02A36
3C18DC83
BE385446
3DD5475F
3E0359F4
3E1E8644
3D86463B
BE0D18EB
BD86D360
3E088CCB
3D174FF8
3D3380C5
3D9A6552
3EE99755
3D55EFB1
BEA7B376
3E458670
3CDB5434
3EBD3B11
3D8D71F9
3E1E4F90
BD1BB14C
BCDC47B1
BB811C29
BE5C816F
3E1C40DD
3D276FA5
3E24EC74
3E7ED952
3EC63544
3E0777B6
3DEAF9B5
BDFE0A30
3E945EE6
BD4E27A3
BEB1FAE1
3ECD60B0
3E879C94
3D326D53
BF18731D
3E98559C
BBC74F29
3DF879FA
3E858A26
3E33D2E7
BE172292
BE339819
BCE2DCA7
BE07C065
3DBDCC0B
BC9FD352
BE108201
3D9FD37E
3DD47DF9
BDEB76F0
BEE45833
3D1F5315
BE51F03F
BD089C93
BE0E67FF
3F5B185F
3D90F037
BE1A1F53
3EDACCEE
BEA0710C
BDC421D5
BD57AD3F
3D9CA03A
3E6BA042
3E529FFC
BE046CA0
BD6AE916
BDA9C0EB
3D0A7A43
BD6613E2
3DF8ED67
3EE25C45
3DAAA439
BE35AAD0
3CD9E33F
BD79D626
BD28EDD2
3F04B47B
3D10D37A
3D965B75
3D1F5EF0
BD845A0C
BEA34B45
3E2CE942
3E88B8F2
BC85BE57
3E2579F5
3E83D897
3F031530
3E63182A
BDE12E82
3E0859AE
BCF356C9
BDFFC8C3
3E739B82
3DEF3E66
3E3DB6B5
BD24F1C2
BE824E96
BE408927
3B399C0D
3DA15EB8
BCCBA23E
3E280FA3
3EC1F6BB
3E201B66
BEE7EBA7
3E460EF6
3DCFA7D4
BE141E98
3D0D277F
BD951532
3EC33CBE
3D85F5F0
BE39F1A7
BD01C2AE
BD12CA87
3CEE23EF
3E46CAF2
3F01D559
BE0E6584
BE280F32
3E86A41F
BDCC7E93
3E163F54
BCDA21BE
3D77FA34
BDF990A0
3E9063AF
3DA2DBBC
BF25E52B
3E5F3CAF
BC74049D
3C9B94BE
3E0A4A85
3E4017E1
BD016412
3D32AD53
3E14046B
BE515EBB
3F0A226A
BDBAC779
BEAE7008
3D282F73
3F155F26
3EF00967
BF3BFCA4
3EA4D7A6
BD019AEC
BD8B5C13
3E30F4BC
3E60CA4B
BC656F30
BCE29410
3EEBF14B
BD018C4E
BD4782F8
BDCC1D95
3D823089
3E9656D2
BE4DF3A6
BE351B45
3E3F7452
BE8BE953
3BAEE0D7
BD1ED33C
3D24AAFA
3DE937CF
BE11CF82
BBD1C5FB
3EBD7EA6
BDE5994E
BD31E461
BD822021
3D00A118
3D411E7F
3C959BA2
3C98217B
3E52D8CA
3DF63D73
3E0A71B2
BD8A0F38
3D933AEA
3E8DA15A
3E0346D6
3E0F72EC
BE01698B
3C34AD86
3C135AEF
BE839238
BC0BE765
BD869A1D
BD1216EE
BD71ACEA
3F3AAF2A
BE230EFB
BBA7AB3F
BE1DC61D
3DB2168C
3DF58A69
3E156C1A
BD9AC006
3D5EC421
3E2BA3C9
3DA37F53
BE8677F0
3D014A84
3E89CD46
BE17AC23
3D21C769
BE27F22A
BE1CEFAD
3DBA7E6D
BD5A4964
3D2E6DAC
3E8C259F
BCD86A03
3E08EE25
3D296005
BC2805B9
3EA28200
BDFCFFD0
BE9B22DF
BEAD753B
3EB96B0B
3D56B3EE
BF2A402B
3ECCDF9D
3DD85ABF
BE6E0BAF
3D060A8A
BDDBD63B
3ED9B4A6
3EA71554
BEEF0030
3E2D4F69
3E70F8C5
BE51F95E
BE92F124
3E48C40D
3E231443
3C7C2E69
BEB94556
3ECD43C4
3E972354
BE02628D
BC13AB6D
3D2909AA
3ECBAD83
3E25BAE7
BE2562D5
3E81F9A5
3DBC7C8D
BE88D683
BE12E42A
3E14B1B3
3DEF2ACF
3D7B0FAF
3DABE773
BAD3A97D
3E077720
BE156719
3D1F204B
3DCA744B
3EC89291
3E6F1230
BEB38749
3E47E1B9
3D072940
BE34DFCF
BD85DC45
BE433E2D
3E88173F
3E63A1D2
BE9E5201
3DFAAD88
3D2C2A1A
BE1C3B65
BE5AF31B
BC57315E
3EA3EA48
3E4CA6FB
BE664C12
3E9B7827
3E60C5CB
BE6D4A6B
BD62790C
BE10025A
3E88F061
3E92B6D9
BEB78E10
3C9484C2
3D9A08C4
BD918158
3C294E9B
BD71816F
3E755E4B
3E1ABA6C
BE95090F
3E6BDFB4
3DC84082
BC3626EF
3CECB21E
BD0EA7A0
3DC1DBA8
3D9E4633
BEB63B41
BE09789F
3E265204
BD01B2DB
3CC6B556
BDA75509
3E286B3A
3DD1A4E5
BE420997
3E8D35A0
3D878A7F
BDFC7153
3C5D2F44
BE225460
3D87298D
BCFA946E
BF04BE98
BCCD04E8
BCCFD619
3D0F0EEB
BCB18960
3E53B51E
3E08BD93
3E4A789D
BE2F8137
3E551E05
3D0A7B13
BCA81545
BDBDC455
3D274749
3DFC1525
3E9564DE
BF0A8924
3CDD044A
3CF72017
3DB1FBBB
3CDEC711
3BECE9A2
3DF04B73
3E15112E
BE46073E
3D841DD7
3E1BB80D
BBC800F8
3E03F500
BE1B540B
3E9C6693
3E43C7B2
BED26AAF
3CF605C3
3D278B24
3E19DD3E
BD9419B2
3D0B8FC5
3DEF8AC1
3CADF62F
BE506429
3E07A0A9
3DE7CA5C
BE1B1FC9
3C5047F4
BE14182C
3E3ABFEF
3E47964A
BED7A312
3DDA811F
3C43B6C7
BD907537
BCB69B27
3CFED771
3AF5280D
BD141DE6
3F2BE232
3CC5C62D
3C6B181D
BE487EB3
BD92BE57
BE1BA7C5
3CBEEB5C
BCDAA214
3F65ACC8
3C840931
3C9A7A6E
BD2F849D
BE248824
3DE1AB01
3D10A251
BD65F277
BEF6F7C7
3DF7C448
3E531FE7
BD32029A
3DD38888
BDC89E0B
3E0C871A
3E27B8BD
BE2224C8
3D751182
BD304520
3D18EC48
BE58689C
3E7296FC
3E0E5CC0
BCED91F9
3D6FDF33
3DC11CDD
3BB86E22
BBF2D15E
BD8F5D09
BE0542DE
3CD1BCEA
3BE1057C
BDF7739D
3DBC171F
3CB1965A
BD01D096
BD8D6664
3C6F43B3
3E86C041
3D940719
3B7D681A
3D219536
3C14455F
BD3873F0
3D943156
BDF2E906
3D2E0922
3E25C639
BE2B519F
BA909D01
3DF6C73E
3DEFC97F
BC1B0A02
BD8F0CB3
3E1FF646
3E96D04A
BE1F96F9
3E364C38
3DB7A6FF
BE48D90D
3CC9068E
BE198E9F
3CF4AA76
3E5DC69C
3C2D7CB9
3E384218
3C7BB646
3DAA9320
BD442EF7
3CD40F3D
3E21DE87
3E6A7335
BDE7F1DE
3E380885
3E23C255
BE01AD7A
3D1FEA4D
BDCF672E
3E5DD85A
3DB4F260
BE22918F
3DB17A42
3D6699EB
3DA83DDF
BD2F7601
3E2381CB
BE28F242
BD62D03D
BD83057F
BD984F2B
3DFC2D5E
BE338340
3D1A618C
BE42DA8A
3E30461D
3DFC0AF5
BCD67BAD
3E1BF9B5
3D05C832
3D75E613
BD980323
3D48B372
3DC380C0
3E93C222
BD415964
3DCEE9BA
BCF7C9C0
BC039253
BBC2BA2F
3C7B055F
3DA5E10A
3DE2CCDE
BD7A7432
3DC6DD89
3E0245C0
3D7445DF
BA9A2BD5
3DB7670E
BC71F2F4
BD3FC3A8
BD6FEC66
3DD7D4BE
3DC872E9
BD419422
BDA1C2A1
3C4986FF
3DD2327E
3E6F072C
BC2F12C3
3E33EB1F
3DC5D432
BD74D6C7
3BBBD151
BD2BA95A
3E642945
3E892C5D
BDFE0078
3E73BD6C
3E5BF6A8
3B1727F8
BD9771BE
BC0C9550
3DAB4C36
3D482C1A
BDD8B04E
3D917A7C
3E083B62
3D95C736
BC583A1D
BC5A22EC
3DE7916E
3E9D202C
BC2A4707
3E8CA9F9
3E2E6E99
BD25FCBF
3CE99D46
BD628A45
3E4ABD73
3DD64759
BB88FC3D
3D950782
3DE66E6E
BD0769CB
3DA2AF40
BD3EB297
3DD249E6
3DEFD1E0
3D33C2A4
3E313A42
BC69CCA8
BD8F2352
3DB622BD
3D3B580C
3DAFDA72
3E0514F2
3C6C0189
3AF81191
BD9A3B54
3DA8FB2E
BD53E497
BD43B0F0
BD53AE23
BD441E9D
BDC6E218
BB2C583F
3E157F84
3CF249F5
3D5A5387
BE3041BB
3E0F0D45
3E53C4DE
BE235145
BB93B549
3D4D9BE7
BC9D5B3E
BDBC7207
3D2F6860
3E55B476
3E1879D9
BD0D4BCF
3E257304
3D2904B1
BE3C6D2C
3D2F12D9
BDC9BAA8
3E12F7F4
3DCE3257
BE07CCD1
3C39D2D3
BDFD1026
3E38A0C0
3DA0BDA1
3E833856
BCA62C8D
3D452A33
BB2409E8
3D8EC34C
BB2F676D
BD466202
BD2ED661
BDBF3F1B
3E45B845
3CDA7DC2
BD8653E4
3C8358C3
3CCEEA86
BC945E21
3BA904CB
3CD0D22E
3E589F24
3E2169BD
BDE16B39
3CFA3C52
3E15E240
BD1BD445
BCFC2633
BD8D09DC
3E789719
3D534F93
3C02C8CA
3C9DE1F8
3D61C7B7
BC5A8FC9
BCF298C8
BCB1F028
3E3D701B
3E48B254
BE0010AB
3D8F4C6C
BBFFB3FF
BDAF8C85
3D8CB776
BD9F9B52
3CA77015
3DAE82DE
BD2D5C08
3DC4FA36
3D00F6E0
3C84F60C
BD401299
3D7FFEAA
3E91AE24
3E61EFF9
BD8A4617
3E81B08C
3D9D636A
BD72F06F
3DE75A57
BB05022B
3E44523F
3E369AD8
3DA684B8
3DE71AB6
3DB18E26
3B2296D4
3DFC97BA
3D749A72
3E28C3EB
3DA7430A
BE06642D
3E45449D
3E1732C2
BE256C01
3C2E1C03
BD7CD07E
3E7EF43E
3E55A831
BCD04711
3CCE6F58
3D2A3FCC
3B813E64
3DAB4564
3DA5E130
3E77BBE5
3DAD2335
3D135A8F
3E0AD4F3
BE40BA54
3D3A9FB5
3D8E3298
3DD9C46E
BE615B04
BE224231
BC612A83
BDB91349
3CC27A12
3E0089D8
BD93D87C
3E829E60
BCFFDD14
BD5DFCE9
BD5F6519
BAAEFBB6
BD80946A
BDF9A586
3D2E3039
BD9ED548
BD893865
BD5DF2FD
3D98E958
BDA46B43
3DFEDC86
BD82BB6A
BDC3D436
3D972E11
3E00854C
3E8E72E5
3CDDFDB1
3D011ED2
BDC9826E
3BB04570
BDA76E2F
3CC8E27A
BDD5071A
3D1987BC
BC0F2E74
BB5F69C9
3DFBE686
BDF7375A
3DF40CBA
3C42FEEF
3E7B6CD6
3E3DF90A
BDB607AE
3E537A38
3E57EB8E
BE2C4037
3DBC3BD5
BDEC7959
3E86BA3D
3E7E5B97
BDA11429
3D015666
3CBEA97A
3D0DAA65
3D3C6ED9
BD11C960
3E84C96C
3D52E764
BCBC7301
3E078D19
3DEF058D
BC97EDCA
BD8168DE
BCDE5876
3E0133B2
3E02BE05
BDE1EB26
3D8565E8
3E570B05
BD980B0D
3DEC287C
3CFB8590
3E8A4E37
3E1A29BF
BDB68804
3DFDC9C4
3D192930
BE0E0AB6
BB419DEA
BD5919A0
3E83E204
3D9496B8
BE048C5B
3D84E741
3D6F68CD
3D0C6B67
3D9B1612
BD9831AA
3D2ECE48
BD0B099B
3DA0E82C
BC79C6CD
BDD1F5E5
3E364A2B
3D823AFA
3D235E8F
3E0B5CDE
BD8C20F8
BD7C6F78
BDD01DB5
3E1E4B8E
BD7C5D67
3DB68656
3DC0B3BF
3E296294
3D963E1E
BDE0BF39
3D0C6687
3E118B28
BD43BA40
BD855A54
BD0FA7FC
3D4FD6FB
BCDDABCE
3D66BF36
BD9F2598
3D38BF36
BDC4BDE8
BD7492B9
BD9DA181
3E18FCE4
3E0016DA
BD98F91E
BD1E487C
3D0150B7
BDE0844D
BCE19042
BD07D575
3E3ECD75
3E0F2DE3
BCF68C18
BBF78F39
3D91A232
BCF7A16B
BB002BE6
BCA636D3
3D1DB9D4
BD4D912F
3DAC2AA5
BD84D23F
3D3EA0FA
BDBCE3C0
3B14BB99
BE06586D
BDC0C0DE
3D1FE46B
BD0B9F98
BDAC42BB
3C91F52E
3D758157
3D01BA1D
3D401A48
BD8B336D
3D4E026F
3CDA3824
BD31E99A
3D1C8689
BD7F6912
3DAEE17F
3BE8D0D8
BD69B633
3ACEC268
BD8032A7
BD5DC7C6
BD4921D2
BDA99613
BD2B89CD
B94E2384
BD1C4758
BCAEC39F
3D302A76
BD3A634A
BD88D0CA
3D9DE595
BDB0D146
BD4D7D99
3BE49B67
BCE25028
3CF31124
3E08448F
3DA10579
3D32CCCE
BC0D1EF9
3E310EEE
3CF7F738
BE13DFC5
BDB176B8
BD989A8B
BD0EAC45
BD98E75A
BD995608
BDA278FB
BD3197AD
3D03BA29
3DCF1DC1
3E088F2B
BD2586EB
BDC05D13
3CBCA576
3D63D240
BC2740CA
BD68FAAB
3D4FB736
3D2F14FE
BB0A9DA5
BDF31213
BC8F1605
BD9E2035
BD960655
3DD74514
BDB0CDE2
3CF27B54
3D1AC15B
3DBE8C7A
BCE444B9
BD9FC156
BD9905FF
3DE645F4
3CF8669C
3DDAE0A7
BDC44D1E
3E4EA871
BE129FFD
3DF0F7E8
BCDAAD42
BD5353E2
3D367F6E
BD6D8282
3CF8DBDA
BD6478C9
3DA08EAB
3CA04FEC
3C76911E
3D803197
BC976724
3CA49AB4
3D777DEF
3CC7555C
BC47739C
BD5C4C7A
3CD567EA
3D4000E8
3D2C0EDE
3DC17F97
3DC5F874
BD4E2AFD
3DE0C86B
BD963AF5
3DAAE32E
BCCF7BF5
3CE6B664
BD43C847
BDE28DD6
3C680C78
3DA1547D
BD397580
BDE0FBA1
BDE25134
39FFAA00
BD903DAB
3DB91476
3D68F059
BCA26DE6
BDA58832
BBFBB5AF
BDA9E59A
BD518382
BD01786A
BDA72AEB
BDB8105F
3D8B991D
3DDF0478
BD523F8D
BDF6C6E2
3CB8ACCC
3C950DC0
3DD4CADA
3D53B406
3D435ABB
BC5EE7C5
BD7D18C5
3DFB0634
BD7688AD
3CAFDB2E
BD9F765F
3AF2BDDB
3D90CC49
BE04F342
3D3543E9
3D65FED0
BCE607F0
3DCDF1BB
B989D713
3C826F44
BD91C039
3DD75A63
BDDE081A
BDDD2276
BD949FF6
3C81162F
3DB8A71E
BD1B4527
3DC502F3
BD18ABF7
3DF7C426
3DA05E46
3D95D391
3E0B3F3C
3DF57316
3D97757E
BC66E28C
BDC5EF36
BC5DD13A
3DA64FE4
BDB1E170
3D9DF560
BDF71150
3DF20C25
BD7A92A4
3DE442DC
BD8F6A08
BDA0E896
BD3F378E
BDC4626D
BD9F572F
3DCC805E
3D1205FD
3DFF92D2
3D35BA2F
3D919A26
BD599B43
3CC7C350
3D7E4EAF
3DAE0DAA
BDA83D8D
BBDBCF9A
3D53CACD
BD848130
3D8DED7F
BD87EE1A
BD9A1577
3DEA11AA
3BFBF9B0
3D942295
3CFFBD7E
3DA366F0
3D510A0A
3D01A282
3D65984F
BD2EF0B9
3D81C4BC
3D8168DE
BD76E36C
3DF57122
3C8B3C0C
3BA82356
BB2BB061
3C1399BF
3D95E40F
BDCD89E7
3D782CB1
3DAF12D0
BD714848
BB537784
3DB4C04C
BD164246
3DCAE1FF
BD53BAEB
3D52ACD5
BC484B07
BD28AF7E
BD8400CE
3DBE3D60
BCC1B6B1
3D9EA079
3D8D4270
BD13DEB9
3C365EC9
3C903C5C
BD490EDF
3D849B42
3D9A5BB8
3D25D4D8
BD60C04C
BDC7D3C9
BD7F4F1B
3DD50EB1
3CE90F94
3CB3BA36
BC3E9919
BD518305
BE0086A3
BC7CEE15
BD20D8A6
BDE60E87
BC79BA85
3DABC40A
BDA9ABAB
3CF094FB
BC0820E8
3D8790BF
BD1A5174
3D00E79E
3DBD9471
3C81C328
3D8B4C1D
3C288608
3DFAC266
BC372D27
BC8465ED
3D802C9B
BD422D96
BD69B88D
3DCC1FC6
BDBF709E
BB831F1E
BC103F5F
3D03F6E0
3DA67443
BCA67C00
BB463A95
3AD7A2DF
BD1A84C2
BB2D5D31
BD87C64B
3D32A990
BDCFBCAF
BDB523E8
3D95EE4B
BD81B136
BD70D066
3CF0C89E
3B190362
3C884198
3D6D861A
BDA8DD7D
BDAC06BC
3D12F3C3
3DD3EEEB
3DA94B94
BC76EEDD
BD819C88
BD01F886
BDAAF0D3
BD6D2463
BD846727
3CACA2EB
3BD44BEA
BD53915E
3B7C165F
3CD75ADC
3B2EFA36
BD81EE12
BD318067
BD5504E9
BDA87094
3D9E37A6
3DDF94D6
BD25805C
BCD7530C
3CDCECCE
3D0A46BB
BD4A099B
BDF20B2D
3C7AD0D6
BD7CFF54
3DB60CE5
3D9B5C1D
BD4B25A7
BDB8A915
3C5ABB65
BE05556A
BD941AE9
3D9125E0
BD3D7388
3DDF8897
3DBDF574
BD68B70D
3D93AA1F
BD5A095A
3DB8E606
BC34815F
BD693021
BD91B739
3C3FC627
3D3BE121
3CCFF682
BE006DAC
3DD967C4
3E02E056
BD9C1936
3D7078AE
BC4D4464
3DF2545A
BD9EE359
3E4FC672
BD15716C
3D5B3FF1
3C4291C8
3D0514AE
3E0033CB
BDED1535
BC9C2F72
BC04F058
BC097312
3C98BA03
3D8C4C77
BC81E934
BD19D522
3CD036A8
BD9FBE13
3D3237BE
3D9D51A4
BCA33DB0
BC882DB0
BCA4E220
3D1DEB67
BDCC45D3
BD248EE7
BDA2E804
3D0F0774
BD6F7086
3A308680
3DE96A99
3DCD82D6
3D6AA151
3DEDD5F7
BC3F2C05
3D2FA9AD
3CB6139E
BDADE34B
3D72E8FE
BCF61963
BD65925D
BCFA4053
3C9D9E1C
BC91C712
BD430342
3D4A7D46
3DD30B25
BD7AE939
3BC58779
3DC15511
3D85752C
BC79418D
BDA0D1CC
BDDA349A
3DF4996F
3DE3F118
BDD1FE9D
3D3B611B
BDC638B5
BBCB6B2D
BC207CD7
3C80F05C
BD9AEDDD
3D203E07
3B0626C0
BA0291C0
BDCB253F
3D25D45D
3DDC9ADA
BD678454
3C45B21C
BD4CFA9B
3D92A350
BCF91440
BD906703
BC97AA66
BCC12AD6
BDC486AC
3DA79E2B
BB3E8522
BD607221
3C76A2D6
3CB7EA5F
BDBF6326
3D6FDD4C
BD879B7C
BDB38459
3DD24816
BD8B47F7
BD99E755
3D5F35C0
3DEB95BE
BD840E1C
BD183BE8
3CCFF216
3C72B434
3E43E309
3942A55B
3C34F0CD
3CF10870
3BCE3E5E
BD8C3B26
BDC930D6
3CEC1F27
3E06C537
BD201782
3C07D8F1
3DCC0A40
3D825F88
BD4FA942
3D089EC2
3D9F5706
3DEBC52C
3D0B90B5
3CCDFD36
BD040AEC
3D2BAAAC
BD4A1130
3D67890C
BC006E7A
BD0A66F1
BD9A3862
BDA32143
BD98AB3D
BC0FFC3F
3D434E3A
3DE81A79
3DD25666
3CE228C1
BB0E9F16
3D7D8AA2
BCB89BB1
3CBE9EB9
3C934DBC
3B8CEB25
3DA54B14
BD286E49
3D40C647
3D4F0D7C
BD47291A
3CE68A6E
BD3EA3CA
3DE470FF
3D9609B9
3CA2CCE2
BDBAA0B3
BD3E1F01
BD93FE82
3E09FEF4
BD470B34
3AFC8828
3D806212
BD804AFF
BD2E15FD
BDE69D74
3DE34EF2
BD25670E
3DD6D5A5
3E0294B9
BD89107A
BDE58041
BD9CFD82
BDB4DD4F
3DB1A1E0
3D274F9F
BD704C63
BD219F2C
BDA3CD20
BD520019
BDC0246A
3B79022B
BBD0184D
3DD54F9E
BD62F25D
3D8489C2
3D8E54DA
3D7F5787
3DC43073
3C5DB8EA
BDCE3B4D
3DAFE866
3DA79A69
3C56E44C
BE063D80
3CA8387D
BDE18572
3B4BDC0C
3D9DA17C
3D9ABD59
BB8571B0
BDFDC54E
BC66FBAC
BCF2BD55
BD7A8B26
3BD5A22A
BCF155A7
BD9D41BC
3D88A47B
3D430752
BD6CC0B9
BD053010
3B9392D9
BA2D4278
3DD104B6
3E07A623
3D0FA8FA
3DA296DD
BDA1A9C1
3D877682
BD36FE3D
3D37CA26
3C1641C7
3DDED90A
BDDAE8F7
BD788943
3B846E0A
BB5C3898
3D926473
BDADBA47
BD8399BF
BD397FF6
BDA9B325
3DB5B0ED
3D028BBD
3B28F7C0
3D95BBF3
BD999D58
3CEC75AA
BC3EF9FF
BDD35A8E
BCC21EF2
BD483DD8
BD89643D
3DE4864B
BDD920E4
3D72BACD
BC6C1B29
BA931980
3D7CBB0A
3DBA8E0C
3D44A4A3
3D7C36FB
BD72529E
3DF4A3BA
BD05AA0C
3D9163E1
3D984E1F
BDBE9F58
3D328D53
BCF335E0
BDBB9E12
3DE8B324
BD87D1AC
3D2F77D6
BD89A736
BDEA1010
BBDE6798
BD15BE74
3ACBFF25
BCDC729F
BE04E1DF
BDE81E90
3D9F8C12
3C8D2FD6
BD7BC9AC
BD43F955
3DB775BC
BD1E59CE
BD2FAC33
3DDEDDA3
BC91EED4
3D364289
3D78ECE1
3CDCC116
3D63BD24
BD7B18A1
3D356EE4
3D8C7CE5
BAEA1728
3D9A0C96
3DA39BE4
3D9FB663
BDEDB603
3D623C69
3DD8F16A
BD660AF5
3C48E544
3D411067
BDB8CE85
3DC1A59F
3CE43930
3C2B6508
3CCA6325
BC3A44E8
BD5F9982
3CC03FA6
3D2C5BF3
3DC6C4F3
BD0240B3
BD8D5B71
BCB62CC6
3CB4B044
3D9ED508
3DE96BBA
BCC9C6DA
BCA7C44B
BDA51A2C
BC82712A
BCA20410
BDE2560D
3DED69CF
BD9B5E5E
BD847CE5
BD995EA0
BE042235
BD3F58FB
BCA32C80
3C38C2A8
3E02633C
BC0721CA
BC267552
BD9E8820
BDC6F79D
39815901
BD5E0676
BD7EE761
3C82FF71
3C8E60AB
BE0642E4
3D035EE2
3D9FF83C
BCCFC040
3DBFAA36
3CE8B984
BCB420FC
3D6D33CB
3C0AD9C2
3B8A3ABA
3C9FB78C
BC81378A
BDA29626
BC242940
3CEA3DB4
BD2B4E28
3E09BBFD
3B97618C
3E3D4800
BD78F714
3D8A1FAB
BBF07D20
BDBEE6A7
BD43D23F
BCAA766C
BC5A6A5D
3DB5519B
3D430F77
BDBFE5C0
3D1AD54A
3D21C986
BDF21078
3E56CD8F
3D656C10
3E3EE46E
BD437A6B
3D40E7B7
BDD80C23
3BA5F2EC
3DAE8082
BB90F657
BD1035CB
3C6E73C9
BBC9900D
BDA5899E
3DE3C9E9
BDB3BE14
3D67072F
3D07079B
3DAE860F
BE087261
3BE40EE1
3DEA8B08
BCF9FDD0
BD7B8965
3E03D7A4
BC9B8341
3CFCED4B
BD9D55D1
BD3D2EF6
3C8B33E0
3C0D79D8
BDAF7986
3D7C4547
BDF63B8B
3D2DCE64
BDC928D1
BD04F1D3
BDAD7A28
3DD5705D
BC5A42B2
BCD48885
BDC57FA5
BD033FDB
BDB54CF4
3D356A95
BB524705
3D8286F3
3D832689
3DDE7A76
3D33500C
3DC444E9
3D6017B8
3D9B95A6
3B6A303F
BDBAE4B6
BDB7EEAF
BCBE0C1A
3D927538
BD5E786B
BE0025B1
3D9A0828
BC8ACB31
BDB0D9FA
3CE788D4
3DBCA304
BDD6E3DA
BD837FD8
BD741060
BBA7653F
BD336BB8
BD27AE32
3DBA8DCF
BD89C610
BCDAA50E
3DDDF6F7
BDC6F815
3CA4A7DE
3C722DC9
BCC54CE0
3B353136
BE05B81E
3E3738FD
BD68411A
3CD7BAA6
BDF2A336
3C43E51E
3DC6BE43
BD9A89E0
3D698452
3CA67249
3D0A1359
3D483729
BD98197D
BD998E30
BD99CFB4
BCFE663C
3C87F096
BDB269FB
BDC40554
3D8AF882
3CD0A88C
3D754267
BDBAF584
BD7CE060
3D54693B
BDBB49AA
3DF8DFD9
3D3D5737
BD70CCC3
3DBB5BF4
3D9F61A5
3CC5E43A
3D2DB0BF
3C91FD13
3DD813FF
BC34F185
BD343A13
3DDCA6FA
3D8D2CE5
3D8EE8E4
3E01615E
BD9EDD4E
BCC2657F
BCC8F3C4
BDC17F2A
BDB2ABEA
BDAE0E86
3D5DB54E
3D40F45B
3D636830
BC9C1DF6
BD23805D
BC164B43
3DAE69E8
BD9CD58A
BD9B32FE
BDAB837E
BDA089C3
3D404EDB
BE109250
3DB4B452
BBFDD60E
3D1DE922
3D2058AF
3DEA5F78
3C3407AF
3D258BAC
BA9B6BD1
BC800496
3B8C480E
3D756A52
BD551E7F
3CAE027E
BD8BD9C6
3DF83E17
3D56B5D1
3D84A38B
3E0E1F08
BD726F1F
3DAF3843
BD9CE27F
BDFDE29D
3CD4EB3B
BD829A6D
3D335E81
3B79A77F
3D3E026E
BD136065
3D21EAEA
3D3A093B
BD922E58
3C02AD1E
BDD90BE8
BDC733F8
BDC960A3
BD172959
BD7DC31E
BBA05DB7
3CA118D3
3D94A94A
3D6105BD
3E0752DC
BDB1546C
BD75FAA5
BD02DF6D
3D164B4B
3DD50477
BDBD8771
3C6489B6
BD6A6702
3CAD5BB4
BD679A26
BD0D99E4
BD553377
3DD6160F
3CC7A238
3D54D929
BD4E27F8
BDD160E3
BD5E89F2
BD518986
BDB25529
3DC8C95F
3CD5C938
BCF80B90
BD8CDCA2
BCF7EB0C
3D4B84DA
BB519860
3B1B6F80
BCF4F730
BE09E0E8
3C9495E6
3D804366
BD715090
3DEEB615
BD5E6B30
BE01A82A
3DED5AC3
3D53D2AD
3DEB13DA
BCC805EB
BD9081F8
BBC82571
3C1576BC
BDA6420D
BB0CB856
BD619A1A
3D4AD4E9
BD4A49DE
3D531496
3D04B14E
3D090508
BDBE71B9
BC36F333
BE0F7EB5
3DBC2564
3E09C7D8
3CC93E84
3D77B7DE
3D8BA673
BA830DE9
BCC78D8F
BDC42F1F
BCF78310
3D6B49F0
BDC4E2B6
BCFD1932
BD365A03
BC4E23B8
3CC90692
BDFAAF61
3DC4F180
3D1C1C53
3CF27DD4
3CD67B1C
BE11B6D0
3E28C21D
BDD3EE97
3E0D3DCF
BDA7A2E6
3C8FE7F3
3C000868
3D20F57F
BCCFDB2E
3DCD7B48
3DADDBCD
3D5FBA1C
3DABAD04
BD58351C
BBE0EF50
3C5BC64A
BE05903E
BDBB867F
BDA4B162
3C457AED
BCC43D56
BBE4647E
3D171ABA
BDC6FCEA
3DE294FE
3AED22DA
BDBD8AF6
BDE3E083
3D4D5821
3DD5CD5A
BBDF3390
3D906874
3DDE504C
BBC0B299
BCD2BD33
3D512814
3D7CBDE1
BC8B45F9
3CB0B22C
3DFE6F11
3DC9AEBA
BDA4ACBC
BCA3B2F6
BD8B4F69
3DAF9FB0
3E08816D
3B831920
3E063895
3DF5A0FE
3DAD9BF8
BCE00A3E
3D66BA2C
BC335911
BD7846FF
BC92632C
3D6216D6
BD9C7BE3
BD167F68
3D82EA41
BDD71463
BC7EB7B3
BD274E9E
BBE80360
3DFE2097
BBD1D7BC
BDF11A3E
BD8500D4
BA81E73C
BB98EA6F
BC63D033
BC73A180
3DAB5889
3DE15F84
BDB06269
BDCACAB8
BDE35885
3DDDEABC
BCB96D5E
3CCFD394
BCBCE1EE
3B5BE875
BDE6AEA6
3D4085BB
BDFDD9AC
BC359DF8
3BDFC48E
3CF9AD74
BB769E20
3D7CA4FE
3CD4CD78
BD40256C
3D5BF341
BE0B19A5
3AC406F7
3C374B38
3C600A76
3C099D6C
BC436F70
BDC704F4
3D0D4F14
BD51F826
3DB7A1C2
BD538476
BA62DCA7
BDA8219B
3DD4C4C0
BD1CCC50
3DAA0915
BD6DD0A5
380E5069
BC8766F0
3C1B5048
BDA89267
3DAE15F2
3DACAA09
BDF3C53F
BD491D1B
3CB2DCCE
3DE244C3
3D84598F
BCEB8083
BE0359F6
BDAE0E08
BD6DFE20
BC0D3C4B
3DF4DA7E
3C732DD8
3C6FDDA4
BD33CFC6
BDA618EA
3DDD5F05
BBE57818
3DD4E49E
BD925F4E
3DA7BCFD
3DF6A059
3E02CAEE
3D2B49F7
3DF89F85
3D044EF3
BD870830
BBCC3D4E
3C935D0C
3CAF832E
BC3BF932
BDD13B13
BD992C9C
3C3F83AB
39AA5702
BC7DA141
3D4DF846
3DC8E85B
3D998EF8
3C994772
3D4910A7
BDDB51D7
3D565265
3D3C432C
BDA28AA8
BC27D1E2
3C61A1BF
BBE90659
BD19B2A7
BDF00B67
3CCDE922
BDA11F3C
BD6F75D5
BD630558
BD598CA7
3DAB294A
3D766C14
3D353819
3A8E1BC0
3CB90661
3DB717B7
BD2C755F
3D81FF16
BCBF1D15
BBF5B36B
3BC7733C
BB499FA3
3DB44EC8
BD810BAF
BDC68386
3D2359FD
BC81B4B2
BD89AC67
3DA97B71
3D14DEB7
3CBFB4E2
3C762748
3CB726C8
BB37DBE1
BDBDC02F
3D59C833
BD00E79C
BD88D8B0
BBED5FCC
3D97C98F
3D2F5B86
3D4E71FF
BD8A424F
3CA00F13
3D8281E4
BD173BFD
BD6C222E
3DDA9A81
3DC2520D
3DF34286
3D8DB1EC
BDB4F5AC
3CC9B130
BD316893
3E0234FB
BCA596E8
BD6A73D3
BD687126
3D265053
BC788C4D
BDF534C5
3DA9DD5E
3DE7C75C
3DAFF4C7
3D893C8A
3D7B3B8F
BDB89DE6
BD29FF2B
BDE48C0D
BD71834D
3D4CCA50
3CE56194
BCBC9DDE
3D39821F
BC2B86A1
3D9836C7
3DA3E68C
3CF4165A
BD5BC0C6
BD7B4AA6
3E03B8FE
3D1A1072
BE00E769
3D1EDA44
3B3F8131
3DD2D3BA
BC829CD2
BBA04DF0
3D173B7A
BCD5C97C
3D9814EA
3D6436EB
BDFF6F01
3DF24808
BDA1FF6C
3DB6509D
BDA4F8B3
3BA89B3E
3E2CFE63
3D93D8B6
3E1FE465
3D52090C
BDF789BE
BDC0E57D
BDAAE45A
BDF51950
BD989938
BDAF6708
BC13F18F
BDE3C92D
3D78ED6B
BD82CBBC
BD0A6D85
3D39141B
3D80DA2C
BDC8BF91
BDA1D352
3DD5E12A
BD5FD5D6
3DE539CF
3DCFD0AD
BD4734F0
BDB1CB8C
3DBD0489
BE0ADED0
BA40497A
BD7691E4
3D8F2CCB
3DF6B451
3DE3C318
3D8CEF90
3D9429BF
BE0166F5
3CCD5E8A
3E07D500
BBB01D90
BD543BBB
3BB44E3C
BDE75296
3D88A9AE
3D181408
BD4B4D54
3D4AE100
BCA1B5AC
BD43A9BF
3E069C35
BBF192F9
BCD57C4E
BE0A31C3
BD4EE6D8
3CFB844E
BD982449
3D0181EA
3D5226AF
3CCC91FF
3D03D0F3
3BB49990
BDA1E622
3CAC74BE
3DE83E4B
BC98CAC4
BD0DE359
BDB0B269
3C17A535
BB8C3D1A
BD0539FF
BDA96D8C
BC75C610
3DDFCEA7
3E056E33
BDA250E6
BD457499
BDF271AF
BD24FED5
BD8CDA00
BDB632B7
BD440503
BD6164DA
BD6941F7
BD62B4AE
BDED7F8F
3DD439C0
3D73D674
3CEB3634
BD49319F
BD3D096D
3C947E69
BC695AC8
3CC0BF0C
BC81C830
3C7DEFC4
BD542104
BD09B3DC
BD91627A
3DD71C58
BB50704A
BC6C0798
3D817882
BE01BFA1
BB25BAC0
BDE9FF9C
BD0EEEB5
3D9D3F72
BD80FC07
3E07C37E
3C95FCA6
3C88BCC5
3D5F3B16
3DAC75F7
BD2BA0B5
BD51B9AF
BD500CBF
BE0BB1E6
BD205CD1
BB77B31D
3C891DC4
BC2BC242
3D4E43A7
BE06D878
3D5CC653
BDA31EF5
BC28F60A
3DCCF2CC
BC09B130
BBEC6541
BDC03D87
BC1330FB
3E011DF5
BD39332B
BD56E093
3DAC98A6
3DA77DC5
BB7596E0
3D4376A3
BE077657
3BD2E84B
BD92F0D1
BDA5A088
3DAE4E86
3D1915BE
3D4DF712
3D6DCC37
BD3B4569
3DBD5C2D
3C81F135
BC3FF371
BD78BF53
BD3A5712
3DD8F1AB
3E01E5E1
BC5A3040
3D6A3793
BDD76D1B
3C5A3B87
3DC46B20
3D97E037
3CAB5ECA
3DE49056
BCCBF5BD
BDA44E76
BD3810CB
3DF233A8
3D86CE8C
3C338BD0
3D22DFF7
BD88B421
BAEC165F
3D930D7B
BDA966C0
3CC66D0A
3DCA6DFA
3C564788
BCD905F6
3D586304
3E00BF35
BCE8B7E0
3E067624
3CDAB831
3D80AF6D
BDC4F914
BE0D575D
BD971251
BCF5B60D
BD28213F
BD955AF7
BD9ACB32
3CC2F289
BDB97B40
3E0AE522
BDA2C91F
BD7C0935
BDC6391C
BD909313
3CB5D973
3D59EB20
BD663B89
3DFC71A7
BD6D961D
BD479589
3D51E877
B9F2F918
BD1193B1
3D33250B
BABF4CC0
BD750487
BD9755E8
BBBF9D19
BC7CEDEC
3D659C10
3C1BFF2F
BD90FA48
BD2C591E
3D849CC8
3C37D8FE
BC64AED0
BD94D822
BC84EA6A
3DA91F42
BD4B7132
3C4AC1A8
BD6B17E5
3DDF562A
3DAAAA76
3D53BFEB
BDBEB95A
3DB6A21C
3D7ABC64
BD9CCC76
3DC261DB
BD048B2B
BDC8756A
3D928B03
3D8F3534
BDB7C0BF
3DD207B4
3D97270D
BCB2D534
3D0DD0BF
BDA09D92
3D8F7C8F
BE107F7D
3D5B22BD
3D294CAF
3C03A7F8
3DA09453
3D80A197
3D083E77
BD729623
BDA26D0B
3DB531BA
BCE1922C
3DA5E9DF
3D5DA6AE
3E011698
3D6D13AE
3D21BA50
BCD3F18E
BDC3DE29
BD23A66A
BD799BEB
BD4C07C4
3DB0462E
BD0C4EE9
BC987C7D
3A6AE7A4
3DD9B086
3DCD6D80
3DB07A39
3CE97F50
3CE1D2B9
3DD19DB6
BA247F9F
BA84DAEB
3D6928B7
3DA3EE65
BC4119E8
BE0BD0ED
BD7436E3
3DB8BB82
3DBAFC9D
3E07A16A
BD819CDE
BE094754
BD56C329
BDD102FC
3D7A7447
3D9135D7
BC796A6E
3CFF096D
BB8C5DB3
3D77E5C7
BBBE06D0
BCB0B046
BC924F66
BCB2F52A
BDACC611
BD26C7A6
3DBC99DA
3D7A24FC
3DC44FD1
3C3F45BB
BCCB663D
3D9DD74A
BDB29A14
3BD691AA
BDA24389
3D6B0EB0
BDC52F77
3E024338
BD48F359
3DB024F4
3DB27F07
BD51AD45
3DD27CDC
BD3E1DDA
BDD0CBEE
3E080866
3DE5E41A
3D946F3A
3D282FF4
BC032017
3DD4CA40
BD7697D8
3D43039E
3DC84DF5
BD505604
BD8A6788
3DB86FD7
BDC2966D
3DB5858C
3DABD8CA
BC5F9AB0
3D9AD79F
3D34DB04
BD990F95
BA993A1B
BD927933
BD96F4DD
3DA3AF66
BDCCC2AF
3DF525C1
3BD90CDC
BD0A85CB
3DF2801F
3DA62BB0
BDD2EE09
BD6C9B7F
3D51E752
3D244C3F
BCE3AD0A
3C7DC48E
3DE850F9
3D1EE83D
3DB723D8
BC424587
BC5B0AF8
B9F62445
BD12AA07
3E394745
3CE486A7
3DE21F8E
BE07ACF9
BC9B561F
3D3A7E7E
3CA3875D
BD9083E1
BDA9940B
3DB0E401
3BB30F10
BD3902C4
BD860E1C
BCCCB2E8
BB1C6566
BB960781
3DB944A8
3DECFE6D
BCEF5882
3DAC740E
3DB655B4
BDAA7BBA
BD5EE69C
BD9071B9
3D4F09A3
3DA4A8EF
3DA701DE
BD414E8C
3C15C627
BD313A6C
38995AD8
3DF03AC4
3D562A82
3D15E7F4
BD1AE2DA
BD8FF5D1
3BA3551E
BD8CD7C6
3D1ABBDA
BD83D26B
BC060E24
3D138747
BE08B43D
BDB3D17F
BDB26836
3D37C7FE
BD97B8FC
3D9F7321
3D94284C
BDB2603C
3CE16E80
BD4AEB1D
3DA23B96
BD8803A8
3DAF261F
3DBD4BA8
3CABB34C
BD42C581
3D7C6EEE
3D359BBD
3D258837
3CF871AC
3DE7BFEF
3D6B40D7
3DB20DD0
3C27B93C
BDC594B9
BD109701
3D60D5EC
BC974744
3DD41073
3D23C7FF
3DB79E08
3D9B2B5B
BDF58DC4
3BED1C21
3D93F62C
3D58268E
BB09EC26
3DD88C1C
3C93FD23
3D9E859F
BC749855
3DB5F340
BBAAE17E
3D918667
BD8F7FDC
3DA79E56
BCE9A1D5
3BF32ABB
3D175B78
BD002445
3CD823CE
3C8237EC
BD8B1BFC
3DAB6DEC
BAED6ADF
BD67D61C
3D6C0DE3
BDA57B4B
BD82F616
BDB2ACD3
3CB20D8A
BC898595
BCB6D287
3C41AEA4
3DFEA40E
3B69F9AB
BE0575EA
BBE281A0
3D6E85B3
BDCF7D7C
3C2DB728
3D34C2BD
BD3F18C9
BDDBC8AF
3D8E0BA0
3D19251A
3A62A5A7
BD72BCD5
3DF7AAEC
3AB6D3DB
BD7EF0BD
BDE06763
3D95D242
BDDCC7AA
3D787D0F
BD6F14D5
BDB3DE1A
3C721AB6
BE0F1F6A
BD81BDCB
3D846DF2
3D5FCBCA
BAE3328A
BD8F9D2D
3C8E759A
3DEA2D89
BE0B52F2
BDAC6290
BD7F24B3
BB97A290
3C2C88D3
3B5D7515
3DB572C0
BD5B98C4
BDE6B7E1
3DAF3AB6
BDAEDC50
BD58D1EA
3D7C1BF2
BD519686
BD0F1BFE
BDBFF755
3C6CC788
BBEC911D
3D839BC2
3DD20F29
3DBA2629
BD316A88
3D82AA8E
BCE656BD
3CC7E028
3DBBA2DA
3D73AAD4
3DD32B23
BD0FBECC
BC46F1B1
BD68473D
BCBA4187
BB96B7FC
BBB3405F
3D71D3E4
3B16C8E0
BCAE4E1C
3D84FA62
BD8C50B9
3D8C30D6
BDB3DDDF
3D9E4A4E
3E017784
BBB77F40
BC7B9F74
3DE14BC6
BDC93B0D
BDA4D764
BCD4DBBA
BD8C5859
BD8994AC
3D3261F2
3D0495A4
3D4E29CF
3DDCB321
3D7542BC
3E251654
3D8A4F14
BE0012BA
BC3EDF98
BDE8564F
3D9BC99A
BD840434
3C01401D
3D0B98DC
BD7F5AD5
BD78A24B
3DAF18F1
3CBBA824
3DDEE6FA
3D8B2B66
BD8311A3
3C98FB6B
BCF169DB
3C2463BF
BDBA2217
3DD754AB
BD201E5E
3D003EC7
BD43DEA1
BDE8A2E7
BBCA3A4D
3D9B9B94
3DBC0F8F
3DED072B
BD838899
3D0969EB
3C95B15C
BD3FB518
3D0C2704
BD1D9F18
BDB9BA46
3B142BB3
BCFF557E
3D8AB570
3DB7484D
BCC3244F
3D1976D8
3E06872D
3DBA5B6F
3D008BF1
3DFA5CB8
3DB4B89C
3D9E738B
BD2A3530
3D85965B
BD1E002C
3DE2DBE1
3DF6B981
BB0E8841
BDEB8335
BD0BA087
3D1B3505
BDBD3C13
3D564864
BDB474D4
3D810A9D
BD97D053
3C2B66BF
BCCC4B2F
3CC3C41F
3DEDE2D6
BC08C297
BCA939B0
BD9B82FA
BD876E32
BD0C1F61
BD91893D
3D36FBE6
3D56AF79
3C4C9CE9
BDB3EF0A
BC8A7110
BD8FEA8B
BBDFBC39
BD8AD606
3C1833E7
BC7BE516
3DEDB3EE
3D713966
BDB61156
3DB19098
3C6F29AA
BCB15F1F
BDC5AFC7
BD276527
3E0BD4E6
BD40934C
3B0605D2
3DDD68CC
3C95E2B2
3DDCFB3D
3D66A42C
BDA073A6
3CB04CDE
3D12D60A
BB1DE046
3DAE51D6
BDECD14E
3DD22367
BD291F84
BC85B4CA
BCAD4453
3D9AC145
3DC3A4D1
3BE450CC
BDE84292
3CCE204A
BDB7B02C
BDBCFC5F
3E03F11B
3DE6CCE5
3C668BF4
BDA654DC
3C63F62F
3CDBE2D6
3E3CC3D0
BE0395DE
BE06E84E
BD5B3F53
3CD2760E
3DE23B1E
3D816A8C
3DC83839
3D9C2E62
BDC3BB74
BCAA3257
3DA50CA9
3E012A92
3D895253
3D9056D4
BD164927
3B9B0270
3C9DF671
3DDA939C
3C8ADCFC
BDA27CEA
BE0C9F8C
3D6082A7
3D815A42
3E4EB960
BBA2C7D1
BDF370E2
BD6C2ED3
BC8808B4
3CE474DE
BD77676B
BC546115
3D843418
3C945AFE
BD87EEBE
3CA681A4
BDA63C15
3DE6F7F6
BC813C34
BCC4F163
BDF1C251
3BDE3C43
3D38FD9C
BD61ACDF
3D936FB4
3DA95C2A
BDD8A09A
3D32142C
BD481425
BDCB18EA
BD71E774
3C81120C
BADDAD0A
3D0043CD
3E2A4383
BD97B706
3E1F1367
BDF691B0
3D52468F
BDBC1010
3C8943DD
3C852DC6
BDD41E1B
3D94C30F
BD1FCCED
BD3BF969
3DF93952
BD8AE39E
3DD5A541
BC9FF5DE
3DB49672
3E00303E
BD7BC40B
3D523E4D
BCC3FC56
BD43F44A
3DE76B15

