3E6A8B12
3D493326
BEA65BE7
3C9EDCC1
BEEB6B46
3EA81551
3DAE2BA8
BEC24562
BE32B68D
BF3C1A0E
BF23FA9D
3E71E3A3
BEFD257B
3C051C9D
BFF45398
BF13DF7A
3DEE122A
3E7EBD62
3E557825
BEE5E08A
3F714CAC
BEC06817
BF224F6E
BECEBA17
3D7FAF94
BDE809AB
BE0A772F
BE850E89
BF449166
3B1C4013
BC20A678
3DD1B980
3EA945DD
3ED4A052
3D894FCE
BE1B9387
3E31C88B
BE8FC69A
BF06F11A
BEF0F8AA
BE6990F3
BF1A6D56
BDB8168C
BF16B44C
3D9A2403
BED62614
BEB422E9
3D49D412
3C0BB61B
3DE54C3F
BF6A26BE
BF1341D1
BEFCD926
3E272B53
3D645B27
BC050F86
3BA22359
3F553973
3E89E8A6
BE36DDE1
3E1BA8B4
BEBCFF80
3D140E24
3E804446

