BDCF96A7
3E9435A3
3E5D2ABF
40722ADA
3F31FF2A
3DA144F8
3E23EBC0
BE4B2EDD
3EA37255
BEEBE290
BF4BD731
BDEC3924
3F83540E
BD8EA35C
BF35C6E7
3EEDB30F
BF5FB9B8
BEB6B020
BF1038C7
4007ABFC
3F328941
BE04D6F1
BF246E07
BF0139D8
3CB026E9
BEF408DA
BE1A49AE
BEB8D2CD
3F27975D
BE68F941
3EDEEEEE
BB964910
BF21F902
3ECF2D51
3E82C2F0
BEDDC0A4
BD67EFCE
BE9910C2
3EF6D97B
3F41F4C8
3F0D6BD0
3F45C435
3F155D83
3E2F501B
3EC6DE67
BDA0F26A
3E5BD2FB
BE1E5C72
BFAB1286
3E9B422F
3C36E82D
3E9EC768
3F107CD0
BF9E3384
BC161BA2
BEF92717
3F087E6E
BEC6C43D
BF43C13E
3ED9B1BC
3F77F952
3EDB2B8B
BE205CC6
BF184C1A
3EB17584
BF0D5A82
BF4EFB97
3DBB4F50
BE939358
BF7A8910
3CB8713D
3DFC2AE8
3F1A05A7
BE2C7F91
3E152336
BE860731
BE9CFED2
3CB8BD1F
3E5E254B
3D43B2B9
BFEAEDF2
3F4129CC
3F5F73F0
BD9396A9
3D29F7C1
BF8ACAF7
3E54D1D0
3F4C88A6
3F021F17
3EB1F9DF
BEDEC5B0
3ECAA5B9
3F1ED1D6
3F431A1A
BE023F0B
3E5DAB33
BDEA8185
BD7D1600
BECC96C4
BD404F6E
3FB9292C
BF5D608F
3D656D7E
BEA75D5E
BEE571EC
BE6B8296
BD451172
BD9E5E0D
3FB7050A
3EE2974B
3D0B02CA
BF3047A2
BEAE5535
3DA34E9B
3E917582
BF1776F5
3EA8FEB7
3EFEC47E
3E38E91C
3DB994F6
BEB94CCE
3EECE861
3DA1CA08
BEF5E2F6
3F9A4852
BE3C359F
BDF2DF30
3E35E039
3E05EE95
BD483D71
BEEF3B6A
BE885906
3F12161F
3E8DB81D
BE50A4AB
3F841BE8
3EC6E4CF
BD8B21D7
BE859F23
BE12825D
3FC48574
3EDEF13D
3D60C7D7
BF04748B
BE019D37
3EEE6F11
3E055DB5
3A0C377A
BE3BC27E
BF1E08C1
3DD73D46
BF289616
3F42BA59
3F9B0369
BF0147F9
BE8DA0E2
40150568
3F6DEE1D
BE9EE449
BF5E32C9
3F3B33FE
BCC4BB2D
BEB15DBB
3E11307E
BF48C2C8
3DEA490A
BF5CD1C1
BF2C408E
3D817089
BF2AAFA9
3EB51551
BDC1C943
3E8EBCB0
3CBE22F2
3E3A2C50
BE3B735C
3E2D3D9D
BE3F4032
3E6258B7
3E0B512F
3E933345
3E47861F
3EE14A1F
BE876590
3E8DDC8E
3F06BC98
3ECDD414
3E09FA14
3FBAEE09
3D883F78
3EB89F1E
BE5B00EA
BECC9158
BED8F660
3E356E76
3F38B0BA
3E2CE48E
BE6ABFAC
BD802383
3EFCA119
3F379528
BE3B63B4
3E89EEA8
3E9DDFBE
3F9207B3
BE2F4A18
BCE22821
BE0B0634
BE6D2A7B
3F72AD2E
3F0FEF86
BD99E483
BE88B473
BF3B7B3F
3F22DF38
BE902D06
3E90E710
3EAABCFF
3EF5ADAB
BF2F6D51
3F0C00D3
BEA016E5
BDF3A950
3D166B6F
3F17620C
3F1EFF7F
3F0E6B4D
BCED016D
3F59729A
BE9A89E3
3D8B97F2
3D48CAC4
3F098A83
3ECCC17E
3F32EF57
3F8B8A27
3FC3DE1A
BEBF59B1
3D5AB44F
BD4988AB
BE0014BC
3F5B9227
BDBD93F9
3D937A3C
3FA24735
3E909637
BF7B5262
BF4C3ADD
3F1ABE1F
BE96DFFB
BF45C2BC
BF0993BF
3E957A1B
3EF73552
BEEA9711
3E7E72A9
3F0F9EF7
3E7BB7CA
3D7F411E
3D5CEAC3
3FA6F96A
3E50ED4C
BF582BFE
BF0C3E49
3C7EEF88
3DFFB9B1
BF3A8C50
BE10FBE8
3F7B2DF9
3F709B62
BF08655F
BEE9FFCD
3ED45A61
3E8FE608
BF503010
B89F4F5A
3EFDD5A5
3ECD08A8
BF8AA97B
BF605AE1
3E1F23CF
3E5D202F
BEF3A142
3D2EE91B
3F7D1A6A
3E91C8B4
BEFED3EA
BF0D27F9
BEB796E1
3E6280B8
BF573846
B9D63C59
3F22ACBF
3EEAD19B
BF470CB6
BF2FD404
3CE30565
3EFA4F41
BEB429FB
3E29D5C7
3F34B8BE
3D8F34CE
BEBBC53A
BF003184
BDA51492
3F51E714
BF5D3F40
3ED70162
3EEC47F5
BDA78F28
BF2D67DF
BEF49DD9
3DA74052
3E0EE061
BE640EB2
3DA38BE3
3EBF8353
3E33F2ED
BE82AA2A
BE80EF19
BEF043AA
3F0D0DBC
BEAAC818
3EC38128
3EC950FF
BE630014
BE9C984D
BF3DF1BB
BD28F942
3EF9823A
3DD31284
3E06DB1C
3F24DD42
3E004D81
BE6B5CA8
BE798706
BE0EC790
3F24DEE4
BF267A60
3E2D9E0A
3F305A31
B94BC587
BF34A6E3
BE8D5262
3E7E0CB5
3F450773
3EE69EE7
3E84DE16
3ED672BF
3CEFDBE3
3EE3791B
BE4EC59E
BDEE48CF
3F0EA2B0
BF0630C4
3D6D54B5
3E974FBD
3BBCEC95
BF04EC39
BF3BC3B2
3E8D5387
3C953884
3B7FACAC
BE966080
3DC16DE6
3D923EFE
BDA6D869
BEB13F7B
3E184296
3F026BF8
3C24B0F2
BE5CC415
3F18382A
3DABAB40
3DF0015A
3E1BAB7B
3E6B9E25
3EA48402
3BE4B7CF
3DD15B7F
3DC4CF9B
3CB27361
BE264B44
BE99B603
BCCC1F93
3E3B6A6A
BF1482F3
BD77C1F4
3D535093
3E8127B2
BF0106B3
BF51C927
3F0F9264
BE9DC828
3D8ADE1D
BE59CD00
3E0D97BC
3ECF4128
BD9570E6
BCD5723B
3D7D9EBE
3E69CCDD
BF29623F
BD84889F
3E222123
BDE1B897
3E0B01A0
BF440E25
3E906CA1
3DCF7585
BDB41577
3E2E3212
3D6DA10D
3EDC7676
BE4DD62D
BDD66497
3F0A8538
BECA2E6A
BF12AECD
BE89F2E0
3F267796
3E9CF958
BEE1715B
BED98333
3D9D740F
3EEDD401
BD7D4AEE
3DC5676B
BD663582
3E3FC188
BE66EF9C
BEB70A1A
3DC4AD5E
3D727B54
BF140B6F
BE5EA1CB
3EDD8742
3E6C1752
BF291ADA
BEDAEDEB
3DF05684
3ECC5CD3
3E3DB68C
3E5E9911
BE0ACCC8
3D1871E5
3E1AD772
BD988336
B9BC7FAD
3EEAC147
BF1A4154
3D9C2C45
3BFDCC64
BDA5726E
BEDB365C
BF4DF379
3E4D62FC
3E9AB192
BE51A19D
BCD2EE51
3DEA5E35
3D5E1F93
BDA2A5A3
BEB26A71
3E3BF276
BD2DB51F
BEEEDE3C
BE0CE240
3DC33067
3E2BD34C
3E7A98B1
BEE782E9
3EB25E2B
BDF143EC
BD57A5C3
BDC6A529
3E33CDBB
3ED57D7A
BE3D32EA
BE322375
3E275A3D
3EAA6DDB
BF1D1033
3D66CD92
3BF7A1A4
3E31E2EE
BF366337
BF3736B3
3EDC9829
BE52399C
3C23E9BA
BE8CD21B
3E20F1CC
3EBF283F
BE0FE2E8
BDA979FF
3BCE431A
3E5DAE1B
BEF53402
BE11C124
3D89E68D
3EC23ED2
BF2DEAE0
BF2605B1
3DA951E2
3F1C35E7
3CAEA8EE
BDAA16D3
BD649A99
BCF52EDA
BE59E1A1
BDC4B570
3DA29CB1
BE011C65
BF02F6A8
BE9A2154
3F3C322C
3ECA8FBD
BF092BAB
BF0717B0
3D98DECB
3E401189
BD78E563
BD2A0C59
3D683279
BC71F1E6
BDCF8FED
BE88F558
3EF08C2B
BDE97415
BF334C82
BEFB9473
3E5104A1
3EE85739
BF564A96
BF0EDFB6
3DAC057D
3EBECC94
3EEA3CC3
BD33F833
BE198FA0
3D8016B4
3EA408B6
3E9791F2
BE3153B8
3F209E66
BEF27898
3E0A6A6D
3EC9156B
BE714AFA
BF20953E
BF19AE4D
3E01CDA5
3F13AE6C
3E803120
BDA7B4ED
3D0F3571
BCBA977A
3E34A6AA
3E577F3F
3E98C6D0
3EDE0C2D
BC38C1E7
BE8188C3
3DDB1D55
3D816040
3CC797AF
BCC5D45D
3E321441
3CAEBCA5
BDAAAE63
BDD61D2E
3E0CBAF4
3E899CC0
BE143F31
3DA91FBA
3D72495C
3FA4FD20
3EF30DA3
3F376DE5
BD11C2A2
3C37D1AA
BF38F8CD
3E681BF5
3E4F6409
3EA6E56F
3EA1B6F6
BECE7E2A
3DA008E5
BCAF4C6B
3E64085D
3E7EDB1A
BCA9AA39
3E67E13E
BEA6735A
BD4A6D1D
3E5E2B49
BE3654C7
BF250B61
BED69C1C
BC7E3CFF
3D156FB7
BE3FAF4E
3E1A4265
3EA6CA68
BDAAB6BC
BEB54F1D
3E2D8087
3E678DE2
BEB4C289
BF16D889
BEEF22E7
3F47D74C
3EB543D4
BF32234C
BEAE8880
3DA8B2C4
BECF94E9
BED61641
BE3D92AB
3E1185AD
3E9E79BE
BF028BD6
BD8BE15D
3E632A58
3ECE3090
BEE5DB6B
BE9A20F2
3E82F0FF
3E609880
BF3BAABA
BE8F8CE4
3DF18F96
BE9A8703
BCEF1F1E
BCA39853
BCB97BDB
3E01A163
BEB67CB4
3E74199D
3D0E2AA9
3E9AE56A
BE9EE1D1
BDF72B1E
3D1E3508
3E585441
BEDB4C63
BECDEA2C
3E624860
BE39E276
BE52ED4C
BE939023
3E3F7E28
3E82F953
BEFB2F33
BDD91FEE
3E3201E8
3E2CD83B
BEECF5AF
BE0DFF35
BE09D946
3EB195CB
BF2BEC7A
BE9358BA
3D142F7B
BD2D8E90
BE2B5ADF
BC845239
3DEDF4FA
3E6EC1A3
BEB2C57B
3E86390A
BCF3B965
BDDA47A9
BEA2680B
BE4AF73A
BD44EF5D
3E8E1D9E
BEFBF5A2
BEDFEC6E
3E369D07
BEAC2136
BEBF7EF3
BE991A96
BD3D1E75
3E21FF09
BF0699B4
BDA6291D
BBB69583
BE3DE7FF
BF043C5B
BEBDD4F4
3DC57FBF
BD07DD91
BF0EC7C7
BEA7EABF
3E2EE9C1
BEA05AAF
BE1CD498
3C6EE932
BD32F8C3
3DF9AAD3
BC30A987
3E64366E
BE18109E
BE686B53
BEFD87B8
BE48C90D
3E517854
3D02EF79
BEF7CE52
BEB06B2A
3CC461A2
BC953953
BE494056
3CC5FC9D
3DE19E03
3D97A19D
BDF4FF98
BDF9FDD1
BCD1361D
BE0F4CC3
BEC5BFCF
BE288F40
BE895C10
3E6DF6A5
BF01C6AB
BEA51EDC
3D952569
BDC4DC74
BE003A86
3D933C1F
3C2B1D3A
3E1A8DA9
BE16A43C
3E437A0B
3E24E5F4
BE5D353F
BEEFB03A
BE78D3DF
BE1F7A23
3E8BB721
BF0C9E7C
BEE45EDD
3DF40067
3DDFF15A
BEB326BC
BE9D4AA8
BE2D7831
BC776E27
BEB246AE
BDC25AC3
3D93FF24
BDCE121E
BE9B6630
BDEF1589
BD8442E4
3E5C96D6
BEDD56C5
BE9784BC
3D0E2D97
BE7BF3AE
3F1BB861
BE28962F
3E1C78A5
3C4CC9ED
3F40BEE8
3F50C8BD
3D333B74
BE201567
3F4EF1AD
3F40E918
BE4F2464
3C20A082
3F6DC12C
3F50E610
BCCF5D3D
BE7BEE37
BE936A9A
BE93ECBC
3E9E2DEF
3BB37177
BEC8EDF8
BE7FB140
3DD9CA5A
BD73A663
BCA7C193
BD109200
BE4AD9FF
3B400889
BDF3CAB2
3D85C36E
3D80A2F1
3D27769B
BDBAA185
BCAC3F89
3D66BDA4
3D1903E6
BDB7C94D
3E2EFB49
BC17A51D
BCE7DD66
BE3E8E3C
BD0B752C
BBA4B875
3D459748
BE16654D
BE042E9B
3E21478A
3D46F1CF
BD16CC65
3CBDCF4A
BCD833EB
3D7A6688
BDD86B26
3D4A7B28
3E22ACFD
BDDD7C56
BE3A6328
BE5102C6
BD0BD190
3DE4D9A7
BD782BD5
3D90CB0B
3D086CF5
BE388BA7
BDFDB775
BB8E7EB2
3D681DD2
3E35219F
BE3AA819
3E2973A3
3D3BE728
BE22A5ED
BDD1507F
3C05DB34
BE1896E8
3BC80068
BC51F7EA
3D8CCAE9
3DCB3D5A
BD7774BD
BDF9D4DE
3BE81E0B
BE00D975
3E551B93
BD88BCD7
3D210947
3E209A17
BE555A2F
BD8BE266
BE5662EE
BE3E39F2
3D8DB251
BE1026AC
BDAF81DD
BDCF5A94
3E2B16EB
BD47DB63
BE0C063E
3EA3C1B7
BC1A53D0
BD49DE25
3E2D398C
BD39FB67
BE4ADBDB
BE0D17B1
BE19513A
BDEC6E46
3E32A4F8
BD982CC4
BDE3CDCC
3DFEF9A5
BE0FAA7B
3D4C717D
BDE15EBA
BD61CE79
3E18A8C3
3DB473ED
3D8A6D48
3E099779
3DB5B9CF
BD15C617
3AB5C057
BBB2B18B
3D43AB68
BE36E457
3CD61D5B
3DA54F54
BD601CB3
BE3DFF66
BE279E53
3E916F0D
3CCD8385
BD51821F
3E1A50EF
3E0E4799
BD981A47
BE1ECE24
BC1BE123
BDC7D5E4
3D52F168
BE01EC99
BD0E4AA3
3D4787B4
BD95B0B0
BD2B5A1F
BE495DCC
BD6E70AF
3E05092B
BDC1336D
3E21BE97
3E00ED06
BDB2F454
3D2970D1
BDEF3261
BE51485B
3E44CD6A
3D89EE63
3CD445E4
3DE58275
BE090C30
BD051601
BE2EF384
BD9525BD
3E610C5F
BE15A602
3E08319B
3DD832D6
BE62625B
BE38C741
BE11B32D
BE47D394
3DB949BB
BD99FA6E
3D8D454E
3E36DD04
BDC7A80C
BC80143D
BA15DC20
BC9B3388
3DD14525
BD9EA9EF
3E320B54
BCD18ECA
3E42D096
BE3C8808
BE350830
BD7563FF
3D65076A
BDDD45DA
BDAD977B
BD46D746
BD1F2BB0
BD97F5F0
BDD9E355
3ED60325
3CD8B095
BD1D0F33
3E0014AB
3BE1D833
BE599239
BCCE2F67
BC0138EC
BD51AAA7
BB9DB8C2
BD281E73
3D1DC595
3E4F65BE
BE0DA990
BD6456B5
BE5650E8
BB3ECF3B
3DBA7C51
BDD19102
3DB73CC0
3DA53A75
BDC3BFC0
BDAE45CF
BE55BAAB
BDAE533A
3E37D97F
BE1ADA02
BD06D2D5
3DF734EB
3ED9143D
BD749D72
3DFDFC99
BD8D6C3E
BE0310FF
BCBED5C5
3DCDC794
3DE8C670
BD0B417F
BD28B424
3D9F3455
BD26860C
3C07F9AB
BDFF208A
3C4B5169
3C915DD0
BD2C3B08
BD61F296
BDB39E7E
3D26A6F3
3CCE5FEA
BE09ED6D
3E1502D5
3DAF2E8E
BDB6DF72
BDE2959D
BD2F0A13
BE0A5DBF
3D85F6BD
3CFF6AEC
3CD0AF67
3D48A45F
BDB156CA
3B3CBC12
BBDEA3B9
BDFC2772
3E769831
BDED73D3
3DD66893
BC868980
3E94A73B
BDC4E569
BE00288F
BE71CDA7
BAA4A823
BD292899
BDA1D30F
3D912E0C
BCE78208
BCC663B4
BD1682A5
3A40EFF0
3E3351F6
3DCD1FD5
3E5EFBE7
39CC6FAF
BDC260AE
BDE5A25D
BD8BDA4D
BE1D06C8
3DA8580F
BDF3DD1D
3D62FA6C
3E05BAB2
BE773BAD
BE0D3BB5
BD40F666
BC1A8A54
3E0C9E07
BE04173A
3E49BEA1
3E26AFA8
BE6F04F5
BD8E2BC0
BDA3A09A
BCA9E54B
3E0B0CFB
3D6F9154
3D7EB5CE
3DC9A23E
BD56F62B
BD41A9F8
BDF6F1EC
BDAA9E20
3E13B2A3
BDE96E36
3D412610
BDD0FFF1
3EE86421
BDE44037
BD4F16BF
3E957AAF
BDBAB615
BD941F9E
BE26AFD2
BE21F955
3E12D923
3C9CE509
3E3EE68C
3ED0C93B
BE0872FC
3D8B09F5
3DBDDBE7
BCBA470C
BE1AAB58
3DA1B43F
BDC0ACDC
3E8DBF5D
3D4E53F1
BDE9B3F5
BC09F46F
3E167E20
BCFB0D9E
BDE270BD
3CF485D5
3CF25019
3E1EEC22
3D5E59AE
BC359CA3
3C7C9A8C
BDD02E2E
BD057A76
BCA2C741
3E883F73
BD4A0861
BE023041
BDB386E7
3BBFF837
BD388DA5
3CEB4780
BDD14200
BDAE9F18
3DEC7385
3CBCF331
3D9A8C89
3D294812
BE3D9811
BDCF0CCD
BD007544
3BAD0E46
3D0832D6
BDE54054
BCBFFA20
3C949D17
BE2D6C26
3DDC9B39
3DC7E77C
BDF59B23
3D0DB16E
3D9E15AD
3DD11B0A
3E27D1B3
BE2C1F28
3CC33915
BDD51104
BE35DD97
3D24CAE0
3DA84FD6
3D62BDE4
3DC74860
BDAD1626
BD955D78
BD87BCBB
BCE7B24D
3E15BAF0
BDEB6ADF
BD5925FB
3E454CCE
BD7EC083
BCE33FFF
BDE56FFE
BBE80EA0
3D948EC4
BDC06E62
3D04ED37
BCDC4DC2
3E85E126
BDF2571E
BDB0891E
3D5E9F8B
BCA8CB20
BD5621F2
BC8E2C7C
BCED64DB
3DAD6282
3D9BDC45
3E3228DE
3E00035C
3C2F02B3
BB186509
BD37E227
BDAD25D4
BE0A9BB2
BCAB18D4
BD9955C0
3DF79D4A
BC0D6B20
BDBFD0E6
3DBDB00C
BD7FA1BB
BE1A8C5B
BDBA90FC
3DCC28A1
3D319A6E
BD5039B7
3DDB5740
BCC10750
3CB10E65
BDF16882
B8F98800
3D6BBE1A
BCC3131E
3DF0ADC6
3C8999DC
BD745CFD
3E07BC73
BCBBE6AD
3DE4BF25
3C62A6F3
3DE19121
3DE5AF88
BD11C1E1
3DD06B80
3D834ED9
3BA436F6
BDCB8494
BDFE0C9E
3D97FD64
3E1706BD
3A9E03B0
3DDF9F96
BC68A1A2
BDC2A392
BCA611E8
3BE9B940
3D9A6A8D
BC62694C
BD5E4A0C
BDDF7AC2
BD3B3325
3BBEDE96
BD500A14
BDF106C6
BDBC6FBD
3B9D4811
BD68A27B
BCEE0E01
3D9165A0
BD691DC6
BDE165D3
3DA42B0B
3D22A5FA
3D792F9C
3DB7AEAA
3D7607D2
3D950272
3D110E72
BD27B030
3D62DB3D
BD5F1FCD
3D3EFAED
BCF7533B
BDB1C623
3D64BF2A
BD3D8922
3D1F2EFE
BDE37CC0
3CB1FE68
3D97633E
3DD5DCC2
BCC83D3A
3DD33B89
3D42326C
3D579142
BD05B5F1
3BF74298
3C9134A9
BD425DEC
3BAD0F00
3C53E978
3D11436E
3C77FB28
3C9C7632
BDF3C76A
3C2A9FD4
3DB514F5
3DAD5EF1
3D8F309F
BDC19710
3D90C02D
BDCB9D5C
BDC83072
BD6202B8
3D9432C7
3DBA5D8B
3DB31A77
3CE6AA6F
BD9F840A
BE04DFA6
BDC23AC8
3C9B5F92
3D01F1C6
3DABF8DD
3DDB2013
BDA45872
3B4F75C0
3CA1BC21
3D99B6EF
BD0BA960
BC9AF46C
BD73E41C
BC271960
3E350796
BBC03050
3D5C9B12
3E33FF9C
3D70143F
3CD97BDC
3CB8DE54
BDB934C1
3D301658
3A6DE480
BD0D6E85
BD55AB16
3C4C65CB
BCFAD030
BC3843F8
BDB0D404
BC522414
3D235EB6
BAB80ED2
BD8A228E
BD85F20D
BCAC4144
BCAE33B4
BDB297CE
BDFA67BC
BDD041B8
3CE5D1F9
BD8C4F8C
3C37EFCC
3DE71FFB
BCD346C8
BDDA8F46
3C8A0645
BD558CC1
BD3CEB3D
3D0ABF6B
3C006A66
3CC9413C
BCCA5290
3D01503E
BD6899F0
BD94D67D
BC522B41
3D88926F
3D9C99D6
3B989840
BD42ADC6
BD6B797B
3DB6CD0A
BD524C4A
BD1B38A2
3C33C56A
BDD8C64F
3CD4FA74
3DE675F7
BD49B098
3CDFC09F
BD910139
BDB03FE3
3D00B954
3D723E8C
BD6DC21F
3C079DD0
BD793EC5
3CDAE98E
3D2C9656
BD5FEEB7
BD7272E0
3C50284B
BCD3FC6C
BDC17D38
BC7136C8
3C385E18
3DAFE0D1
3C3D4ED7
3DD38531
3CC040CC
3DA8EF2D
BDB70632
3DDF80A9
BE038CF0
3D9E6E9D
BCF739C3
3C79E42F
3CB940A6
3C2A5690
BC88AE64
3DC404FF
3D90C7B8
BD5B9A82
3D99C92B
BD9608CE
BAA8010C
BDBD64B1
BD8A6DF4
3DCF94FB
3D96D5BF
BD948990
BC349E0B
3E07832B
BCC85CFC
3D859EAB
BD9A3AC8
BC98AEB8
3D369E22
BD358BF6
3D76393A
3C0E0E15
3C5766BA
3D34BF96
BC1C80A0
BDD20BD0
BD6D13DA
BDC23F7C
BDD500B2
3D4A93F0
BCC0978B
3DC84D61
3C8F6034
3DA5D351
BD6F5096
3D27F246
3D246950
3DDDFD23
3D8781D5
3C133D68
BD92AA68
3DA06841
BCFC879B
3DAAE821
BE037060
BD189B78
3DA6D020
BD6578AD
3DB87D8D
BDD244B0
BDA6AC58
BCC4527C
3C386117
BDA666CA
BD607F89
3D59AB8A
3D9D2F1B
3DB7C3F3
BE1BFED7
3DB63E07
BD3F7A41
3D89C911
BD47AE94
3D5D1662
3D9B7549
BD5CD290
BC48A9C5
BDDD9340
BE1323EF
3D42C828
3D01EE73
3D0D0EFA
3C142808
3B6CCD20
3D81FC26
3DD870C9
BD9D79BF
BDE6E4EF
3D1B9505
3D66FB02
3D80613D
3D95E901
BD5DF4B8
BD557134
BE0D64B2
BD588002
BCFFDB26
BD831AB9
3DC6E23D
3D313A8A
BD6F246C
BD9F1CEA
BDAFEF6F
3CC2DEAB
3D58D754
3D9361A1
3BCD0D30
BD722892
3DDCAD8F
3D46FE8A
3E3C386F
3E1D062E
BCD9DC44
3C61F838
BC4BA430
3DADF5B9
BD00D854
BCE9C0E0
3D885573
3D596054
3D79B3DB
3D614136
BD961197
BD7C674D
3C9ED548
3DE00445
3DDD86B7
3D798AA4
3A56581B
BDBE2131
3DAADDD7
BCF020C8
BDA08076
3B9A42E0
BE0D102C
3D707189
BD11E2A5
BD258254
BD3D29BC
3D8063C3
BD0DF16C
3DD469B7
3D82C1F3
BDB43FB8
3D04C52F
3D8F3809
3D802341
3CFC5E1C
BD7CAEDC
BDE89F8A
BDA8E7D2
BD4896F6
3DE239CB
BD3FE6E4
3DC73511
BCFF8D88
BDC05CD8
3DE7CC01
BBB949FE
3D3FF2F0
3D84A26B
3CAE236C
3C361AB8
3DA3773D
3D443ED2
3DA09333
BDEAED5E
BD4D3D04
3D716CE8
3CB3420C
BCB81C68
BD44EB02
BD6DC544
BD4481E8
BE0D3251
BDD370A9
BCA17718
3DCC05AD
BD8840A2
3DA2C5D3
3D09C9BE
BD9042FC
BD98D88F
BDA92886
3D014400
BDA9AD70
3DB9295F
3D5B936A
BD664C24
BCFC5D14
3C5A3115
3D366C14
3DC31A2B
3C3E3898
BD1F0428
3DE603C9
3E6951A6
BD3C41AE
BCE3B316
3D118E98
BD193FF0
BD9234AF
BD141BC8
3C40AA58
3D418DB8
BC74AD78
3BF05BBD
3CA9D0D4
BDA7CD4B
3DC9665F
3DE69DA3
3CDBB6AC
BD67E060
BDD2F80A
BD9E822E
3D8E0759
3C545D13
BCF8B7C8
3DC0E09F
BD0133D6
3C66370B
BD430C08
3D1B1666
BD90E644
3DAFD2AD
3D6FB016
3BB7B0A0
BDBD6FB4
BD92E982
BD912B34
BD32D551
BC0F9BD4
BD879497
BDCC5C93
BD4F8E2A
BCC17204
BD5BE764
BD32B6AC
BD062741
3D87C77D
3DC80631
BCBA2404
BD42DC7A
3C2779E8
BD9698C8
3B060C80
3D3647E6
BD13DB08
BDA609F1
3D88FE33
BD514C62
3D3A2C6E
BE1E6DB9
3CAC7EBC
3C0EF9AD
BDDB1A7E
3D8621C9
3C87FFA4
BC5349A0
BDC7CD16
BCE3B5A0
3DC8176F
3C4CCF53
BD5B13D6
3D1F3F29
BA62F300
3D146486
3D1B75AE
3ABB2F08
3BA08E60
3BE6BB60
BD124C75
3D850D57
3D3DCE76
3D842D07
3DE00E17
BD468E02
3D9D10D7
BDDBB012
3CC6FCEB
3DC64987
3CAEEAEC
BCFFD824
BD905E56
BB92CA66
BC888A88
3D5F8BA9
3D6836D4
3DCD009F
BDB0DD68
BC3AA3F8
3D28507E
3E34CB24
BCD87F04
3D6FAC61
3DDBD715
BC05514B
3B286AC0
BDDA9B4C
3D3B5BE6
3E145A67
3CC24A44
3D462E38
BBAAB5F8
BD0112E7
3DE19F45
BD48F29A
3CAFE06C
3C977AED
3CB0F63C
BD1F0804
BD5849F6
3BFC29A4
BDCCEDEA
3B841730
3DCFAFC3
BBE0BA22
BCFD2FA0
BD3A0646
BDF2CCD1
3A93A630
3D4668CA
3DA10745
3D019732
BE1C89B7
BD88468A
BDDE196A
BD80B32B
3D9F7072
BCF63640
3D1E2D7E
BDBA3525
3B9D6890
BDCEBD64
3D96496F
3D63160C
3DFDDF4B
3DA1B8C9
3DDCD1AF
3DB9933D
BD0AC168
3DB12079
BD69F620
BC1EC813
3E0BF1B2
3C514A88
BDC75C4D
3D8F89D9
BDF530F2
3DB61C8B
BE0CBE0F
3D7610B1
3C778F4B
3DD3468F
BDB501C2
BD999744
BE04A232
BD6F008D
3D8555CB
3DC7CAA9
3D92B2D3
BDC022C1
3DD1505B
BDC8D0E4
3B2EC65B
3CC6D2E4
3D1BA9E6
BC9C0D2E
3D2EBE6D
3DCE524D
3C27D3D8
BDA9CF2D
BE03BD69
BD6DF7C4
BD67435B
3D17FC80
BCBE369F
BDD70009
3DC7FB79
3D085E12
3D102ED4
BDC8664C
3E39AC7E
BB2DC700
BDE08D7B
3D8708F1
3D31F022
3DAAEAF9
BE191BED
BDB5C75E
3D6F3E42
3D206E80
3D7BDF0C
BBD49BF0
BC519AA8
BD7DD41F
3D11C83A
BD3C526A
BE11B301
3D0C05E0
3D47E405
BDC8E940
3D8A1ADD
BDCB42A4
BD288CF0
3DAB6E13
BDE7E65C
3D9511FD
BD3DD062
BCA01F0C
BD431690
3C068A30
BE1C5393
3C25E970
3D668CE3
BDD69802
BD44ACE4
3D5AC9A6
BD3EDFAC
3D416702
BC835768
3CE7E63C
3D97535F
3D92D8A9
3E0BE76A
BB84E830
BD95EABA
BD113E3E
BC360034
BD728222
3D2FFA73
BD4B0128
3C668C73
3D3B7E82
3DE23DE3
3DCEF965
BE016942
BD94B2C9
3DA456BB
BDD2F5A1
BD481220
3B72CCA0
3D7028E6
3D0CDD8A
BDACA28C
BDDA2F98
3CD04885
BDB89296
BCB3D6E7
3DD18AE5
BD003C0C
BD3D6A42
3D9934A1
3D9168D5
3D8F0826
3BA00CB4
BDF6C121
BDCF7F07
BD5C88B6
BD7D46D2
3DE072A0
BDAE529C
3E0C719E
BDD2C559
BD23C699
3DCDA7C9
BD8CFEA7
BBF53940
3C8A7A70
3DA7CF05
3D9C34A0
BCDC7ABB
3D4CDEE2
3DBFA18D
BDE38A77
3DB487AB
BB7303A8
BD4CFDAA
BCF06053
BDA88051
3DC8A973
BD1D38C4
3D720E7A
BCB8D718
BD46CF50
BD13DE6C
3C9937C2
BD9A56A3
3E0723A9
3D9CD9AF
BC2EF888
3C94D46C
BDDFAA96
3DD52409
3D5EF3F5
BDD6F088
3D42AD29
BD638569
BC9CEBA4
BDD2C632
BD831E52
BDC484DA
3D648061
BD5B7210
3BDF6FCB
3D75AD66
3D73EDEE
3CAE2AE4
BDA86EDE
BCAB5C10
BD7ECB70
3C8E4114
3DA36A4C
3CFB47F4
BD63DA97
BD8F80C4
BD63D730
BDCC3896
BDA19CE8
BD078C18
3DD602E9
BC68ADA8
BDA3203A
BDE08ADC
BD82345B
BD076096
BCB6F122
BDBEC940
3B638915
BDE16DD9
BD8C326A
BDA1EFE2
3D09893A
3D7673E6
BCA7FB37
3DBC06E3
BD6A2B4C
3D3E0E86
3D8B824F
BDAE7762
3DB87BA5
BD1654C4
3E35C4E8
3E19A69B
BD693FFC
3D879909
BD974502
3CE7F654
BD86AB3E
3CFE97BC
3AE09491
3DB7086D
BDE9E6FC
3DA8CFF1
3DA0CA69
BDC6D786
3DBDEAC5
3DE2F20D
BB94AFB9
3E519412
BCA4D0BE
3DB2BA5B
BDD14F2C
3B362440
BD89C615
BDB82E8B
BDDDF5FE
BDB2A934
3D2B9759
3B62E2A0
BD56F22D
BD64160B
3C7DE073
3CE7AA1C
BC3E5B51
3CD5F4AB
3CA087DE
BD6029F8
BD866BF3
BD9FEFD8
BD339382
3C056C58
3D6CB086
BD2D451A
3DB33FFB
BCB136D8
3DA993D7
BDBA0A7C
3D6E053E
BC765650
3D2DDEDF
3D3C2220
3D46DD31
3D781B7E
BD0DCF88
3D4B228A
BE043E36
BD91349C
BCEE2CAA
BDEDA537
BBD846C9
BC1BA5D8
BC716D68
3DAE8B01
BC0AF932
BD94F3E0
BDB60EAD
BDAB9388
BD3DEB1C
3D96AF9F
BD76DCE3
BDA58FB0
BE03FC52
3DB7F335
BE078A3A
3D0A6A20
BBE32E07
3D495576
BCD8CF8C
BDB8EB5F
3D24ABD8
BDD2F1AA
BDE50BC4
3DB87A77
3E07C713
BC75F740
BDA33504
BCA1F8B8
BD1C37C4
3DC3DB4B
BDAC7F4D
3D607A74
3DBE9E73
BD819B8F
3CED331C
BD370E0A
3E0BF116
BD4F46B4
3CF44E02
3D6201FA
BE03764B
3D083CA2
BC063378
3DC32719
3DD18696
3D21792A
3C8F6900
BCF123F5
BDD2D466
3C3FBA78
BD86117A
3D2EA032
3E149BD5
BDE1E469
BDA4D0D9
3D4E980C
3C534F6A
BD4EF3EA
BD9FAABE
BDB013C2
3C11165A
BD63BD89
BDBFA24B
3D569CB8
3E0D4981
3CC7C0B4
BD7D9DEF
3D0ED26E
BCAA2769
3D809C5D
BDF7B0C6
BCCEF00C
BCD73FD7
3D852071
3DB176E3
BD92AA8C
3D1FAD60
BDBAB65A
BCFB38D3
3D4AD5C8
3DE34E01
3D14E0AA
3CA273F4
BDBB947E
BCF26903
3DDC8207
3D0F18D2
3DA6F5D7
BB6A30EE
3DE36025
3D53F366
3DC7D96F
3D5620A2
BC216088
BE146671
3D4745DC
3D257735
3CDC314C
BD9CD72E
BB306B00
BD2602A4
3CB0061C
BD950B81
BDEBA657
3DA15264
3CF5DDEC
BD77947A
BD9CC4D6
BC4A7045
BDDEF78F
3D00291E
BDBD7C60
3E015FAC
BD1EA242
3DE14FC5
3D527552
BE1092F9
3DDB7A65
BDFC0AE2
BDD9F312
3D9D3574
BD622CF1
BDB150F7
3D10BD4A
3E1EB3CB
BDAF8053
3DE0F406
3D004B22
3C2FA4D5
3DB97CDB
3DD75C5F
BC771260
BD7DC50E
3D45431E
BDEED950
BDFD25B3
3DC49963
3CE36584
3BB60600
BDD8E944
BD8505B9
BBBD2E10
BD4BE03E
3BBD6118
BD1E4654
BD9EFC3B
BC003DE8
BD5F78F3
BDC4B6BE
BD87641E
3D9092BD
3C71E582
3E0A9D8C
BCE90EE4
BDACDEB4
BA0EAE80
BD477846
3D3F5806
3C0F3BCD
3D933AA9
BD9A8157
B9767C00
BD0AEE92
BDD30534
3C976051
3A204C00
BB569D98
BD5ABA9E
BD91A3FA
3DAF6513
BD037DEE
BDE2C875
BD8C1404
3DE0F205
3D140716
3C74FC00
3E092533
BD81134C
BDC88228
BDD1E09D
3D5A6CBA
3D403306
BD822E64
BD99E962
BD615DB8
3D39D77E
BD0955E6
3DC0620D
BDCB4DA8
3C5788E8
BD502F22
3DAD78E7
BD4B0D2E
BD9BF48E
3DB17D67
BD95FB32
BDAB92A2
3D8A91B9
3AFFFD3F
BD3B082C
3D84B3C7
3D8F84CB
3D55DCEE
3D2D9F9A
3D5CA3B2
3DBBE1A9
BC3528F1
3D6188A4
BD80D5B4
BD95AF3C
BDACBF5F
3DD6127B
3E27BFDB
BD53BEF9
3E3297D6
3E365A71
3D585C60
BDA596A5
BD82577A
BD7B5C94
3D98CF40
BDD2233C
3C8CB088
3D5667D4
BE037ECA
BDE5225B
3B1B06E0
3D14D286
3DCC64FC
BDC66F3C
3DE1563B
3D2C5618
BE049A4E
3D88504D
BD50D4C4
3B13CCE0
3D82BAC6
BD9896D2
BD3AEC9E
3D879D2F
BD954650
3D8193F9
3D48987A
BDC69149
BE172BA1
3DB89BD7
BE04691D
BCAA27E1
BC7B08BC
BC862614
3D8DBDF9
BBA03F60
BCDD1F48
3D148FD6
BD16DE3F
3C99E3A4
3DEB9A91
3D2CA60A
BC8911A8
BB48FCC0
BDDAB480
3DE913C1
3D7F2B3D
BCD8D940
3DCA7779
3D9D1BC1
3CE2EE24
3DBF4575
BD2BB6A2
BD03320E
3C227CA1
BDF765BD
BD6198DA
3CDABA14
BD49A79A
BDAAF703
3C8C5CD9
3DBA0039
BA8B445C
3D0DC754
BD0EDAF5
BDA43997
BDB9DE79
3BD6C700
BDC662AE
BD055F9C
3D22CFD6
3D5E54E8
3E0E19AD
BC8F0864
3C1F27E8
3D5EC6A6
BCC983E8
3D4EF1CE
BCD1AE5A
BDD8EDA4
3CA64FCF
BD8973BC
3C0B1980
3D573456
3E3BBB20
BDBB568C
3DAC6353
BC8C5088
3D0F7732
3CB3284C
BDE3212A
3CD6FF64
BD0B75C0
BDE256F6
3CC0A2B3
3DAF6273
3D7B3704
3C58A1F8
BD2C372A
BCAE4F6C
BD8417A0
3DAF973F
BC88060E
3CB2517D
BE06F6F0
BD846BAE
3DCC11C1
3DE7459B
BDCA2F24
BD9308DD
3D71E0F2
BDC0270F
BD509DE4
BC8771DC
3DCB3A13
3DBB18B5
BD57B2E4
3D745092
BD757688
3A91CEB7
BD942FC4
3DE3C18B
BDC038BD
3D8CFCF5
BD1FB89C
BD4D8CC2
3D3A84EB
3C691834
3DC84657
3D5A7F22
BD9649B2
3D0EDEB6
BCB404E9
3D327276
BC3806C1
BDB6DB88
BD15806E
3D0AC9F2
3D453762
3D170506
3B3CC9DA
3DB1388D
BC2E24F1
BD1AAD36
3DA07B94
BDD2E1C9
3D433E86
BB9B3FA0
BDEB9D2C
BD297F0C
371182F0
3D835FC9
3D8DADCA
3D6655AA
3D33DFF6
BD3B8F78
BCB72228
BC19E258
BC9B438F
3BDF995E
BDB0DE95
3BD67340
3DC1C947
3D3FB6A6
3E05B922
BDD81298
BD251D25
3D5BC71E
BDD221AD
BDCFA1B1
3D9655D9
3CA664AC
3DF2EC62
BC864234
3DAF767F
BD35B6CB
BD60E600
BD853EAE
BD885442
BCB20BD4
3DDCC6F8
3D5B97AA
3CECE3AA
3D65535C
BDAA8952
3D958B13
BCC739D8
3D4249C6
3D8F21A8
3DCC6BFF
BD89AF0C
BD776D24
BCE7B170
3D9A1197
BC52AB80
BDDA7526
BDF418CA
3D54DBB6
3D0F424A
3DD2B7E3
3D9F6A0E
BDC09246
BDE39152
3D9A190B
BE1BE1D7
3D7AC39E
BDC2F9FF
3DA77203
3DF3D185
3DE1A0E5
3CB90554
BCE13B00
BE0D5C42
3D26CD06
BDA70DA2
3CC6BD53
BC2D6097
BD9F7AA6
BD7353A6
BD75B77F
3D35ED5C
BD81161A
BDD2DCED
3D2CA33C
3D63AC7C
3D28806E
3DA8A3DB
BD41AACC
3C4473BA
3D85F1D5
BDAFCD41
3D814A7D
BD39AC28
3DA98B3B
3BBAF850
BDCD6846
BC1151A1
BD85151A
BE042D6C
3D8E80BD
3D9CB0BC
3D089E8A
3D84342F
3BDCC900
3CD6456E
3B224100
BDFFFDD1
3D801521
3CAA3683
BDDDF05E
BDC1C613
BD570EFA
3E325ADE
3DD1EB6D
3E317C50
3E1E76FE
3D7A7F04
BD9E2B9C
BCCF76CC
3DD6E119
BD87C9C8
3D7F1CC6
3D5B8B6D
BCEA678E
BE0D1736
BC55DE20
BCEA65F0
3DAE8D59
BE020F4B
BD1F2416
BDF5E2E8
BDEA5850
3D5C3B7C
BCCE0B60
3C2C5680
3C083260
BD5759AA
BB383AE0
BD49E9A0
BDC71422
BC05740D
3D935529
3D8E559D
3DAE15BD
BD800E2C
BD5DA2F2
BC9D63DF
B9139918
3D894B1D
3DCE687B
3DD7F521
3D86B50F
3D529092
BDE79580
BDFA2D94
BDBCD6A4
3D5C911C
BAF237C0
3D622402
3D9CB2EB
BE1441BB
BAF7C640
3D9F5873
3D9A33FF
BD07A0F5
BCB0B758
BD775174
3DB2A153
BDCCA3E4
BDB965EF
BD4C098A
BD975F8E
3E0BB3A8
3DDCCBF7
BDDE960B
BD1DCB88
BD2972D6
BD4C663C
BDCB2D3E
3D1DA474
3D52E49C
3DA3A34F
3CE7E464
BCF9B4E8
BCC64777
3D33B7BE
BCB4F1F2
3D8C980F
BCBBC267
BCF82B98
BDE01CFD
3DD75BB7
3D4B328E
BD7F68B3
BD795782
3D3B5CD8
3B88DC5C
BDBFC5E4
3DD9A057
3D9EA88B
3DFF2AAD
BDE4E3C3
3DC38456
3DD970D7
3D88967F
B94AF800
BD9B7722
BDA9960F
3CE889D3
3CCAE3A4
3CE8261A
3DFE4FCF
BDB59CB2
BD73A72E
BCA922B4
3DA027FB
3DB6A57A
3CA11A64
3C305402
BD8FB68C
3DA217B9
BDD36C9C
3C4F79E8
BD857997
3C71971D
BD989394
3BBA2567
BCE749BC
3C1E65DC
BD64EA3C
3D286346
BDE07BF9
BD92038A
BDAEFD70
BE070412
BDAC7512
BC9F74E4
3C4CF878
BD241078
BD80DAD9
BD497488
BBF73E50
BD8DD801
BD000BA2
3DC472AF
BD02090E
3DCB93B9
3D35EC6E
BE191C77
3DD4A7FB
3D28EFAB
3D105B1C
3DB8D267
BDBA7D05
3D816A27
3D3ED25A
BBE959E4
BC1AB0C0
BDDCAFBC
3DAEAA2D
3E0F3157
3D93AC29
BCD0ED18
3D4D3FEA
3D87A61C
BDB7DFA0
BDA098F9
3D7E781C
BD607F31
BDCEE345
3D5DB966
3DC1F84F
BBAB0260
3C9B9354
BD2D7C97
BDBE4698
3D959F8E
BDDA2E49
3D9442B7
3DE760B9
3C918891
BD0EECAA
BD11D721
3B2E3CA7
3C25DAB4
3CC3A99C
3D2DEB82
BD84299C
3E0EA58E
3DD1521D
3C52EB95
3C55689A
BE1088D3
3DE1B90D
3DBEA7F9
BD8D55AE
BD24F044
3DC2F403
BB734D18
3D1012D4
BDA93A92
3D9F62E3
3BC63E90
BCEE7940
BDDC941E
BC8470D4
BD2B6BBC
BD3311CC
BD35F169
3D67E67A
3D2DC286
BD9C2A38
BC3E1DD5
3C8B4A24
BDC5F3DE
3C542F96
BCBDBFE3
BD310ABA
3D774F0A
3DB1EFDB
3D425D44
3D836D65
3D518110
3DC06CAB
BB44866E
BD1BCBB8
3CF8364C
3DCB7AE7
BD6F2268
3C451CF8
BDC4CCEE
BDE28FB4
BD01A93B
BC94DC1C
3D705906
3D618E06
BD8F2F27
BDC1DF08
39D03031
3CD717F4
3CC74C62
BD852B95
3D3BD35E
BDC104C4
3D0F047A
BDADB4E0
BDEA946E
BDDBBA52
BDAA8195
3CD7AFC4
3DD6E0F1
3D07A8C2
BDEB9844
3C87DFD4
BD74B48E
3A8991B8
3E023547
3D811039
3C8CC16C
3C8CEE0C
3D3447C4
BDAD1DBA
BDFD186C
BDEADE4C
3CDF599E
BD3B48A8
3D97C8F5
3DD34591
BDBD063C
3D95E89F
3DA4C205
3D8F0921
BD87D0DE
BBB582A0
BDDE2F2D
3C3836F8
BDF9D3E0
3DCC653D
BE0C48EC
BDCAB62C
3CC468C6
BD6A0FE7
3D2B0AAA
BC49A1A8
3E651463
3C6D0658
3E0B03C5
3E0655B4
3D58B8C8
BBE02A60
BDCF57A0
3DE11743
BC82534D
BD935848
3C4CFE48
3D5C2FB8
BDE7DAEF
BD80F0FA
BD48FA8A
3D82BB75
BCD69FA2
BB031080
3D560384
3D7FDC8C
3CEDADCA
3CFCF924
BD9D4C92
BDC0645E
BC677054
3D61808E
3ACCF01D
BDA3FE5C
BC61F13C
3BA104C0
3DA2381D
BBED0940
BD7A65AE
BAE01D40
BD81BBBE
BDEFB226
3DC1F4B3
3DA76E99
3CD70AEC
3D28D62A
3D11865E
BD95F311
BD98F2ED
BD29C56E
BD90848A
BDCE8C6D
BCD66958
3CD11A04
BDC0BF36
BB202E20
BB663C5A
BDE2A65B
3A99B170
3DE406B3
3D85B1C9
BD43AEB6
BC9DC998
3DE7E1F5
3A04DA18
BDBFFDD2
BB9C04E7
BC5B6608
BDA6D395
3D4983C6
BE10BC9B
BDC9DEF4
BD2294D8
3DCBD81D
3D1D5C61
BDD5E280
3D67AE82
BCB4E900
BD36E3A0
BDCE01F5
BDFF54E6
3CAD4634
3D2FC9F9
3CB87D3C
3DBCE1CF
BD3499F8
3D7CC906
BD960E10
BD9AD137
BD64C3A4
BDA518B8
3CD27B6C
BDDF61E6
BDBD7B01
3E2361EB
BC9F11E0
3E0B8E5F
3B2B45E9
BD3D966E
BD06C14C
3DD9D45B
BDE3C855
BDBF7380
BD599D83
BC9D58C7
BDCAB26A
3DC307F9
BDE0D252
BCE74DE8
3D5D824E
3D165EDA
3CD3CACC
BC54B9B1
3D684D1C
3D86D9D7
BD880848
3DD4E527
3D851089
BC8C88F1
3D960C03
3D9E79B9
3D3ECE48
3E0E02F7
3C277F60
BD8236EF
BABAF7C0
3CCD3DAE
BDE54818
3D8A65FB
3CB482EB
3DF2DDE5
BD9E8EC6
3DE267C7
3D7E9C36
BD303260
3D7D8E8A
BE0ADA61
BCF4FD74
BD72A8FE
BC23AA90
BD744E2D
BD3D5128
BDC34DA6
3DA84D53
3CF46748
BD7627DA
3C24C00C
3C968644
BB7DFA80
BD98F6CD
BD3314BA
BDC1A003
3D82AB69
3C9EF934
3D9D9CA6
3D1FC3AE
BACBCF00
BDA040B2
3D8E6416
BD90264C
BC7EE42D
BCAC1E21
3DBBEA17
BD5E0E94
BD041B1C
3D176892
BDDC56FC
BBD56F40
3CBD20CC
3C6825D4
3D8060C4
BDB22747
BB394F40
3DC48A0F
BDBE3FBE
BD3B09C4
BD5B23CF
BD4F71A6
3D4B55BD
3D3D9162
BDC097A3
3D1B2EDA
3D420A40
BC454288
BDB1DC9B
3B959839
3D2CF4CD
3D1EE226
BD6B35EB
BC2027E8
BC08CF41
3DB2D0D7
3CBD8534
3C95F7D4
3DCBD209
3D9D14CF
BD8B30D0
BDCA66FA
3E089E3B
3DB9FB1B
3E083D12
3D336E4D
BD45D2EE
BDB2D667
3D45D44A
BCAE6624
3DF1D1BE
BD45EE12
3E0DA6FE
BC6FB9BA
3A5A2E1B
3DDC76CF
3D5A699E
BBC25C80
3DC91806
BCE273D4
BC1275ED
BBCB4CED
3D9D8D0B
BC9B4B0C
3D60E2E6
3D7A18A6
3CECF64E
BD8D6A71
3B12321A
3DBFF493
BD93F500
BDA342EC
3C353F58
BD26A660
BD958696
BDB104E8
BE0708E3
3D44EF90
BD9551AB
3DBEA647
BD8F6C4E
BD6D8BD2
3C85FEE1
BCE5BD24
BD38C653
BDED2E07
3DE2179D
BDC343C6
3DD2B1B1
BD66A988
BDD5D6AE
3D3C19B2
BDAE44F1
BCE805E8
3DA6F83A
3CF7BF74
3DD3361D
3D9D7603
BD548DEA
3DA3ED3B
3D905EAB
3D5E6DA8
3DD562CF
BDB586CB
BDE920A2
BDE816A6
3C64309C
BC8F0BA0
BDD4275A
BD322FB6
BD809B47
3D7D8C42
3D9313A9
3DE62F8B
BD896923
BD46CFD0
3D91E089
BD99F498
BD6B9A0D
BDDBA961
3D6BA14A
3D834F8F
3D1E0E06
3C472AA8
BD6400D7
BD48D35A
BD3425D9
3A615580
BCECF0EC
3CC0489C
3E453855
BD65EE4C
3E16353F
BCEE8E7D
BDDB522B
3D2D23E2
3C910F04
BD980DB4
BDF12AB8
3CEA6CC4
BD853039
3D243BB4
BD1747BA
3CE90924
BCB46964
BD5EBC09
BE1564B5
BD4E7974
3D427610
3C359A88
BCBAB36B
3DDCF76B
BDC0DAF5
3CB3EB7C
3D290FF8
BDB7636E
BB9D623E
BD722B9E
BD98CE0E
3D46E6AA
3A69E680
BD40EF4E
BD49C266
3DD0784D
BD50EFDC
3D848FC3
3D78A884
BBFFF9D0
3D0471D2
3CAE2504
BCC07798
3BA3BE90
BDB8B1BF
3D7AEA9C
3D0B6E57
3D67F4FE
3C274240
BB2751E0
3B2740A0
3DE6F3A7
BE01566E
3C94D19C
BBBF93C9
BDC7C7AD
3DADD5E3
3D469E4A
3CDADEAE
BDC20DD2
3CDF1BF1
3CC3502B
3DB15CF3
3DAC80E7
BC5B9838
BDBA252E
3D673A08
3D8B0C33
BCFFBB6B
BC1979FC
BD04155C
BDE00912
3D366F62
3B59CAE0
3CDDFE47
BD56EC50
BDBBF4E3
BCA63A6A
BD8B960D
BDC7A7A9
3D37EBA6
BD1468FE
BDDB5744
BD8FAA42
BD84E71F
3DD0E5CF
3E011AB6
BD902F14
3D7DA59E
3C813964
3C65730B
3D69E216
3CC29A5B
BDFE79D2
3D04C1FF
3DAA6309
3D296F0E
BD120566
BDD74854
BD1146DE
3D987537
BDEF35FE
3DFE2B7F
BD61A7DD
3DAA6CC5
3D1C33C2
3C078FEA
3DB35C09
3C85A9FA
3DB46E01
BC4B84DA
BDE87CC7
BD89A950
3CCC6874
BE0F87BD
3B144F80
BE152673
3D155F24
BD93B095
3D15855A
3D195286
3D8C900F
3C9AB31B
3DDDDCEB
3D4CBE7B
3E1D6894
BD10D557
3CD67E4C
3DCC883B
3D9F28E1
BC8EBC09
BD3061F0
BDC03648
BD24FF0A
3C07CB83
BD801BC9
BD8D4AE8
3B8C0680
BE0772FF
3D6778FE
BD2A1C7C
BCADFFE1
BD8ABF8E
BC9BD74C
3D94E54D
BD170E86
3E407BE5
3D0D0472
3DDB852D
3D90D67A
BD2994F6
3D9D5D3F
3D2F919E
3DD54201
BD53A39C
3DD274CD
3D8A59DF
3D12A638
BC89B26C
3DDDD2E3
BDA03F08
3CC4D3CC
BD64E91C
3DCB11BB
BD63C62F
BD0CBC61
3CFEB561
3CDC903C
3D35F7DA
BBC3FA30
BD96BE9E
3DB6B23D
BDF14113
BCE427EC
BD1F2B24
BDD348EC
BCE6A2EC
3D847FAD
3DBF1530
BD45AE9C
3E2AD7B6
3D89936D
3D27134A
BD618AC7
BD15EDB0
BDC7B02C
BC636774
3D9B5D41
BDB1374D
BD0C021D
3DE13BD3
BC91F750
BBCDE780
3D13AFFA
3D83005E
3D38B946
BC087C60
BD9F9EDE
BD5BAE47
3D9E5E61
BC49E498

