BECDE20B
BEA92CE9
3DD67527
BCAE9E18
40A104C7
3F3946EE
BF01789D
BE7C4B2F
3F227BC9
3EC7242D
BF457C57
3E2B7D15
BE0A2D9E
3F37BE5F
3F01C40B
3E9F6AFD
BF8116F8
BF2A35E3
3EA27158
C01975AC
3E4B0924
3F3A8DA4
BF7BB5CD
BF9992DB
3EB4BF4B
BF91BFF9
3ED142A1
3E19267E
BE22C19C
3EAB7F9B
3ECF1F58
3E04BCFA
BF81ABBE
BD8804BD
3F317FF1
BFE825C0
C076B116
3E82E950
3E07C79D
3E1ECB35
3E246557
3EDD2C9B
3E87424C
C00E341D
BF8AC63B
3F33A77B
BD3B2CA2
BF2761C1
3EDF543E
BEB10BE0
BDEA2640
BC2B47BD
BD441F0C
3F4D95FF
3E71E21E
BD988ABD
BF1D7031
3F1BCCC3
3CEF13F6
BEE4AD60
BC3533A6
3F2CFCA6
3F16AFC9
BEB6BC82
3EC1D85C
BF0B5916
BDA66328
BF5BE85E
3DE19298
3F629BCB
BFAB9E7C
BD2824A4
BE8AFBA1
3EA9C7BF
3E07DB10
BDF02D75
3D12B53B
3F5D9FC0
3EE513BC
BCE87E01
BF4E8513
3D9ECDC9
BE46FB59
BE647F35
3EA1F4DD
3E9014D2
BFAF9FCC
BEBB83BA
3E80C7E0
BD5C2885
BE09C9F7
3E913DC6
BE873AB3
3E97283A
3FA5E777
3E19AD05
BF9FC647
BF75B59A
BD72FB18
BEEA6A81
3EBA21B1
3F9A3F35
BF6568A3
BF88B27F
3FAC53A0
3EEDA588
3AD0AA49
BF8ABE23
BE919750
BD8D86BC
BE8DB09C
3E50B8E0
BE45A83F
BEA48761
3E2B16F0
3E66C3CF
3CBA0524
3FD77B32
3E263F9C
BE2286CD
3EF8CC8B
3EFD679D
3CC6579F
3EE54969
3B85A9F1
3F05A8F4
BEADC02A
3D89F30E
BEDAC642
3F0AF3C8
3ED66E65
3F10AAFA
BE111343
3F38C7E1
3E097DFD
3ED52DE3
3F558ACC
3F71CD99
3CF2575F
BE59F0C0
BDE58F49
3F00658C
3F4CECAF
BCAB66EC
BEF490E0
BF02F45F
BEB3C1D0
BE94FE68
3EAED409
3F5B5A1C
3E01D49E
BE8465B5
3EA64D8D
3EE763C2
BE8D85AA
3EFA20E0
BF92522A
3F6995A1
BD1B091F
3E85A09C
BE867704
BF305955
BE1F0D55
3E08A159
B92A6CAD
BF351E49
3EC323E6
3E40B85D
3F47AF2E
3F21FB69
3DA68F56
3E2E9126
BF2B4815
3FAE4ADE
BD1A2078
3ED61015
BF542DB4
3C500CA2
3F0F21AF
3E26A77B
3E07720C
3F5A056B
BE57C7B5
BD8CDA34
BDAA389F
BD919260
3E9D27E7
3ECEFBB1
BE1C5585
3F023967
3DAEBCA2
3D7A94AE
BF04801A
BF0DA562
3E51942E
3E3FF92A
3F2E1810
3BFEF1D7
BF120E3F
BDE7548E
BDC2C70C
3DA71932
BE594FD0
3F204494
3E48E719
3E5ECF4B
BE878CC8
3E1D2311
BE3CBA1A
BED3562C
3E33BECE
3E66B3FD
3F50B047
3F48FC9A
BE95EC4A
3E3530F9
3DB0BDFB
3E23F909
BF0C8FD8
3F4D7E74
BE0756FC
BF992BF9
3F15941D
3F13CF77
3D893E43
3ED1823B
3E49DF38
3F3861E6
3D387A80
3DDF4B75
BE90AFF0
3ECF4D6D
BE9CC83F
BEE28AD0
3CC29CD2
3F0860E1
3F12886D
3F2F3819
3C55D1A3
3EA3E494
3E40B266
3E637C51
3EEDCDBC
BE4DEE84
BCB51BBD
BE875AE1
BD489E4C
BDB0B53A
3EE3384A
3F026DF5
BE255752
3ECB2D5A
BEA7CA0C
BEFB4743
BCDA654A
3F03E7C9
3EF1A68C
3E72D3EA
3F11471B
BF1A8C93
BE5DF180
BEDBF12B
BE208252
BE9005C6
3DE9B910
3F0A96C3
BEBE9F80
3F084099
BEDFBE77
BE95AD5A
3F034596
3EDE947D
3F4017EF
BDD50E14
3E625CE4
3E27EABB
BD9FCB5C
BF1776FF
BE5578C3
3E4A3AAD
3DE60929
3E3EE4D3
BD208C27
3E9D0A0D
BDBE7124
3B08D4B4
3E99A19B
3EE96E57
BDA3F153
3E34A0C6
3D02AC2C
3E950A17
BD1B3AAD
BE4C1C19
BE51F3C1
3E312CA7
3EA5EC44
BED173FE
BE4CCB0D
3DABE9AE
3EA8DC8A
BE337096
BEAF53CC
3CFD0A47
BE556847
BEB0DE37
3EA4D98A
BCF595B2
3EA4EACD
BE0CCCA5
BE7F4108
3D712C72
3E9078ED
BE08DF2B
3C6442C7
BE58D420
3EBCDC36
BC66D012
BE001ACB
3DDAB5B6
BDE7F656
BEE688C6
3E4456D0
BE2D8D6D
3EAB7C4E
BBE61E45
BEA9780C
BDF1F3BF
3DD69DE1
BE22FF4C
3E659300
BE4A5419
3DAFC360
BDB0BBF9
BDB8C999
BDDC2A2D
3E1B6ECD
BEACE482
3EF8961D
BE218765
3F4E2B68
3E8B5145
BEA3088D
BDA7205F
3C1EAB55
BE5DE22C
3E7A467F
BE91B3EB
3EA47CCF
3E3FBB50
3DADE9CD
BD3DFA43
3E41B432
BD8ED254
3E008012
3AA496E8
3E0AE304
3E73626A
BD8656A4
3C8F7BE5
3E3B28FD
3C787B87
BEE0E8E6
BD45A44E
BC9D788D
3F4B257B
3CE312C4
BE1AC6BA
BE10B689
3E20CB54
3E09791A
BCB538EC
3EA3F4E7
3D938B6F
3D886051
BC8C6F18
BBDF23B6
3CC7A75E
BDE39FF1
BD581C56
3E479421
3E2FAAC8
BD3ED91D
BDB21D5E
3E5D9017
BD64D463
3DD3B595
3D00D4D7
BD50C3C7
3EACE8E4
BD0B8B03
3D19D848
3E63829D
BA337800
BE24DD1B
BBF761C1
BED0642A
3D96B8BC
3F000373
3E0B33AB
BD82F52D
3D277EAE
3DAA6422
3CB030FF
3E60704B
3E8E1CEF
BD96B5E0
3D9BAC03
3E46C7CB
3DAB7DA9
3E3B88EC
3D3A1736
3D9477A1
3E733A99
3EA23952
3E67C2EF
3ED3694E
3DE28E46
BE864D73
3C093372
BF1C8E59
3E873653
3EE084B1
3E629257
3D5A4297
BE48C654
3E081CF6
BDD75F76
3DA997F8
3DBDC25B
3C767F1C
3C1C006B
BD98A94C
3E8753FC
3BC7092B
3E90C0C9
3D5AFEBF
3E0AD646
3E8EFC84
BD063CB3
3DB18080
BDE9C3F5
BEDDFD12
BE001623
3E233FEC
3F0100AE
3DC9A869
3D8F603A
3D0F2058
3D2C2B07
3AD77DE4
BA38F88F
BB68BC96
3E3D3EFE
BDA5CE2D
BD65CF9B
BD9BF593
BDFA9B8C
BE11929F
BE15C316
BDBBC0F4
3E436FF3
3D8C2FC7
3D5D47C3
3EDB6F81
BD81D44C
BCB0600E
3D231B64
BDBF5ABE
3E82015B
3E947C85
BDB2CDDD
3DCD056B
3D124D8E
BC8575B9
3C15F070
BDFD42F7
3E32E6D2
3E851A1D
3EA86830
3E17BE6A
3C28E018
3E4CC3CB
3E42B5A2
BE2EA4B4
3EBCD757
BB9348AF
3DF99450
3E72E39F
3D7EC927
BE04597F
BE239100
BEF857FE
3D836837
3EFCCA3B
3E090163
3DBEEE2F
3C52DA59
BC6F2CCC
3DCB6EB8
BEAC73B7
3E09234A
3E907F00
3C92D846
3E05DA00
3A521D02
BD1B962D
BDBCE69A
3DC3724A
3E0EA10A
3D452550
BD3E2BFA
3F11B8EA
3E0D46BA
3E21015B
BC0DE97C
BDE3D1CA
BC73249C
3EE6B00D
3D31B34C
3D5DA73E
BD338725
3DDD8620
3DC8479A
3C6E5CB7
3E3B370E
3D94D5E8
BDCE8826
3E55789D
3EA367BA
BCA77692
3E7F9F6F
BF18D697
3E78DD10
3EE3E6A4
3E778024
3D542DFF
3BD3D1CC
BD27658F
BDA38E78
3E899FFB
3E43B7CE
3E314B99
3B78B9C5
BD98E92F
3CE178CC
3E4F9856
BD4738D7
3E80B397
3E84360F
BD77FDE1
3C50B5F1
BC54DB94
BE067D57
BD82F18F
BD801F06
3E852D46
3E45EA91
BD0D79E2
3D866E3D
3EE3458B
BE06BE8D
BE1CBDA3
BDC6B9BE
BDD4C74B
3E87C499
3E69F678
3DC5328B
3E15502A
3D423D8A
BE10DE26
BDADF684
BE6DCCD7
3E3C0C33
3E86E494
3E2AB6EE
3E16F60F
BC8B8BA7
3E20EAB8
3C52BC10
3EB8FAC3
3E67D645
3C91B2BA
BD057667
3E3409A5
BD8E48D7
BDFE4277
3D45EA43
3DA14A67
BD8EF506
3D763FCE
3BC05325
3D164C01
3D95BAFC
3CBFC2BC
BCC636D3
BDA65799
3E7B30F7
3D8B1789
3DFE90F8
3DEDB1CA
3E49C692
BE0A4E33
3E57238E
3D3DA88F
3E667F6C
3D2DA08D
BCAAE8C8
3ECC7150
3E536BE3
3E5C67BD
3E94AF82
3D06F505
BD8EA8D9
3EFA8B29
3C8B3BFA
3EA41ABD
3E49DF62
3C5C7774
3D079CD3
BEC23AF5
3CA74880
3EACDC52
3D4E4CA9
3EFEDD86
BD24C26E
3D57FEA1
3DA13464
BDF9CA4B
BE178230
3E0F3E4D
3E6C3E25
3DBEF871
3D411AB1
BB6797D2
3E06809D
BE908CC2
BD8E462B
3EBCE14E
BBC0214F
3D972486
BDCF1A79
3D7C231C
BC6004AB
BE644609
3E13BC5A
3DCCEB31
BBA47ED7
3E393819
3E32C484
3DA158E1
3D8F9DE3
BEC36A06
3D929CAE
3E3E5A8C
3CAEFF2D
3E37A0CE
BC40CF2F
BDE00671
3DB93F36
BE98BF0F
3D92285E
3E0C4592
3D22336B
3E227B49
3E18542E
BD57B518
3E31D478
BDB588E0
3D31076B
3E0E8CCB
3E2F37FD
3DDF57FD
BDAA4CBE
3BEA8DB3
3DFDEA97
BE9F00B9
3D4D0D52
3E9B59EB
3D4E765A
3E93D60F
3DA7832D
BC391616
BCE6F928
BE84A178
BE1A4C81
3E324EDD
3DBC4DF7
3CDDA38F
BD4EA048
3E53A667
3E05699E
BD32C9D8
BCBFDE94
3CAE6810
3DCB19D1
3E05CFF2
3E02F534
BBCDD073
3E3BB9CE
BE5391FE
3D4607A8
3E892C30
3E23805E
BE0E4ADB
BC8E2D49
3DB0C6DF
3E10BECE
3DA1D873
3DC4258F
3D86361F
3DAB169C
3DEC89F2
3D25BA88
BD16DD20
3D42E9B8
BE80BE39
BD476DEA
BB2BDC34
BC8CB572
3E0A394C
BD3A57D7
BC5B4C85
3D8E2717
BEA61EF7
3D993B20
3E197DCE
3C84866C
3C2FF849
3E35934C
BDEF7053
3E2D0F34
BE52A61C
BBA41F2F
3D8B6397
3D36C4EA
3E447229
3CDA1F88
BCB7FF3B
3E1888BC
BEFDEE7C
3CC61F1E
3E0347E3
BAE99DBB
BD8E0BFD
3DCF6F45
3D6AA813
3D37B4FC
BE485116
BC9B8DAD
BD70CE72
3CC88214
3E0BB3AF
BD92F02B
BD5A16E8
3D5086BC
BEC02091
3DCD3366
3DD137C3
3D248897
3DA68E30
BC9B5E74
3ED8BB38
BC977CFB
3F3D31C0
BD4FB16F
3D1A35E9
39E46E95
BBCA3E4C
3CA47101
BDF338DA
BC2221B9
3F1E04D2
BD0016EF
3CBC669A
BCD94E71
3D24F044
3E46C30F
3DE0FA2B
3D42D321
3E0AD3E7
3D06E569
BD750028
3E00D60F
3D08E421
BDBDC893
BE0EAFEF
3DC2AC38
BE0B04E9
BB69F24E
3E3CEEDA
3E074880
3DD35A6D
3DB28C32
BE57272E
BCB64969
BD3C542E
BDC071FA
3DF55373
3D815AD0
3DD0A39C
BC2E4609
BDA7D342
BC0D8E0F
BC590FC8
BBB0E5AC
BD341256
BDAE625F
3E633239
3E23AED7
BE3786B4
3DC026A9
BE131C2C
3D8ED9BC
3D3A5FBA
3DF6E3AA
BCDB4D9E
BCF4AFF8
BDB5E765
3DC86926
BE04211A
BD6667BA
3D86D967
3E0E4CFC
3E3220C3
3C338930
BE0EDAC5
3D524BF3
BDAF41FB
BDDE8CA2
3DE3CB0B
3E31C07F
3D7CFE85
3D80282C
3D14EB60
3A52F8B6
BDAF16DD
3DCF528E
3DA01B62
BBA3F4ED
3C449951
3CF1C6ED
BD93DF81
BC450BC2
BE3BB6C3
3D742B50
3D988C26
3E3CD147
3E431BE3
3B553843
BE0971CD
BC25E057
BE8565CD
BD8C4E99
BC179B9C
3B87744B
3C0F8314
BD25C51D
3E0B8E79
BD50679F
3EAC828C
BDCC0939
3D4EA1A2
BD18F481
3DA49505
3E053D47
BDE11693
3DCAC5D6
BE2C7476
3DF7106B
3DD969CF
BBB20F5E
3D9576E0
BB66F080
BC74055E
3E0AE370
BE78CDAC
BD9342AC
3E356652
3D06C1F5
3C293902
BDC476CA
BD8C2381
BDE7F2BA
3CD27C9B
3E072B2E
3D6388B0
3BAE991C
3DB58C69
3E21AC55
3E1F2D92
3D3F82C6
3E56705D
3CECB20C
BD75E02A
3DE0A121
3E371270
3DB0E5A4
3DA39284
3D4AC736
BE8B9C42
BD5A8FEB
3CE80A9D
3DBFD55B
3D0F7EC0
3E16D2E1
3C5E8B07
3D42B267
BE8D0537
BDAF8DA5
3E3ADF5B
3D91EAC6
3E2DD750
3E07B489
BD2610FE
3D20C1C1
BE8C5311
3CDF42CB
3E302997
3D96A6A3
3CF1D661
BC807571
BE1BCCAB
3C92D426
BDD7109D
BDD3A921
3DEB204A
3E5102EA
3D923FAA
3DD9E5C5
3D1F00D0
3DA725C1
BE332957
3D081FF7
3E44B951
3CFBC9D7
3E37F29E
3DF41376
3C290909
3DA0AB55
BE1881BA
BDA6CD05
3E11379A
3E1A0A97
BD03D2BF
3D5B0C82
3DBF64B1
3D1B3C51
BE114FD9
BD82B54F
3DA2D2A7
BD8CD048
BDE549F5
BB545937
3E16700A
3E2F1E42
3E8B34EE
BD21C16A
BD834DF4
3BC61311
3D64EDFB
BD640960
BD110A61
BC596703
BD95F3F5
BD8E9828
3E3771D6
3E05C9A7
3E1553B2
BCAF0D9E
BE2C925D
3E08CC78
BE41ED86
BDCF7FF6
3DC793B2
BC858B11
3D750B1D
3DFB4524
3D038BCF
3DDA4CC5
BE889270
3DAC995E
3DEDC6B3
3E1C8E20
3D45DC52
BDB46335
3D2776DD
3CFE66CC
3DD94E67
3C596763
BD085015
BD2635A7
3D8FFBE0
BD8B7ED4
BE08759E
3DB797B3
BDC2FF1E
BD0D1240
BD5E5BCE
BD81DC99
3D1C91BC
BCB8334A
BE3860FF
3DFD40FC
BDC5D15F
3DC97DD5
3DA3E8FF
BCEDB7D2
3DBC7A9F
3C11439C
BD77AC7C
3E13FFF4
BD6DC8B6
3DC4C6D5
3CEAC687
BC907597
3D7C25D9
3E069A5E
BDF4E523
3DD11727
BE6EBBCA
3C7E3901
3CD3CBDD
3E0C017A
BD1250FB
3D80A965
3CC1444D
BDC1EB32
3CD670E5
BC46AB81
BDC28385
BD879104
3D783EB5
3E0797EB
BDAE2013
3DA39F24
BE47CC9C
3C257B45
3D7346DD
BCE64636
BC1031E4
3C6B2255
BD3241E0
3DF1855A
BD93E1B4
3DD5D5C5
3DF92AFF
3D61DC73
3C96379B
3E21FC36
BE09A585
3D8A0D14
BE3EF1F6
BD8B74D2
3E6E4DA6
3DD8EEAD
3DFED4D3
3D6AC0BA
BDE00BAD
3C8AC87B
BE858DFB
BDD32654
3E2B6843
3CAFF411
3E4FB4AB
BC318F75
BDF1601D
3D332B5B
BE0CC47A
BDC12514
3DAC6544
3E32C45B
BD84BE63
BDB61B30
3DB79883
3AE886FB
3EC2D04D
BC6EBD60
BDDEA23A
BDD42F7C
BD25D0B1
3DC5B0F8
3C19072B
BDAFBC49
3E622EEB
BDAE7370
BDEB527B
3DA80FE0
BE1A9557
3D838AD7
3E5111FD
BD1284CA
3E1EEC7D
3CBC8394
BD8D78F9
3DAFC4B3
3DD12217
BD26C0B6
BE0E2E5C
3E2F3CDA
BDA03441
3D43B7CB
3E066849
3E143323
BCBB9CD6
3D4EE0F0
3E29B302
3D994E77
3EA968D1
3DE604EF
3DD3E941
3C7BDC5D
3B1803BA
3D649D2F
BE2FB60D
3DF03323
BE2B271B
BD4ED67C
3E0266A0
3DE6F520
BC84E3C0
BD50B63A
3C3389D9
3E2F7DF0
BE2A0D77
BD5BA471
3D79E324
3D61E40C
3A9ECE7F
3DAA0232
3C41E9B5
3E07AF58
BE1D9072
BC6B9A48
3CCC552B
3E09430E
3D9A0C86
3E140F58
BE2BAC34
3E1E4276
BE82B378
3DE2B041
3DDE7085
3D278E11
3D87136C
BC6CE894
BE10AFDA
3DA952D9
BE76B4AA
3D0B951E
3E1EF21C
3DE32C53
3DCC88F0
3C8C6B6B
3D0D692E
3CED72AE
BDD21ED3
BDDE7FFD
3E56088F
3D66124E
3D419C31
BDE1202A
3C3D7D43
BDD3C8EC
BCE57EC7
BD9479D0
3DDA7F64
3E0154B2
3DC51159
BC41A829
BBB48F78
BD09B144
3D166E3E
3D52EECA
BE07D80C
BDD41846
BD4E9E46
BD066C29
3D9E3A55
3C26E855
BCC71EC8
BC885D54
3D9A6F5C
3DD55CEC
BCBF2006
3DFCB15D
3DB53559
BBAAF7A7
BC4B0C8C
3D348466
3DFE7360
3DE2764E
3DA56882
3DB72A98
BD752742
3D82F868
BDB049FA
3CC025E4
3E0F0BD3
3D058600
3DC5978C
BD9F260A
BC2D8CA5
BD44BC23
BCDDE498
BD52F7DF
3D5D1A7F
3D8625F1
BCD65B74
BC49E372
BB433EE0
3DE1D7DA
3DA320A2
BC1FCC68
3DA6B4C7
3DC7EE10
BCF74480
3C66D144
BBDDEAD0
3CA6D3E0
BCB2EEAC
BA2AB100
3D705962
3D41A697
3C5AC7F0
3DD217E4
3D3C61A2
3BB70CBC
BE029258
3DB08595
3D32A266
3C157653
BD031D59
3D9C32D8
BD9B850A
BD21751D
BDECBC28
BCA50144
3DF8797F
3DB4A1DD
BCA2FE10
3D5E08BB
3DA0E3A3
3D00DDBE
BD428902
3D1F5EFA
BCF860A3
3C11ECDA
3D64DFFB
3D2C92B9
3D67CB56
3D6DD71C
3DAC4FC4
BC3F4350
3D133CEC
BD963874
3D405E76
BA82DFF7
BC83BE64
BDA31009
3DA53983
3C97072C
BD05751F
3D193C14
BCEBB052
3DB0D690
3DAC5A75
3DA2F352
3CBF30EA
3C3CC168
3DA42214
BD44D9FE
BD3FBC73
BD30DDA9
3D4BFCBE
3D885919
BDC1C6DB
BDA4C65E
3D9080B3
3E04EC59
3D004799
3D9E79F6
3CE9406C
3DD8765D
BDD893BB
3D9AD521
3D4162A9
BD4DC543
3C0F793F
3C665E96
BC8D95BC
BCA77BD9
3D806740
BDDC4C6C
3DF12E97
BD06C24D
BD8F2D8D
BD89C5AB
BD875BAA
BAF72059
BC78AA7F
3C9E71EC
BDCBBBC9
3CEB1E1F
BDBBFA27
BD50E731
BDD87354
BD7B9193
B9AC1161
3DCB33AF
3D857353
BDABFB86
BD35C6B7
BD832387
3C84826C
3DB34FD9
3D143087
BD98506D
3D11EEDE
BDAD270B
3DAAB770
3DC607F2
3DD213C5
BD698E50
BD0B6C8A
BD9BEFBC
BDA207BD
3CFE9218
BD0D93EC
3DAA715C
BDE2C4CC
BD92E601
BC3FF0B8
3DE299C5
BB090AFA
BE0418C1
3DE69882
3D391A63
3D6EB072
BCC29208
BDD3559D
3D4F4D8A
3DE44EBD
BD92D486
BDE69CBB
3DBA0A24
3B160180
3DAE1B9F
3BF5C56F
3D0F2F92
3D3B21FD
3D8959DA
3DCDD708
BD360231
3D7CE44A
3CED197E
3D049263
3C54CF28
3DCB5FBF
BD06197B
3DD9A138
3D0995EE
3D4CF672
3DAB489F
3CE01F67
BD5A932C
3D629EED
3DB8626A
BDE27D0F
3D9A2F25
BD5B288E
BC8236DC
3D0A5FF1
BCCE8274
3BF71FCB
BE05EDAE
BDC3F7DF
3CBDA889
BD68960C
BDB056AC
3D5712FE
3D2185C6
3DE1807F
BC0A5B81
3DA3BE12
BDD78E5F
BDBD181B
BC44B82A
3D8F2A14
3C227F80
3DBFB737
3D86FF3C
BDD88D5A
BD7FF14A
BD958A44
3D4791D0
3CE78047
BD1FF230
BE003F95
3C7E2AD0
BC967810
BD566B17
3D7438BA
BDC7D9B2
BD9450DF
BD84298E
BD9CB626
BDC0CD3B
3DBE8894
BD4C390F
3DA88BA3
3C8B0114
3CFFC954
3C5716F8
3D1EFBE2
BDB4FA37
BD1058BC
BDB8C87C
3DD2DB83
BE07A58B
3D303DC0
BD2A3646
3D1BC1B3
3CA6198C
3CD477F2
BDB07AE8
3C0582E8
3C534D2F
BC15FDE2
3D30198A
BCF777B6
3C40BFD7
BB5E127B
BD356291
3BE635E0
BD498EDB
3C8E0110
BD96E4A8
BD627CFE
BD97D655
BCDE4C52
BDA940A9
3DD84A55
3DF66795
3BAAC8F7
3D447FEA
3D1F4F4A
3C160C9E
BCC1CB20
3D672573
BDCAB4F8
3D1C0696
3C465AB4
BC194ED0
BD90E606
BD08D893
BD3A1C4A
BD9A84FD
3D0D31E6
BDC14D58
BB38B895
BDDFA6BA
3CD51448
BCBE1838
3D4E9349
BDCE5746
BD92E604
3D14E9BA
BD2CDDD8
3D620692
3DAC7603
3A4749AA
3CB3CD76
3DA8D77C
BDAC2BFB
3CE3513D
BB7FDB10
3D498E4E
3D8E71CD
3C5622C0
3DD31C18
3CF57FA1
BC90A214
BDB997F3
3E45E307
3D7178D6
BD6530D9
BE020FED
3C671B0D
BD7F9925
BDCD3DFC
BDC070A0
BD069B91
3CA8B0DC
BD1B134E
BBA3E65D
3CF4B738
3B022A2D
BD4C37BC
BDC9B71E
BBE95053
BAC5F300
BB263F7B
3D44DBC0
3D08FAA0
3CB0A191
BDBC3583
BBB4D794
BC7F10E5
BCE02DE4
3D5499C4
3D415A97
BC9D50A6
3D32CAD7
3A592880
BD8CC9E2
BDD5EE03
3D8DF4E1
3D2E37C9
BCC285EC
BD391D4B
3D3328A3
3D84185B
3B291712
BDF1FECE
3DDA5975
3C27836B
3D737AE3
3D45B64D
BD1D798D
3DB1C8C1
3DDB38F9
BDDCEC3F
BDCCDE02
3A81F190
BC5C4B33
3DEE8D86
BDF3BF64
BC411CA8
3DA882FD
BC81D40C
3D85EFFF
BD91ABE6
BBB6AD5F
3D0EBDD8
BDC2E081
BD80299E
BDB28468
BD97D0DE
3D9703FF
3D4CBF10
3CB946A4
BB5F3CBB
3D04ED3A
3D022D2A
3C14685E
3CF8C93A
BDB53912
3D843B0C
3DEAC88E
3D5D241D
BDC62792
3D7068E2
BDA9FBD2
BDA6B596
3DD76799
3D6F0F61
3D857C4D
3D317CB4
3DB4DF49
3DE3F2DD
3D7D4240
BB6A8AF7
3D20364A
3CC741FE
BC44B0CE
BD965F27
BD5A0E7B
BDC2FB8E
3DD235C5
BDF6A044
3DD45471
BD6DEA5F
3D31A4BE
BDA589CD
3DB465F6
3CCE3AF4
3DB16CE3
3D6CFD60
BD17399C
BCD19FD5
BD706D33
3C292B56
BA567931
BD7A70BC
3DE20EB1
BCB2BA5E
BDDF18B7
BB4005FD
BD60BBA8
3DD63BB6
3D513B67
3D85AED3
BD0B3062
BDC05E22
3CC608C4
3CDD286C
BD933863
3DB5122C
3BC8B3E2
3D2A7C8A
3D1878F2
BDEF0A53
3DA2C42D
3D623F05
3D72C9B3
3DC3636C
3CBAA9D9
BD50B3C2
3D18C826
BD6C8307
3D53594A
3C83F106
BDB6B99F
BD5D3B2D
3D8F2BA2
BD073FA8
3CACD93D
BDA51902
BD19A072
BD4FD297
BD2A4EC1
3D9E1654
BC0F65BC
3D84D96F
BD85708C
3D64200C
BC1E4D18
BD0FF1CE
3DECE140
BDB30FA8
BDDFEC94
BC5E6618
3D8ADEE3
3D8AFAD4
3D687626
3D7DD6C5
3CD62128
BDAD4E37
BC233D84
3D932433
3BC06D68
BD82856E
3B443440
BDAA0AB8
BC4421D8
3CD2736A
3CE7762B
BCF6A670
3B1DA813
BE07893C
BCF727F0
3DF38C1B
BC868D5C
BDBE103F
3D999DD9
BCEEF0E8
BC2D9FFF
BC63DD63
BDE87589
3D98ACDD
BC1F584E
BD9C56E3
3D971F2C
3D30050A
3DBED0F7
3D7DDD1D
3D8DA82F
BC74830A
3CA07092
BD8BBD75
3CCA3CF9
BDB7D9CB
BB2686F2
3DC27E4E
3D875467
3C896433
BDE1B867
3DE17956
BCACE8FD
3B8A0BF0
3BA26998
3D9EE6A8
3D8CEDF5
BD84C3C4
BBA619AF
3DD6CA98
3D44EF2B
BD8A900C
BDAE5DD9
BD9144CC
3CBDAE74
BD9CEF34
BDB31E0C
3CB8CDF2
BB357C6D
BD2B4B2E
BD0580A8
BD0C0030
3DC371C3
3D8D22B5
3D2D171A
BD0A4EBD
3DBCF3AA
BD82FBD8
BC88E459
3D97DA3C
3D930281
3D7F64A1
3DC16140
3CA0DBA6
3D5A79EB
3AA2D100
3D618BFF
3D569F3E
BD811E20
3DF7BB25
3DB4AA02
BD4B8480
3CF01993
BDC80A42
3D8337A5
BE05EFBF
BD153D44
BB893EB0
BC46D4F0
3DC77CAA
BD444D63
3DA0A7CB
3D53CE77
3D0C3BAB
3DDD327D
BD0BD535
BD582814
BC3EB356
BDD7F60C
BC2857E8
3DFCD2E5
BCF14008
3DD6A90F
3D2FA045
3D559BFF
3D878FDC
BD63CA61
3C12CDA0
BC2E24EF
3DD3B767
3D5B67E2
3D07B6F3
BDDA8924
3DEFC416
3DC1FF68
3DD8500B
BCFD587D
BCC9CAA8
BD97A726
3D4B30CC
BD1E00B3
3D878A66
BDC75656
BD9B461A
BD80EC16
3D8ED55C
3D6C8D1A
BD66B45F
3D9DC2A0
3DE7FDE2
BDA6D3C0
BCD8ED70
380175A6
BE02C9AC
BDA00842
3BDCB8AD
3CE3F08C
3DB7EB30
3DBF9488
3D2485D6
3E01EDD1
3AEDAF4B
3CAE039C
BD89AE5B
3DE4D0A4
3D8C6BED
BCA9AC99
3DC2F923
3DB2CE69
BD5BB589
3D318906
3D1BB7EA
BD44595A
B9FAA2F0
3D3CE7DF
BDC42C78
3D8FB590
3CEDBD86
BC476CE8
3D28589D
3D3D570A
BD32AE59
3DCF1464
3DE52031
3CC12FEE
3C73D983
BDACFD78
3DF6988D
3D1D98B2
3DD2DF3E
BDA66BCA
3D974901
BD953850
BDA428A1
BD98FC1C
BD44609D
3DC49514
3D3EA3DA
3D82D4DD
3DE778E7
BDA7C843
3E0EC2C7
BD7AAD86
3D1A82B9
3B8C4942
BD3D92B5
BDC86181
3D6658D2
BDE3FC47
3C6A3936
BD8CD8BA
BA11AE1B
BD39CA78
BD4E1B35
3D3F8C1D
BD4FBE5A
BC8A96C0
3DFFD670
3C304940
BDF1BD4A
3D7FCCBD
3CDB5674
3D5A0B9B
BC6E7AB0
BD26C131
BD15D45B
BCFBF4A4
3D0FCAAE
BD3A228B
3D6E1F39
BBFC216B
BD8B8618
BD1B0F8E
BDD31C48
BD6507B8
3E0879A3
3DCB3FBE
BC880688
BD8E7011
BCF443D0
BDA589E0
BD9F407C
BC058B70
BDA7A78A
3DACEA34
BC143DCD
3D1F68D6
BD9FA5D9
BC873AB5
BC9A468B
BC8D3E20
BD687B3E
3DD6FBEA
3CF9D314
3DD6534A
BB4216E0
3DB488A1
3C70FCB3
BDCA88DC
3DC4FBB5
BDAA14B3
3DB70FEC
BDCF2518
3DBC25A1
3DEFA07F
BE0D3369
BC247828
BDA582A8
3E046D51
3D14F054
3CDF29CB
BDC4DE24
BDA238C6
3D693257
3D1FB69A
BDA5BF90
3D60129F
BCFE513C
BDF0F17C
3CE625FC
BD63C54D
BC84A4ED
BD8A0A1A
3D63A06D
BD734364
3B530CE6
BD062ED2
BD24CAE0
3D8FADC7
3D8194CA
BD1AB3B4
3D02E91B
BDA30AD5
BDD2D270
3DF04BC8
BDC447D5
BBC6BC38
3E11837D
BDBFBDAE
3DB4DF8B
3D18595D
BD132416
BC5D588A
3CF91C5C
BD99C76A
3E25E2BB
3DE7B585
3D65C08E
BCA5DC9C
3D1CB0DD
3D125B7E
3C74AAF8
3E03CF1C
3D9CBC28
BD0101C8
3DAE64CB
3DB64D9A
3C8E549E
3BAF2BD3
BDB6AF2B
3DD9AA9B
BDA3571C
BD44ED40
3B1BB259
BDAF33B9
BD2A179B
3D932124
3D89203D
3D63E7F7
3CAE29B8
3D5F5E16
BC976537
BD79FA9C
3D7A4A09
BDAF9931
BD81D344
BD80B0E0
BDF74196
BDD479CB
3D653CB5
3D965570
3B9F8909
3C83F19F
BDE1B81D
BD923C59
3D424B31
3DDB3C1B
3E08E918
3D22932F
3DB7D086
BDE88425
3CF7C3BC
BD86CD9A
BDE7D9D5
BD324882
BAAA1DED
BD150DBF
3DA6553A
BD0E596D
BD080854
3E033F43
BC702256
3D9D7A55
BCBB7B5E
BD65B1CC
BC4EB5B6
3AA02CA1
3D7DB13A
BAC9A4D2
3D529959
3D913C55
BD8766EC
3D6B834B
3D8C9523
3D6086D7
BDCB4464
BD1530BA
3D258CAF
3B5D8DE0
BD959D98
3C415867
BD19D414
3D95A92D
3AC79500
3D1F34D2
3E2EC3BA
3DD16481
BCBE297A
BD1C8FEF
3D563417
3DD64FE2
BDC81274
BCDBD9AE
3C3AC71F
3DD64BAF
BD56F630
3CA4E912
BDA6084A
BCD7998B
BC423108
3CC84AF4
3DE47862
3DD7118D
BE092F5B
3C0CB8E1
3D009BCA
BD9A402F
3CA8C6B4
BCD051E0
BC789546
3DCD374F
3DCF9B41
BD26D55F
3D9511B4
BCCEDB59
3DA19BB7
3C87CA7C
BC7557B6
3DD4B477
BD60D76E
3DCD50C2
BD5DDB8B
3D96D380
BC9AC0BC
3D6FD9A3
BD6A9DE1
BDB843D5
3DB9A2A1
BD7BFE3E
BDABA715
BD8989C3
BD4A9BD6
3D91613D
BD3E1D00
3D381EA6
3D958A88
3C1B0DBE
BCDBEC52
BD491E63
3DCFBD73
3C77315E
BDE61017
BD55FFC9
BD856A62
3D9AA52E
BD915AAE
3D710929
3D3A8DAE
3D066F1A
BC1F1EE2
3D4D8852
3E06B0BA
3DDB205A
3DDDB008
BD1531A5
BDC0C764
3D99CFE9
BDE8E985
BD657A3D
3DE0599D
BDA95BE9
BD7D0E82
BDC415C2
BDCE34BE
3DEF8637
3D8A0B46
BDCEEB18
3D172455
3BD896FB
3DD903C8
BD0BE5CB
3D7BFDB6
BDD706EC
3CEB9628
3D6C251E
3C93496C
3D6FE51B
BCFA64DC
3DCF2EE6
3D44DB12
B9B7D845
BDA1F1BE
BDB2A6F2
BCCF47FA
3DC8D5B4
BD92933C
3B4DAEF2
3C513D18
3CC27F7A
3A658255
3DA2F825
BD74B6EE
BD4590EE
BDB9AE4C
3CDEFF63
3DD15877
3D87CC07
BD58D1AF
BC431AE0
3DF4595F
3C521870
3C7411C4
3DD7954A
3D5ABE42
3D1B2202
BE000928
BD8008E4
3C81EA2B
3BA3786D
BDD3A7F8
BDB4A10D
BCA5A35C
3DFA96FD
3D53C1B5
3D3FC8A2
3DEC4241
BCCF3200
3D948E62
3D7DA8A9
3DC7535D
3DF06C65
BAA179D7
B9C7EA00
BD6063E2
BCB21378
3C43F3BB
3B9EC3E5
BBC52B50
3D8C981F
BD9DBCD3
BBBE5D90
3DDF3BDB
3DD7EAC6
3DA5497C
BD997B3B
3D0F9262
3E04B2E8
BD25DDC8
BD88A226
3DBC294D
3D94820A
3C26D27E
3DBBE770
BD560D38
3D866A1C
BDD67C06
BCAF1A2C
BD498D91
BB98EDE1
3D942C12
BD68DDAA
BD5973CA
BD31A017
BC4C8FD5
38D68800
3DDC7ED5
3DAFDA54
3DC1C3B6
3D62798B
3D8AE6A5
BDB53295
3CA8BAD2
BD6D5FA7
BE136A7E
BDF003B0
3BB8D12B
3D2A983D
BDB44052
BDD9A971
BB577CC0
BDC0E3C4
BD1075A4
3C974D8A
BD715F84
BD21B064
BB3E0BE0
BDB16E86
3DFC0386
BDE844D7
BD947BEE
BDEFB011
3B09851A
BD5391BD
3DE17E5F
3D295CF2
BDD77257
3BD8C0B0
BDA0FE50
3D0AE4DB
BDCA9089
3D64E707
3DA92DF5
3DC99B0B
3D862166
3CF890CC
3D2C1BB5
3E07C0A1
BBDD4669
3DCDD218
3DBFEFE9
3BF0DA08
BC8374B4
3DC71AA5
3CBD94FC
3CEDA5B8
3D333756
BDC18C6A
BD474CDC
BCE7815C
3D813894
BD7A7F0D
3D9EF524
BC9C20BE
3CEDDB9A
3D18FB09
3BEAE300
3DFFA807
BD20BE95
BD9082E1
3CDFDDC0
3B8B26EC
BBB3CBAB
3C89F844
BC28E618
BD2E11AD
BDD2DD58
3D821E79
BCE038CA
BC82E404
BDB549D0
3D871DE0
BD15BCC4
3D587E8B
BDDD9AFD
3D1CA68A
3E014BA3
3DC20F2E
BDCF8E2D
BD30BD9D
3C36F288
BD993AED
BDBD4578
3C1FA628
BCCEA69E
3C505EF8
BD2C43B4
3DD4086C
3D72E66E
BCED359B
3E0D6E00
BDC78F00
BD3C3F25
3CDF840E
3D99FCAE
3D0B89D1
BDAD7DB5
BD9C261C
BC1B9C92
3CD1B4AC
BD625C86
3D7E2D9F
3DB950AE
3D9D2FE6
BDD1A6A4
3DA0082B
3D0B2C32
3DB81F3B
3D93A12B
3C449B50
BDDC873A
3D6F165F
BDD577DA
3D5D778F
BD746343
3DD3561D
BCFF88BA
3D2C1C52
3DCA6146
3D17784D
3D6A4FA6
3DD4FDC3
3C9533A0
3D7345D2
3DA9477A
BDB01251
BDD8CFC6
3DBBEF26
3D6583B6
BD5FC666
BC0B1743
3DB46EEF
3D773879
3D99D9EC
3CC3057A
BDAD4DE5
BDA77AF4
3C0F1805
3BEA9CB3
BBDB48B0
3D47B390
3DE14602
BCC4C430
BD3CD969
3DD3D029
3CA29AC2
3D5D5B91
BD8B7C25
3DCF6B95
BC9023EC
BDC4E1C3
3D87BC15
3DB4C393
3CCC01A6
3D3CF7EE
BDA42F3C
BD93CCD3
3DF8FE92
BD71EE82
BA42E4AF
BD57E4C3
3DD6907F
BC466CF6
3DA87F19
BD458311
3D5F15D3
3DB05448
BD2D86EF
BC8DA0A8
BE05E76B
3DBDA88F
3D43388A
BE0519AE
3CF5E6BA
BDE14D3A
3DD8DB9A
3D9B279F
BBFDB13A
BD7F2D57
3AC5F940
BD74A807
BC9E9DB0
BD70AC47
396D88B9
BCA82660
BD1B0ED8
3CEAB350
3DCEE7FB
3BF7B080
BE021AD4
3DDF5FE2
3CE9CD8B
3C6F5CF8
BD1345EB
BDDA53D6
3D95C9F9
3D9B8F9C
BCA1662A
3D517E01
3C52B384
BD32C88C
3DDA7785
BC60DEC5
3DAAD02D
3E0C1C8D
BDA29EA9
BC8780C8
BD3EC41B
3C8E8F24
BC1685F2
BD74900F
3D34E29A
3DC20FDD
3DA36BA6
BD8764B5
BDAF4D77
3ABEA1C0
3D7C188B
BD2CEAD8
BC869594
3D7E9E71
BDA1FD1D
BDA3DBA0
3CB53123
BDC298FD
3CFE90C2
BDCA6D4B
3D2A199E
3C707462
BD18D261
BD577B33
3CBCBDD1
BCA6A45C
BDA2BCCC
BCDDC5B8
3C90920C
3DD11DDB
BD3B7434
3D8A5065
BD1E6681
BDDFC495
BC9E4505
BD7A7657
3D259162
BD4D4993
3D815E5A
3D3E5181
3C2C9284
3D33E81A
3D5DEBEF
BDD25CCF
3D297C1E
3C96E41C
3DE555B0
BCE16256
3D1ACF52
BDE4B33D
BDD45231
3E0C8904
BD1D2EB0
BDCF384D
BDFF3569
BD3D73E3
BB9DDBE5
BD931E7A
BDC7C5F2
3B68D2B3
BC76DBB8
3D6F2BDA
BDD21FC5
BDAE4D4C
BC8E907D
3DE59D5F
3D49D003
3CB69060
3D627582
3DD51B95
BD144819
3C846BC9
BD9DD8AD
BCF60FF4
3D378106
BD021037
BD25BCAA
3DD56E1D
BDAD08AE
3CDBC1B4
3B88E564
BD8CB73C
3D8A36BB
BD9FEABE
BDCD075C
BC240B2A
3DA1A2EE
3CDA319C
BD62905D
BCA0EFF0
3C22745E
3D51C265
3D979675
3D40291D
BD9968EB
3DE05272
3DCA385A
3D1283DA
3DD99351
3D7E25B9
BD8BC3A2
BDB3355D
BC492B29
BDA29E31
BC5BDF48
BDBBA841
BCEF0D94
BE08A8EC
3D082AF6
BD464613
3D95DFEC
BC571D95
BDB9A848
BDD045E3
BCBBF4EC
BD4F92CD
BD6CBD26
3DCC0B59
BD3D3956
3DC2D7B8
3DA7DCD4
3C3E4448
3DD87BCD
BE12DD2C
BCB2E704
3B8F37FC
BC1EBEA1
BD99E9EC
3DC5CA66
BB61FC40
3DC3220B
BD2025B3
BD120EA6
BD969BF7
BBF2F560
3CCBCB84
3D2EB088
BDAB73A2
3D662D69
3DCFB665
BC839EA0
BDC22DBC
BDDFD47C
BCDB9964
3DC4FE12
BD5A737F
BD8EA51E
3DB9D652
BD59C95E
BDC36342
BDF44864
BC043FBF
3D969A40
BDB9AAD2
3DB2FE53
3D00B0EC
BDCE8ECD
BDB5B0A3
3D3BB220
3D5C85B5
3DD64908
BD12BDD0
BB0CA4C8
BB7D73D0
3D55133A
3C6BD28A
BC523402
BDD1E418
BDEF486C
BDAACAD8
3DDA566F
3CE4A3F3
3D6707D2
3DA5AAF2
3D84971B
BD218C91
BD8336EC
3DBA9BE9
3BF7366A
BD681141
3CEE7724
BD23B63F
3D2D18E6
3DA74A44
3DC56CD6
3D0C12BE
BD471765
BDAA680F
BA8E8BC0
3C31074B
3D4D965F
3DBFA266
BDB5C76F
3CA4DC6C
BCA1F911
3D259C2B
BCAB646C
BD15FE6B
3E049597
3D5100B9
3D32C46F
BC7E0AE0
3D693967
BDAE5691
3CD8A7C4
BD970A01
BC323CB0
3DBAA75C
3DC513FE
3B944510
BD87DC4B
3B1989BF
BC4CD998
3DD56BE1
BCD39B28
BC1C6AED
3D7217C5
BD1E348C
BD83EDB3
3D140E43
3C6B9E98
BD199599
3D003919
BD56A062
BD3BF314
BDBCCFC3
BE03E08D
3E1C480B
3C74FF48
3D90E1ED
BD6F45B0
BD5A4680
BC3B080C
3D0A30EA
BD243BE0
BD9D1D07
3D64DEC6
3D3139DD
BD901922
3D0030C4
BD8B7430
3D1C5D1E
3C9F28FA
BC0D1C73
BDD4350D
BD82C9A2
3CEF292C
BD9AB543
BD94CB80
3C845C64
BCE03408
3C0873DD
3DD84475
3DD71EE1
3CFDB740
BCB21690
3CD753FB
BD4362C8
3DDAC05B
3D996FB2
3C044568
3CC1E0A8
3E03866B
3DC0231A
3D151102
3D3C456E
BD9283A0
BC7722D6
BD8832C2
3DB3DC9F
3DA47A06
BCBEDA9C
BDE685C5
BC5AEAA0
3D1FBAC6
BC0EF793
BDB1607A
3DF627B1
BC32B780
3DB5AA78
3C61B8F6
3DBFDA61
3D6C14AF
3D8BE64A
BC87BB00
BDB1E83B
3DA46074
3D0E03A8
3DA092A6
3D95B05B
3D5F3DFF
3D707F08
BD134F12
3DFFC83B
BD7F741D
BCBB2B2C
BD4B2ECB
BDD38599
3C1E34C6
BCB2E9AA
BD595606
3D1A5B5E
BD195229
BBEE544B
BDD8A5AF
BDD6005B
3D346F2E
3B6D504C
3DD9C9AB
BD111DBC
BD66C7F8
3D34F89D
3DD5F11A
3C3A8E98
3DD833A5
BC030DE1
BCAD577C
BD1B1F4D
3D3DFDA3
3DBB3900
BB2E1BF3
3D9E7299
BC63BD4D
3D2E80F8
BD40D62E
BD99D4C7
3CD02AA7
BD44B3BF
3CD31C29
BDC2FB58
3D140529
BD00134C
BDD4FA13
BDB14DAC
BE003147
BD563283
3D8FD2B0
3D741E6E
3D2E91D5
BC4D9741
BDB49B76
BC88ED26
BDEC8E82
3D6A2565
BD33FCAF
3B22ECA0
3D856754
BD1AC074
3DDBFB87
BDB08FE0
3E06D97E
BA1CBAF4
3CDA0203
3D978E13
3D0873C6
3D4FCC76
3DA239DD
3DDFFDFD
3D93E1CD
3DF2A80C
3DC8C7D4
BD48E1EC
3D79B3BB
BE1258A8
BD96FF0A
3DB6CAC1
3D8C3075
3DB41B16
3B112D4B
3CD20D1C
3DBD4165
B91FC6F7
3D5A064E
3CCCABE4
BD2251EB
3D31A3E6
BCBE4581
3D23C3D2
BB6C7ECA
3D11087B
BDD57555
3D0F51AC
3DBE45F0
3DCC32A8
BDD4CC65
3DBA56F5
3DED7501
BDDB2F54
BDBAD377
3D87ED6A
3D499513
3D82C8F2
3D789335
3D97A75D
3DC0C449
BC3F7C36
BD9049A2
3D6DAF7D
BD382A61
BBA451F5
BD9D9619
3B0D4D00
BD17958B
BDD8AE77
3C3078F8
BD50C213
BCB04EB0
3DCDDE90
BD19ECE3
3C4775A8
BE10BE52
3E196E41
BDAE47E2
BDFD7B98
BD964DAC
3DE0E238
BDAABFA4
3DD4AD51
BDB6695A
3D33B4B2
3CFB58EC
BD132131
3DA9A66C
BCCF3A7E
3DC2D364
BD3C51D0
BC893FA5
3D41D3B1
BDE1D488
3D310905
3DA2C4F2
3D9D9F3A
3DD36E44
3BCA97E0
BCCC3028
BDB8D464
BD8C80C0
3DD85B1B
3DF48F9C
BDBE02FD
3C9C3C79
BD95CB2B
3D03A67A
3A91E8C9
3C81F054
3D2342FA
3D2C9C12
3C1DA65E
BCFD3554
BDD99391
BD12B29D
BD85466A
3DBA0D51
BB9325A0
3DBBF624
BDB50819
BCBE8795
BCF11B94
3DDF0C65
BDFB9314
3DB8136F
BDADCA0A
3C9F00B8
3D4DC67D
3DDA53BE
BD9829A3
BD52F71B
BE0B6568
BC5BCC78
3C80B26A
3DBE1BA2
3D9E6292
BDD68B93
3D0C72DE
3D73AF7B
3C7466A4
BD28E64E
3DBFFB43
3D7F35BF
3D86BA27
3DAD6CD2
BDBDEE3C
3C38880E
3CDE756F
3DC9696F
3D241BAE
3D8165BA
3C0CF2A7
3D0C2B71
BDB9618D
3D8C72BD
3D997C46
3D7406C6
3DD7C107
3E08F344
3D74C821
BD8E5BCA
3CF7FB8C
3DA15DA6
3D11F90F
BC65A8D0
3DC8B83D
3E087D4F
BDDC7AC6
3D5A7D4F
3DBBF775
BD9E0058
3D9CCF0E
3DA08D4F
3DE84EC5
3D8B20F5
3DB00A44
BD844E27
BCA28D0C
3CC19274
3D86DCA6
BD8A09D2
BCC2E44E
BDDF5F05
BDDD8D59
BCB70CCD
3DB07081
3D9EF531
BD668ED3
3D62D422
3D95BA65
3D42CA84
3B4BAB01
3C26DE54
BC185340
BDCFA472
BC83981C
3C29ABD0
3D4EC1C1
BD1C2076
3D8C528F
BD20B839
3DE1F5CD
3B853027
3D7A4F59
3D1C2696
BCBE97E2
B9B0F5AF
3BE7F687
3D8D74D4
3D3A0C1A
3E03E2B6
3C1B49C7
BDD12C0D
BDA7C5A3
3D27A227
3DC69762
3D501AE3
3DA18F2D
BD329347
BCD4CE98
3D6F3552
BC1CA53A
3E086ABA
3DB27F78
BDAFE5B5
3D9D7F8F
3BB4CE28
3D9CD7DC
3DC5E8AD
3D97A28E
BD29C12B
BD84BF6E
BC9CF5A1
BD635CF9
3D56662B
BE05DE58
3DCE66B7
3DE31AFB
BD0D558F
3D7EEF71
BDD4C1DD
BD05E0EC
BCFC651D
BDDA3CB7
BCC5A590
3E03B79A
3DB4EAC4
3DC94FA8
BC257ECC
3DD76F57
3DC33FAB
3D029B6F
BD6D0050
BC31394A
3B12BC0F
3DA1D244
3D4EAC63
BDC95FD0
BD0B0CE4
3DA906E8
3D906941
3DBFA805
BD8FCC82
BD40A076
BDE33B2B
3C81F78C
3D10090E
3DFE1661
BD642B37
3D766B31
BDB7CBFF
3DA854D4
3D95FFB8
3D59A59A
B7B4F4A7
BD9511AF
3CD47BDC
BC90A243
3DC7CB70
3D1CF57D
BC8F8125
3CBF5DC4
BD0978F1
3D8D68F6
3D142DE2
BCE0AA00
3D1271F7
BD0C899B
3CC63AE3
3D1E86BE
BCFEB757
BE0A9B2C
3DC93541
3D691B61
3CCD12F8
3C67B3F3
BD6A126A
BD1B28AC
BD536B07
BD393524
BD4D6ACE
3DBF8D8D
3D93D0E3
BD8115AE
3DD20C1A
BDE06573
BDAA323C
BD983309
3DB9EC97
BD5A2ED3
3DC66B8E
BD400DD7
3D7AF4D5
BDA2C9A8
BD434866
3B7A830D
3DC7DDC7
3DD4F65F
3D8566D7
3D1443C0
BCA8326D
3DB3BC41
3D9610ED
BC1E18F2
BD95620E
BDA04F8B
3D9D6252
B95585BD
BC1FD424
BDCB751D
BCB2DFBD
3D2B9EA7
3C08CD30
BD2810A1
3DB12D94
3CC06C72
3D9B6238
3D98E55B
3E06CB81
3C8831F0
3DB71EFD
BBF7FF00
BD972529
BCE18F26
BBAA5DBA
BC80CA64
BD0BC449
3D69C157
BD9C0D3B
3D5F57F1
3DC38E24
3D543021
BD5224C5
3D990C79
3CDF39D1
BDCA9F20
3D16F0BA
3E0DFF71
BBD3B17F
BCE75F6A
BCEFC26A
BDC659E4
BDA23762
BC721AF6
BD00A5CC
3E06DE50
3DE8357E
BD43DDF1
BDAC94A3
BC94BA04
3DBA0EFD
3D798CA1
BD4276CC
BCCFFD8E
BD834F91
3DD0F44A
3DCEE456
BD995228
3DC7C68B
BDDBB311
BDAA6ED9
BC532CA9
BDAF3F17
3D4D3A2D
3D9A8679
3D4A802E
BD6DF3A4
3DA0C9BA
BCCE9254
BC80F3D1
3D889501
3D40C581
3BB2BC13
3DD89B01
3D7F3CBF
BD8BB550
3D122F3A
BD7D0856
3D2D06CA
3D2B9831
BBE5C5F8
3DA16611
BD9CA96C
BD4B87E1
BDA08E17
BCA26080
BBFD054D
BD108B10
3D48736C
3CD0A32C
3C814D44
BB695C33
BDB53480
BD3130F9
3C1AB176
3DDC59FE
BC157B44
3CDD846C
3D3ABA92
BD8517CC
BD20577A
3D68B97D
BD14433B
BA02C0F4
BDB4F208
3D43CA92
BDAA858D
3C9BAF88
39659C00
3D402CED
BDB4E6FA
3CAA2C96
BD51083D
3D8A6825
3C8B9398
BD5AB9A5
3D667BF6
3CBA2880
BCC9ABDC
3DA210A0
3C85689F
3B9219C0
3D92C543
3E477ADC
BDAEDFFF
BD2BC25C
BDB27BFF
3DBA4E2E
BDD90F2B
3D2906CE
3CECF60A
BD9BDA5B
3D2CC4BE
BCA7C48C
3DA1D392
3C83B901
BC6FAB91
BCB75108
3D7937D7
3CB7DCC8
3D2E1E86
3D6C7255
3D9E3108

