3E89ACE5
3F0D8C47
BD88EA70
3EDD3204
BD259E1D
3EC945C1
BE92C8CB
BE70BDCE
3E89257B
3F206429
BF054D13
3ED7DEDE
3E712621
3DC67CE1
3E9A417D
3E3969D1
BFF93B94
BDAE78AF
3E4A05AB
BC4FD76A
BF1DDD94
3EB366F4
BF0CBAE4
BF36F509
3E01C07C
3F13792D
3DFE756E
3F14C2A0
BE0AB3C6
3F486C25
3F3BD09C
3E1EDA2C
BF453637
3F21F0DA
3DAC11E1
3EB09396
BE272CCC
BE94FCD1
BF50E9A0
BF7DB786
BF4DAD85
3F1B8A95
3E30B32C
3F4B323E
3EDF0BF0
3F047B73
3E8DF1F6
BD86320F
BEC304F0
3E3E0279
BF9ED66F
3ED125F1
BFBE5468
3EBBA33C
3E4101F2
3EF94957
3E2501C3
3F22F3C3
3F4C860D
3F8C92FE
3F7871E1
3D83CE2E
3E8257CA
BE50520D
3F07076F
3F1384EC
BF9008D9
3D97FAA5
BFA10235
3EECDEBE
3D8FBBB6
3EA53C26
3EC39AE7
3F172269
BE2BBEBD
3E95567D
3E765E9C
3D9E864B
3D1EF837
BEA5E2FE
3F12C837
BDCBAE0B
BF8E9B82
BE73AA54
BEB40A52
3EB50D79
BE488994
3E03740F
BCF06FF4
3CEBEB17
3EC1A039
3E32ADA3
3EE57C03
BEA391B0
3ECC65D9
BF049893
3DEA9EF6
3F23E001
BF33C49A
3FA349D4
BF48CFF8
3F6A897E
BBF41E46
3F69C927
3EA05212
3F9F091D
3E39040F
3F883869
3EB06846
BE8979B1
BED45E61
BF5AEE8B
3EDEE269
3F42188D
BE5A44EC
3F36C108
3E3C3907
BFBBEED2
BCF9DDF9
BE1E69EA
3E6495F4
3ECF8D25
3E04F3D5
3F45316E
3D9F5C68
BD3CA9F4
BEC5582E
3E8ECCD9
3F17267A
3F1FB481
BE0655F6
BEC2842A
3F18DED1
3CA973E8
BE3AB40B
BE212DDE
BCCBE741
3F71019E
3F20F59D
3F6BB80C
3F999CA8
BF3B566D
BDEB0113
3F1525AC
3E03B6C6
BE2B3B9C
3D8464A2
3F011863
3E852BA4
BF9AA25B
BD49E84E
3D27E283
BEB5911C
40017416
3F5F6DD8
3F99E6E6
3E2C17A0
3EB6D585
BEC2AA76
BE0F5EFE
3EF8AD72
3E44F822
3E863158
3F097E81
3E85F476
BF140C86
3DB4746D
BEE3AB1B
3E847D5A
3F0948C4
3DE19BB8
3F10D1C0
BE4FC22E
3F6AA67D
3C98B7F5
3F935374
3E8288C3
3EBDFCB1
3D79D620
3F03ABEA
3D5A22BA
3ED6E852
BE8BCB54
BEA94385
3E8E683D
3FC173AD
BC8371F3
3F94EFE8
BE736A11
3F1D63FF
BE6826F4
3D9B4A6B
3F740CB3
BF31A87A
BEC1DD48
BED1E72F
BF148E67
3E0932EA
BE6DA14E
BD5766A0
BDDA10EB
3F5CAD2E
BEDB5680
3FA1FC31
BE1CAF14
3FB4F52B
3E61EBA2
3E0520D5
BF498F1F
BE92255F
BF8CADB0
BE8C3119
BF3B6FA2
BF05996A
BE9C21E0
BE722C60
BE9C90B9
3F84EDE8
BF49BA1E
3F542464
3C9394D2
3FB1C2F7
3F1E9205
3F3E6D86
BE039D6D
3F8EB461
BF86B0C7
3F782F35
BC83A04F
3FA655B6
3F2FAC89
3F2E5DD0
BF0272FF
3FC10D0D
BF5B4FD6
3FAF1D95
BEE40E04
3E304950
BDB82EA7
BD08F9C1
BF052E20
3F686F5E
3EB3F454
3F19546B
3E98B1EF
3F1CDB02
3E37EE35
3E73B5C2
BE36509E
BDD667A6
3D8FBC14
3D4759B3
3F141E83
3E19A7F1
3F1CE979
3F093E89
3E425EF9
3F30343D
3D2E4EE0
3F24636D
3DB8808B
3EE25E32
3E87F4FC
3EA9F4AA
BEE3A646
3E599D8E
3F8966A3
3ED9F043
3F68F2D7
3F5E6C02
3F6F15A3
3EEE3112
BCA5A746
3EBCA135
3E884B8E
3EA305CC
3CAF99AD
3F085622
3E699DB4
3EA30D48
BD024876
3F6C18E4
3F729ADC
3F281040
3F0C8E04
3F149FD2
3F0CBB4A
3E8E1EFE
BD84088D
3F0B0A4F
BD1CDF15
3EDD2298
3E2D4EE5
3EC5CEEE
3E9FF1B6
3E05A328
3E42EDCC
3F4F8822
BD9B449B
3ED634BB
BE8E91A9
3E57E5FC
3DFC3E5F
3EAEE291
BE9AA767
3EE935C2
BD98FB77
3EECFAFC
BE90C514
BE9D1DF9
BE599289
3E4FBEB5
BE316C95
3F495FCC
3DF42561
3ECB7892
3D5CEAB5
3F198D66
3DBD5C7E
BC5F0651
BE782E53
3EDABA77
BE8FEB44
3E8FAF9C
BF2737D2
BEBE2B1C
BE384CB6
BE080108
BE21AF8E
3F3A0386
3D8FC257
3F33FE7B
BE1B6B71
3D4B2CCD
3E357529
BBF48C96
3EBED3E9
3F0E1664
BE0BA59C
3F330DD2
BEB499D1
BE6A4B8A
BE852E51
BE8E2289
BDB5F073
3F48F5BA
3C8E86CE
3F3803A8
BDDEC2EA
3D425143
BDB3B552
BD482631
BE651C64
3E329FF6
BA924356
3ECBE50D
BE4A7A59
BE188EA5
BE4BA4DC
3C92A625
BE619ED3
BE0E139F
BE30D1B3
3E912C68
3D758F19
BD1C346C
3E202A01
BE4CAA99
3E32BE7E
3EDA0B02
3DE1A527
BE324FED
3E2E5BC3
BE21F919
BD8A3F3D
BDFFFE44
BE5D9D48
3EDD465A
3E04C127
BE1CA6DA
3E202D07
3D911B2D
BC51A439
BDFEC5D6
BE911969
BE162AF3
3E1C28B1
3D0A7305
3E5CD044
BE5C9C39
BD3538A0
BD442E6B
BDD6243B
BEA17EBC
3F35A8C6
3D6DF5ED
3EC9C2B0
3EF811DC
3E1E1B6B
3D2F20C2
BEB542A9
BE012BA1
BE0E93D2
3EBFBE69
3C7F3185
BE8EA278
BC800643
BD7125DA
BE126FE9
3E8E6556
3F0B9467
BD5131C1
3DAB9855
3E49F3E3
BCF98BAC
BD25F18E
3DB169A4
3E84EA6A
3ECE9BCD
3E925253
3EA93A90
3E826A00
3E592173
3E0D57F2
BE9E0D96
BDF55A35
3E8C68D6
3C2EA18E
BD576A6B
3D306312
BE2F8E9A
BE3D6343
3EC833CD
BA4D92C0
3E9F0080
BD754F39
3E0FFA8E
BE1B992C
3DD2857D
3E9EDBB5
BD65391A
3F684AFC
BD86C8A9
3F15D9CF
3DD90457
3E0096A2
3A82323F
BDF16FA0
BE593E3F
BDB9D908
3D1F82DF
BE38F6DD
3CDE59E4
BE852886
BDB13D89
3C8FCAD7
BE08350E
3E387091
3E9C617D
BC73B906
3DE3FC48
3DDDBAC9
3D9C240C
BC97E15D
BD06DAE6
BE1DCD35
3E4F8016
3F025122
3E055FA0
3ED163A5
BD245F5C
BCF4B652
BD2D0DA9
3E74183F
3EFB398C
BC71AA85
3E9D54B9
3F0BE662
3E1F3718
3E5DB135
BE75E8CD
BE3967C1
3E3F8386
BD9E6460
BD9ACF46
BDA622D5
3D474C92
3B55E476
3C99D24E
BDACD82B
3EC0B332
3BB04675
3E51F786
3EE1E273
3E79E5BB
3DA7FE4B
BEAF63F3
BE3EFD67
3E94222C
BE379B3B
3E72C849
3DBEE7C1
3D986EC8
3D751E15
BDE7D958
3F10CC5A
BD963238
3E55D235
3E7505BB
3CEFFCAC
BD86CE0C
3D3F430E
3F057E18
BEA8E7AB
3EDA4F30
BD718705
3E8564FF
3E18CA81
3E481EC7
3D488169
BDFA25EE
BD99B073
3DAC981D
BE33CF4A
BD047011
3B608299
BD9BA4D3
BDC1369B
BE069594
3DA1F157
3F222D0A
BC813011
3F14618A
3E9F9C01
3EA8B7D5
3EF6AF81
BD1DB92E
3F19FADF
BCBD69D3
BE81790F
3DD526DD
3E2B19BB
3CC6821A
BE140BF7
3E0B9E5B
3E25D014
BE51FCED
3E20C413
BE12C8AD
BEADAFBB
BE57B05B
BD33F3BB
BDFC9C15
3EB5BD69
BC7E73FB
BD9AEE29
3D8FD3F3
3D20CDEC
BB8A44E4
BD98BA04
BE40DE2A
3E6842F1
3CEAD614
BE1B92F5
3DC7253A
3E196C65
3DDD7080
3DB9F9B5
BD88DE38
3E42BC8B
3E4E9B65
BE70DCAA
3E80682A
3EEB354D
3E3B8D23
3E396BB5
BE4EF8A1
BE53DEBA
3D138AA3
BE158240
BB9CCDBB
3DE59FCA
BC93711C
3D46BA08
BB5585E0
3E800C92
BC9EDA29
3CA189ED
BD65B29D
3E6A9DFE
3E041A85
3D84EBE1
BE8C3955
BBA22497
BDE83C2B
BBD676C3
3DE24D8E
BE6FDE98
3D46BBC9
3AE786D6
BE8A489F
3EEB6E7F
3C47B303
3E3FA3FD
3DDEA33B
3EFAFDAC
3DAC13C3
BBBE86F7
3EB0EA6D
BE9D58F7
3EC8EE14
BD37D624
3EAC14A4
3E07B185
3DDDDE5C
3CDEAF6C
3D03D002
BEA163EC
3E9D8471
BBDE8E0E
3E8D71A2
3F6AD28D
3E17824A
3D87AD7B
3D896B9D
3C46B93D
3E908041
3E715417
3E37D1B3
3E240353
3E2C13E0
3D68D7C3
BD5FF66E
3E17EC41
3E84767B
BE9FE56C
3DBD6211
3F6E1457
3E1E46F9
3DDF2AD3
BE02D024
3E33BF22
BD450E53
3E102959
3C6C5A75
BBEB27F9
BC259E36
3D7144F8
BC4D3D1C
BE8BF0CD
3E24D7A9
BDDEC48E
3DD1DBDE
3F66DE88
3E610659
BB9D2160
BE27690C
BE9FE59A
3E9293D1
BE32899C
3E58A6E3
3E1C3BEB
3D254556
B937EA35
BD900526
3DCD7CC5
3E71E81D
BE2A849E
3DAC1A89
3F18D335
3D513B75
3D89417B
BE48EE69
BEF76587
3E95B57D
BE5BE70E
3E24D9DF
3E34313E
3DBDE890
BD3C5E6E
BD2EEC29
BED8F5F7
3E0D0D60
BE22BE74
3E562D5E
3F50CD22
3D9353C9
3D66CD71
3E549F38
BEBB46DC
3D154FB4
BD91CDBA
3D8B3A5B
3D042BA7
3C2F8D0D
BDC0D9B2
BD7DF94C
3DE22B49
3DAA23E2
3DD873AE
3E5AB7CC
3F65CD4B
3D5B13A5
BB4F07E8
3E984F64
BEFD7B74
3D1CACC1
BE3E50FA
3D96DD29
BE16D935
BCDD6DAA
BD770BE3
BD4F127A
BDFBEBA3
3D298D0C
3D6E1C1E
3DF04B52
3F00E60E
BD8015B6
3BBF694D
BD227CBC
BED18392
3D950837
BE78D308
3DD3CE19
3E94AFB1
3E505E44
3D018F06
BE2647FD
3DF50A49
3DBA5B87
BDCA47A8
3E57B3E3
3F0F1852
3DB042AA
3C85C31F
BD68B790
BF05E14B
3D472C2A
BDE3432C
3E4C2F96
3EB04F09
3E0077EC
3DDEFCAF
BCE78EED
BE7A8C17
3E44C35E
3E7C0A37
3DD5F8D3
3EAD4B5F
BC97E5B9
BD44C89D
BDF84070
BF09AB62
3E7744FA
BE2A29ED
3D66F516
3E183645
3DA8EEE9
3C1817AD
BDE6E948
3DA62226
B894652C
3F34B0F1
3CE03CC6
3E47CEDA
3C9B0236
3DBB6EA3
BCA32BED
3F68469F
3AC9A391
BDA30799
3D104272
3E35A8AA
3C80F17E
BDC99CE6
3EC1BBA4
BEA28047
BD0351BE
3C9CCEAD
3E041F42
3F6E50E9
BD611016
BD574397
BE87A343
BD946A49
3DB23969
3DCBF207
3D094E6E
3E0F0345
3D3DC977
3D939F59
BD3B5DFC
3DFC19A4
3E09693C
BCF87056
BBECC936
3F58CEA3
3DE3468A
BC8BDBF2
BE14BC48
3D60571A
3D4F9F67
BCB9AF40
BCA34D4A
3E092B6F
3D714C25
3C5FC9B0
BE31D9A0
3D7C8FAE
3E3C43E2
3DF726FB
3E0D5C27
3F5FFEA5
3E437FF9
3D559B18
BE640C53
BE19A318
3E103F4F
BCE16DB2
3E0A5975
3DD3067A
3CC34C9B
BD5FDA76
BC69B20B
BD5CB8C3
3DC3C97D
3DFAB99E
3D48A34C
3F7C9F58
3E556414
3DBF378C
BE01A551
BDC88F2A
3DD2B4A0
3B7159F9
3DF8062F
3E8A8305
3DF5CD77
3DA5D23B
3CF83142
BD3BF3F3
3CFBA84D
3D8F8713
3E6D8643
3F3D8075
3C81675C
3DCE7BED
BE220AAE
BE170D4E
3D3F1AAA
3CD4D240
3E26C208
3DA2C95E
3DCD08C7
3CA259F9
3E616462
BDCEE1C2
BDCBA9B5
3E3F1FEC
BD1D36A1
3E60C4CB
3DB73CDC
3CDEC052
BDCEE74B
BC2CD43C
3CF73971
3AD2FFEA
3DE604A8
3DA8E52A
3DA62099
3D9CB904
BDA19AB9
3E1257A1
3CF472ED
3CCFF2C6
3E58F990
3F3D2C62
3E187B27
3E25020C
B8233420
3DB15AF6
BD3A54B7
BD1EB5EB
3BD24E14
3DC92E78
3D3DEC2F
3D7E277F
3E8C7557
3E215C34
3CE052FC
3E0CC0B4
3DD04B75
3EA67C5A
BD70D8A6
BD23EEC3
BDD928C8
BC808425
3DDCFAD6
3DD2AB67
3E4CBE8E
3DB72A3A
3D1ECBA1
3C67E1A7
BE2B11C5
3D38BABC
3E15F42E
3DD9FB3D
3E5153AB
3F3424CF
3E6343BD
3E2B68D8
BDBBE76B
3D368E85
BCF0C00B
BC9B89CC
3E4B20CC
3E0BB76A
3D50FE55
BCC66C80
BDA66973
BCF30A83
3D9A006C
3C8264AE
3E13200C
3F1E64CE
3E2CD033
3CEEF479
BD1C1DA9
BDAB6965
3D8A818F
3D9D6833
3E2D6C6F
3E902BC3
BB1C58C4
3D9F7786
BDA0F419
3E035890
3E25706B
3E30FC4C
3E5E5F41
3F3836CA
3E33E1E7
3D26313E
BD9FD11A
BDABED92
3C37E3C6
3D72B219
3D372E38
BDE79489
BDC95328
3D5DB785
3E7EE201
3D08E325
BD16D9EE
3E06EE7C
BBB91997
3EC2C55E
3CBE341F
3DAB1D10
BE711F7B
BD222A99
3DF9F4B2
3BA4058E
3CEE51D4
3DBC48D8
3E2C92D5
3DF9CD02
BE225FD4
3C229ED1
3E5611B0
3E10B9A8
3DA1EFF8
3F0666B9
3E6B5636
3E30CC2C
BE7490F3
BE24A4FF
3DE279CC
3DCE24C3
3D94437F
3E705FD6
3C81EC8D
3CE94603
BD55E8E1
3DBD29AE
BC1BF06D
3D9ADBB1
BD93DE8E
3E0869F2
3D8050A1
3D47988F
BE5F34BA
BDA7EB35
3E022FE8
3CD886BC
BBE9CAD5
3C2D3EE3
3D337425
3D2F46FB
3C4983AC
3DB75129
BCE72BB4
3D59694B
3DE690D2
3E818F7C
3E4797A8
3D849EFC
BD914F89
3D167D14
3E4D1D49
BDD42E83
3DA7104A
3E427C8A
3DDFC1F7
3D324BF8
3CC88ABD
3CEC5495
3DC07C0D
3DECCD16
3D58E4D0
3EE415DF
3DD65F1B
3D07B3A2
BDD7DA4F
BDD5F6BA
3C58BC47
3DA1CD03
BD896694
BE04523D
3CF631CB
BD1E28C7
BDD95334
3C08E4D1
3D77B0AE
3D1F17C0
3DAAEE05
3E9DC59F
3E19C7C8
3D9112EF
BE13DDBF
3D35B427
3AC100E3
3AE62220
3DE8FC6E
3E3F7503
3DD694E9
3D02BF14
BC005250
3C60CF1F
3E6C5F0A
3D8E0EEF
3E1E2401
3ECB9121
3E0D60F5
3C01B60B
BE150BAC
BD128976
3E2B448C
3DA9A8AD
3E21D653
3DF80A3E
3E116B76
3DC7A0EC
3C93E991
BC86156B
3E494199
3E0E264F
3DB399E5
3E826CB5
3E023CC7
3E387984
3E13030F
3D1CAD95
BDB69555
BD8C4003
BE25C416
BEC2D822
BDB2AFF4
BD3E7AC8
3E84F253
3E3254BD
3D044330
BD2399BE
BDFBE601
BDC1B950
BD4C3B3E
BDB09347
3E83B6C0
BB745B22
BD19ADEF
BDDC0827
3D869FEC
BE1A24CC
BD509C40
3B5ED0F9
BE0EE971
BD5FCD3D
3E4117E1
3E1A122B
3E226C4E
3E96FEF9
3D896E35
3E03BA53
3E9AB58A
BDEDE5AA
3D66960F
BDE40C21
3D730D44
BE738ABA
BD323D0D
BD3825E8
BC808191
BDC5D98F
3D3C2F7C
BCF6E6E4
3E10AE27
3EA656D1
3DFC3D56
3D800146
BE48FBCA
BDC0F0D4
3E0C8D1C
BBDFBEFA
3E6844C4
3E9547B1
3D0059BA
BC69AF00
BE4A53A9
BD3243D0
3DF8E9CA
3DB76A5F
BC086C55
3E232C15
3D8405A6
3D923EFB
BE5E03E0
BDBC696F
3E503E24
BD6326C2
3DA4192E
3E29395E
3D13F14C
3D87DA3C
BE445B3F
BDD9523B
3E05D27C
3D1C3810
3E7346C2
3E9CD791
3E6A3636
3E032344
BE47D829
3D15D6C0
3DD1B475
BD1AEC90
3E039408
3E73C7BD
BB9F9B64
3DF8AB92
BD11D431
BE426EA5
BD2F8EB9
3E359083
3D953AC3
BE79922A
3D5501C1
BB839C95
3971F462
3D54892E
BDFC3BDE
BD2EA72E
BC8DF093
BDC38672
BE0262C0
BD5FCB17
3DB1B6A0
BD09DD54
BD4B85DD
BD796949
BC5E2AC9
3E11E2B3
BC9B916D
3AE8CBF3
3DE72159
3D10371F
BD808A7F
BD1A28A8
3E0130D0
3D271CE1
3D052DC3
3CDCB5E3
3CB7DD5A
BCC3282D
3D875A06
3DE6F1E0
3E28155D
3E3131E5
3D8CB25C
3DD1BD76
3D6D19F8
BCC33D79
3D49B435
BD946D62
3E11E6C9
3E08013B
BC8594F1
BDD132AA
BC3EE0C4
BD1B9070
BDA5E20E
BD37C4C7
BCB6F0F8
BCFD9F38
BCCB9FC5
3BD57EF5
3CC59F0B
BDD6C106
BD83DF32
3D96B57D
BCC1A12C
3D0A55AB
3E03D548
3DF77DF2
BD3B7843
BDCF432B
3DF34620
3DB033BC
3CDF9B41
BC68F9F2
3E099429
BD04F14D
3D64A0E4
3CF771C8
BCD3FCA9
3D10DE80
3E051AA1
3CE9A1FB
BD4DCD38
3D23EB8C
3D6C639A
BD4F5DC7
3DB8E292
3D10CF0A
3DFB932D
BD8C325E
3D97DF99
3D63AC9F
3CD996D1
3CB0BBF9
3DD78268
3DB9AECC
3D59C145
3D710FD3
BD94E21E
3DC917FD
3DE72508
3D4A6B7E
3CABBB47
BD9F98AF
3C3B85FF
BB322214
3D3DD214
BDAA344B
3C8005C4
BDB24924
3E02345A
3D6031F3
BBE6C063
3E0AE4A9
3DD9314B
BD98BB2E
BD95EAF7
BDFA969C
3DE0395E
3D38EF1E
3DC33EA0
3C96BD93
BCDCE48B
3DB656A2
3DA6C6EE
BD909D66
BCAC9C83
3CC6D6C4
3DA10040
3DEE6C40
BCC10B08
3D8E24C0
BD6C8C2C
BE135279
3D908142
BD5F9800
3DC99738
3D39234E
3DCCE5D9
3CBDB97F
3E3815C1
3E0EE88A
BC2136D2
BDC8F926
3CA98C91
BCFDAA65
3D862DB1
3D1BD1A4
BDE241A4
BCD0690E
3CC80D67
3E088D2F
BDB5C3D1
3D4436E1
3DFEFF15
BDAFA3CD
BDA262C9
BE0DB7DF
3E0549D3
3C204DE9
3D8D9B89
BD442CAF
3B8AB5F2
3D1B3972
3BEEEF65
BBAC4F68
3D6D1D25
BD33A14E
BDAF4675
3C80A654
3DAD4DDD
BD271F3D
3D03B31A
3D7F6322
BDDD1414
3D18F019
BD806AC4
BD985754
BE01F2B1
3DAEEF18
3D26C928
BDE2BA48
3BF60173
3DBB9377
3DA47466
3DA1A6C6
BC5B6597
3DE13A94
BD935806
3CD481BA
BDFB9068
BDEB558F
3C69CF97
3C0CB0C1
BDF1703D
3D500AD3
3B730F33
3D440894
3E0AA54C
3CEEB014
BD4C38BD
3DD445E2
3DFF75B5
BD86A863
BD9F9771
3CB29883
3C5351C1
3C3C08B9
3E041D68
3BD5EA00
3C34642D
3C953ABC
3C1BE3B9
3CA8B7EA
3C98D114
3D032DD9
BE022B7A
3CA2924F
BD80A21A
3D2B0B3D
BDE8C2B2
3D124DF7
3CC15678
3D25596F
3D83D700
3DD891D2
BCE0A027
3DDEBD9A
BDE31AEA
3C7CEB7E
3BFE33B3
BC8B439C
BD6B9E96
3E0D4806
3DD426D9
BD721B27
3DBFB384
3CA031F5
3C2C417F
BDEFB01B
3D8D0EC4
BD6045CB
3C1B232F
BE00AB1D
3DE659B8
BC1D74FC
3D066523
3C5C1DC6
BCEE17D2
BDF47506
BDEF3670
BBCE9906
BE03BA87
BD2A8406
BD4BBF99
BDB02B15
BD15596D
BB3B5878
3DA6BF47
3DD8F69C
BD69FA70
BD0E2CA3
BDDA9048
BB98BF9F
BCC3C886
3D9C3306
BD08F35C
BC2F3404
3C5A6962
BD1D1FFD
3CC678B7
3D918F7C
3D025FE8
3D2FFE4A
BDB0AEC7
3DD0097E
BD8B8BCE
BD98EDBC
BD289DA5
3CF8539C
3DD48884
3E04D414
BD8DED20
3CDBEEC7
3CAC35A7
BD0FF72A
3D645CDD
3C66F971
3D8E03F1
3E002D57
3DEF5787
BCDFE8D7
BDF5624A
BD126F05
3DF16D3E
3DFF655D
3E0166F4
3D996968
3DAA829D
3D94F3AC
BDAFCF8C
BD793B30
3DDB8CF0
3D9374D8
3D973688
BADE252E
3DE20F51
BDB13AF1
3DBC9D1E
3D0D826F
3D77CBC1
3E06A548
3D3EA221
3D502A49
3DDC1E3B
3DB595B8
3D45274E
BD4B3FEB
BD9D2C16
3D92165A
3D60C70D
BD89D428
3C87B4B9
3D3E43BD
3CDCFADB
3E09969C
BC694F91
BD54172B
BDC92D97
3CE202E1
BC939242
3ABD5365
BC0F5AAB
3E073F16
3D589B09
3DBA28A1
BD3AB946
3C8BE909
BC9F25FF
BDFEAC5A
3DC20886
3B4CCE26
BD8F8728
3D60A962
3D7E699B
3CA6BC42
3D5F9445
3C7AEB5F
BDADB026
BDF36742
BDB06298
3DDA5CFF
BC72A690
3D8A3BF2
BD881C3F
BDAF347B
3D834294
BD9A0E68
3988FE0B
3D6F034B
3D6B6B55
3CA2C30E
BD31B068
3CA554E6
BDA54F65
BD8BFC98
BD372E37
3D0EE308
BD3B8D33
BBD4B740
3DE55C57
BD76C786
BDEA7B18
BDEECD18
3D2FC46B
BD6DF750
3D9FBDA2
3D8422D0
BD19B6F1
BD243041
3D1CFE50
BD0BD0C6
3DCA8A32
BD8442F6
BD9F51A5
BC5B9BF1
3D93FD31
3BFD2FC4
BD84CCD1
BDF1921A
3C527769
BB94B45F
3DA0695C
3D717E5D
39A0231B
BDA750B1
BDC52B26
BDF196EA
BD6D3977
3CD51664
BD24E397
3DA464D6
3D24CF2A
BCEC0137
3DA7E47A
BE0AF04F
3DE5D0C2
3DDCA08B
BD949A1E
BD86C080
3DA28745
3D69ADA1
3DAC8555
3CBB52B3
BDDB0844
BCF67954
BDCDE62C
3C31D341
3D31DC55
BD4CBDF1
3D611DA8
BDECDA54
3D381A27
3DEFC06F
3DE3B51E
3E09FA1E
3CE4FCA1
3D3F648D
BD217ECA
3BED18CC
BCF45E90
3DB64051
BD275652
BD4E0CD6
BD68A6DD
BD9B19E4
BE060994
BDCADCA4
BCF75DF0
BC4E10C1
3BCB31E7
3DD262B6
BDA5D07A
3D8A7C51
3DAD254C
BE000593
3E0628A7
3CC7DC30
3DE51BAE
3D8A1600
3DBA3DDF
3DE89AF8
3D8D15EC
3D5DFBDA
3CB2ED74
3E057E5D
BCC41504
3DE17E1C
BC660AA1
3D6054CD
3CBB3CAA
3CE74261
3E06C345
BDB612B8
BD3E080C
3CE4783F
3DD8FA19
BDCE555C
3D7F86C5
BD7034A8
3D96A57E
3DD459AF
3C92C6B0
3C1B33B5
BDB4DC5D
3A8D38A6
BCD8224F
3D7118CE
BCFAB0C5
3D38A3CA
BD0B219D
BD6C0DCA
3D9EB8E5
3D7A11CD
3DB6D716
BD11DD07
BDB63FA0
3D3A2DEE
BCD6F350
BD2207B5
BDAB6B03
3B9F0254
BD8602EC
BC9E28B3
BD43A449
BBA34E1F
3D2462BE
3DF9C1CC
3E06547A
BB37ECAE
3C8063CC
BD24D644
3DCD0270
3DB91CE3
BC6E9238
3DE225E8
BD179964
3D9A9914
3E36EA8C
3C026686
3D4F5681
BDD5B4B9
BD416761
3D15529E
3C4DD570
3D75AD98
3DE066C6
3E117276
3D86BF3C
BDCC5710
3CE960E6
BDEF2780
BCE82344
BDC0C945
BD9E6662
BD020E67
BC6CFBAA
BD088ACD
BDDD3FA5
BD210D70
3D8F0289
3CBC2D8B
BE053540
3C8BDA20
BCAE1153
3DEE029B
3CEC284A
BCA4DDD2
3DEAFB6B
3DB5BC36
BDC2EDFA
BDD7D6EE
BCCA40F6
3A44DE70
3E04E5E2
3C319C33
BDADCE76
BC389610
BD97375D
BCF8A61E
3DE73994
3E0A4409
3D3D9581
BD89C4DC
3CE52EF1
BDAD43B2
3D84305C
B74E3CAA
BCD5F63D
BDB0C832
BBA8C921
3D1C20BD
BC9CAA18
BD9FABD0
3DB11032
3D02028A
BDA0CE62
3BC0E380
3DD1607C
3D9CA2D0
3DD15AD3
3DCDD152
BDB586C2
3DA23A90
3E0A7493
BC80D77C
BD19F08A
3DB4B464
3D8FAFB6
3C23CEB4
3DA181B8
3D637E9A
BD1F0361
3A18BA70
BB79E188
3D5E89FD
BD84F080
3D65E60D
BDC26D12
3D92DA24
BD23BE21
3C2BE4F9
3D68AA79
BDACEFB2
3C7BE815
3DAB1C44
3E2D34AE
3D897011
3D8DEA5E
3D137643
BD2E9527
3ABDB8E9
3D5635DB
BD905333
BD5B9C72
3C03496B
3CE008D7
B98EA30D
3E062160
3DE96FC0
3D2E69E6
BDCA10E3
BDFA3412
BDA8C737
BD4DC761
3D011750
BC1C25DB
BB458258
3D35CA22
BBC71316
3D39B5D8
BDC0ED92
BCC5B07A
3DC5361B
BD778E56
3DFC5BB4
3C338ABD
BDC53D2B
BD52B0FA
BCEEE5A4
BD7E4233
BDA20727
BCB49CF4
3E0A172E
3C4F150E
3DA57B24
3CD83D98
3CFF1A85
BD0282D3
3E0641CB
3D8D6E25
BD95090C
BD9885FD
BD5E3789
BD3FD84A
BD87750B
BD850956
3BA956B1
BD065894
3CBFD4AB
BD85FCF5
BD82A743
BD998853
3D9C49EC
3DD24DDA
3C8EEF1C
BBC67DB1
BD8E546C
BCE06967
3CC9F605
3D8748DA
BE000692
3DCF0C48
3D220A5F
BD4B049D
BC168CF9
3DB95A6B
BD8B0040
3DCC4211
3D3F6512
3D7CEE85
BDE1F731
BC9504EE
BCCC48F4
3CEB9261
BDE00157
BDA18F28
BCEDD439
3DA5C24A
BDA25A72
3D45646B
BE04ED30
BDA10B6D
BDEF5110
BD89EBBE
BD694946
BDA7208E
3D59EB22
3DA45402
BDED81D8
3DB7FD35
3D2131F7
BD8A2C1D
BDBBBB2A
3E0C877A
BD4CB187
BD4389DD
3DC01454
3D1FD76F
3C31380C
3D3E1E20
BE119FCE
3CD717BB
BDA5EA0C
3B965648
3C5B2EFD
BD2D73FC
BDA6722F
BD3A0B3A
BD205E51
3D758325
3DB30953
3E05D480
3D76FFA5
BDB12A31
3DD046CC
BDA8D3C6
BE032977
BCCCF6A2
3D9F85AA
3DF1AA46
BD8E42E4
3D6F173E
BBB8E626
BD73A2D2
BDA092DF
BB862FFF
3D1DFC27
B8D20DBB
BDA6F58C
3DEC123D
3DC83892
BCFAC6D0
BC1A23F3
3E020E8B
BD35B12A
3DB57A1E
3DE1EB3E
BD835F3D
3DCB58AA
BCF2C20C
BD565FCA
3DC7ABA2
3D7CF77B
BD5BD29B
BD8D1F70
3D9C2FDE
BD5F3001
BDCBEF78
3D901F22
BD9CA2CC
BA8B3394
3B87F779
BCEAEADA
BD2C8CA4
3D4BD81D
3E144A29
3D79EA1E
BD7AE8FB
3CFBD5DC
3D50D6B6
BDB6A63A
BDCDC0E4
3DA1E8F1
BD3AAC74
BD847472
3DA67B58
BDFCCDDD
BDDAD9B4
3D4414EB
BDAE2A04
BCA59706
3D156238
3DF064B0
BE061D22
BDE6C24F
BDC60A34
BE12EEC4
BD1DE033
BD2DA6B1
BDE868D6
BDAD1406
B9C7CC05
BC8D46D4
3E07EF7A
3D9D0764
3E071F46
3C62A90E
3D8AF630
BC6C8372
BD32A6C9
BC4F759D
BCCFB0A0
BCC14DE2
BD3AFB7E
BD884A3D
3D6B5D3B
3CF368E3
3D3664AF
3B9303CF
BD8A2654
3DC61A50
3D3879B6
3D293859
BD9BE41A
BDD57142
3B56C79F
3E068E40
BD2CCB29
3DB97EFE
3D8BB644
3DD3EF02
BA912CC1
BC53FA25
3D8AB6F2
3D71BFE7
BD49D073
BD3D95F5
3E044ACF
3D684C6D
BD994963
BDFD9524
BCFE756C
3D548F63
BCF0BE9E
3D46F2F1
3D3E3AFF
3DF21764
BD736FA8
BDC902B8
BD8D7AB2
3CB54300
BD77BA89
3C8E9F5B
BC4FD74F
3D17446E
BCD68EA3
3D05AB86
3CECFACF
3D8C57CF
BC801298
BC089B41
3DDFD41B
BD9E0032
3CE78769
BDB86CB2
BD277C8D
BCEB27CE
3B429F29
3D4FB8B5
3CBBAF10
BD30EE9C
3E227EEA
3D69F779
BDA9959E
BE0BDD17
BDDC045B
3D9D6605
BC6E8BF1
BD3542F5
BD3C6648
3CA5290E
BDBF0CE0
BD502E27
3D2D6BBB
BD8CA00E
BD997672
3ABAEEDD
3B8E9164
BD8612D8
3CB25723
BD70F505
BBDA5DD9
3CEC4EAA
BCF9C159
3BD57754
BCC17463
BD8F1D99
3DFD5868
3DEA6D81
BBD62C52
3DC50BC2
BC59772F
BDA860C3
BC67425D
BD583F4C
3DDCEB78
3DE8D51F
3CB0BF6E
3DE7CAAA
3DB08D67
3D3443A1
BE003BF3
BDF52AA0
BD8A9E52
BB1D10C0
BC8DB5FE
3D2ECEF2
3C820DAD
BDC567CD
BD2DE6F4
BDD321FC
BD966440
BBE1059D
3D26E92A
3C41526B
3DB2108D
3DF2DEA0
BD4A92A6
BD686AFE
BD780937
3D3ACCF6
BD893A2F
BDA52B1C
BBB837AF
BDB57CD5
3D601B88
BCA53A6A
3E023C32
3D8318AA
BDAEB83B
3D4EA815
3CCAB1B4
BBB25B28
BDE9CDEA
3D7AE5CA
BDA59824
BC835360
3DCCD988
3DBF65DE
3C30E9BD
BC4B68F2
BDAA467A
BE09584D
3D6200F9
3D82B623
3D38808A
3DA9A39E
BD9EB1B2
3C3F29C5
3D0B61DE
3DD1C7CA
3C58E9FD
BCB3FE5E
BC12D9C8
BD171ED2
BDFF98B0
BDF3F157
BC1B09B4
BD670CFA
3DB81B76
BD5D2655
3D9F093E
3CFE79EB
3DF105A1
BCEF29EA
BCB152D2
BDB8F24A
3C51A421
3DBB365F
BD4C91D9
3E099610
3D797566
BD7DCD03
3D870BA0
3C9A8303
3DC44F56
BD90AB68
3CEB8866
BC294849
3DD98305
BCE257DF
3DB3218E
BDD74934
BC34EB18
BCD73FD1
3CBBE7CA
BDA3B3A8
BD4717E9
3DC3901A
BDFD704C
3CDF3B3B
BBDEC1EE
BC5ACD46
BD37D16D
3BACB59D
BD8C3739
BD94E414
BD8836FD
BB93E048
3D19688F
BDACDD99
3DE3FED4
BDA8E7D0
3B8D79D3
3C400A05
BDAE3862
3D3A2FC4
3DC1038E
BD14D9E1
BD73AD02
3DDA2502
3D3073F6
BD4626B4
BABAFA3E
BC548F45
3CB744D7
BCA259C4
BD14CCD6
BD8EE508
3D0DE9DE
BC9845BD
3CC9065F
BCB8F669
3DD6E0FC
3DDF004B
3DEBBE7C
3C560AAB
3E074297
3CD3C2D7
3D2F5E14
BDF8E546
3DA8DF68
3DE235B3
3DC8CEB4
BD7EBC21
3DF3EB0D
3D2C68B1
3CA8A89E
3E0E1DCA
3D680C04
3D01FC7B
BDA110FA
BD8FA79C
BCB15E67
BDD22451
BA1CB25D
3CC1806D
BDB98C06
BE03214D
BD28C6FF
BE03AE9E
BDF4FEA4
3D8E76F2
BD908C58
3DF7B8F2
BDA366D2
BDC15344
BDACD9B7
3D54A07E
3D39FF66
BDB95107
BDAE8498
BD8E1486
BD4F1295
3DB494B7
BD6BAAB6
BCFABD3C
3DF410B1
BD6A7FDC
BD95FA2E
3D4ED50D
3CDB26F3
3C8F0098
3DC42AC4
3D40FA05
BCD97B3F
BC9027A1
BDC8884C
BD8D8160
3D7C2E21
BD1C5FB2
3DA497E6
3D2DFDE2
3CABB970
BDA1137F
BB8A8304
BB870824
BD623E95
BD841FC5
BC86013E
3CD92487
3E054D31
BDBF5DAD
BCD47923
3D077FF2
BD1BF097
3DB144D7
3B129927
BD0B5CE5
3D35E16A
3D59A399
3C2EEAA1
BD42E0A4
BDA863AA
3D743E13
3DF0302A
3C8C95C3
BCF631B8
BC96336D
3D8037D2
3D279247
3BF599D3
BDA18194
BD7DA29C
BD1C03C5
3CD16195
3DFAB4C8
3DA56792
BDF800D2
BD053787
3DA47B49
BC6B2EFF
BDAD382E
3DD8E6B7
3CB4A567
3CBD5619
3DC9A6C4
BDAD0CB9
BDC3BBD7
BD98913B
BD8FBB9A
BD1BA738
BE056C99
BE03379E
3D18B393
BC781861
BC425F2A
3D8DE25F
3D5FBA25
BD93B3DC
BC7D7765
3D013279
3D992A39
BCE2EC27
BCDE04E0
3D4DF317
BC437E6B
3D2BD69E
3D8F8050
3C113453
BDCA5692
3DDE2F32
BC248786
3D9160B5
3D8CBF72
BC238AD0
BCD1800F
3D19B9D4
BBCFD18C
BD70E50F
BD875F91
BCE2C536
3D786231
3D0296E2
BC28A2BA
BDC629FC
BC0ADA41
BD9E833C
3D337D7F
BCD08944
3E0A8596
BC800FE8
3CF1EDCF
3D65C614
BE10A538
3DDD25EC
BC86C620
BC29C43B
3D113FCB
3E07DEF4
3D7165E1
BDEEDF06
BDA3345D
BD9605C8
BCCCF25D
3C418F31
3CE15B9F
BD045849
BD2CB72D
3B0E96BB
BDB7757C
3E02FDC4
3D80D651
3DB6C48C
3C1C9185
3DEFBACD
BC3A27D0
BCE20DB0
BCE8B267
3D96700C
BDAFBF35
3DCCB654
3D02FCA0
BB3EA4D9
3D85404F
3E1D8B31
3E098375
BD44C53F
3D162E83
BD8972EA
BE055A0E
BD1FE1F4
BCC628DD
BCA684FB
3D932ADE
3D837D90
BCBE4418
3D3946D7
3D4A2FAE
3D206396
3DB6B7B8
3E069813
3D374AC6
BDA189A2
3CEDB7BC
3CB966F6
BC064E5B
3D22714A
3BAFCFF8
BC393FEC
BDD780A0
3DF71AEE
BDB48A68
BD3231C7
BD5634F4
BD24E537
3D8F7E92
BC01C227
BDE5AEA8
BD17097B
3D4F41B7
BDB08C4A
3D9C7E54
BD9BA1FF
3DA7C800
BD3B7D1C
BD31969C
BDB87BAC
BD4FBB8A
BD4FB225
3DA57946
BDB274E7
3D178386
3D0EBA28
BD00DA08
3D941590
BD648438
BD71B6B5
BCD02AF6
3D94CFC1
BD52BD87
BDE38D06
BD97DF01
BD60228F
3C20F079
3DB9877A
3D2CA792
3DE430CB
BCF40E02
BD339696
BD315D18
3D9475D4
3D10EC94
3DAE22EC
3DADCDC6
BD8532AB
BD34AA79
3C9B3EAF
BD7851C4
3DF630BC
3CCB5004
BD991D8A
3C813EFB
3E00D337
3D37C29D
3D4B56A0
BB71FDA0
3D2EB277
3DE1CCC5
3D239526
BC460EB1
3D905392
3DD41B56
3BBC264B
3E51A6F8
3D973B30
BDFAE083
BB984059
BD90E7AE
3CE9D2A0
BDF59B0D
3DA04879
3DC9EE9E
3D8E6F2C
BDF95861
3BF675C2
BDD73AE0
BD0BF974
3D1899B7
3D49EED8
BDBC70D6
3AB51107
3CDC37E4
BDAB4BED
3C1730E3
3DDB9D5F
BD025A1B
3BCDC864
BDB70B02
3D4B21E5
3DB94061
BD231586
3C37A80B
3C66BA95
3DC09B14
3DB2C32E
BD959233
BD39EF9D
3D61D3D7
3DAF1478
BD1EFF55
3DE203C5
BCD85F5B
BDDE62BA
BCB2CDC2
BDB28E04
BC3BEE5A
3DC0DDC0
BD446CD5
3D2723FA
3C47B88D
3D8B3CBA
3D34FA6C
3DC82694
3BB8B180
3D61D579
BD9D8C4A
3C9B58F7
3D01E722
3DAFC0DC
3D96DBBA
3DD4540E
3DD32BD5
BCF37287
BD7AFA83
3D354CE2
BDBE1C91
BDD8AD8E
3D8370D8
3E029C98
BD1897B5
3D029380
3D0C953E
3D398CAF
3DC55426
3C24A783
3D3DECA7
BD82C3F0
BD58C640
BCF178AE
3CBFCCDF
3DF8504B
BC389FA0
3CC05C87
3CFEE549
BD571FE7
3E045F39
BD772140
BD41576D
3B438805
3DB1B788
3DDD1A81
3D13E3D2
3CFEE6E8
3D9E789D
BCF6B199
BDABCB24
BCBABBCF
BD9FF9D9
3DBB9FEA
3DF3986A
BDE9F256
BE04E6A0
BDF1C63D
BDE292BE
BDB091D8
3D4FDF8F
3991663C
BCBC68D9
BDDB99FA
3D2FCE6C
BC68AC59
BB71DA68
3D0F096A
BD9B04C1
3C8F85DD
3D2D2097
3DD0E262
3DA5ABEB
BCBECED6
BD8B0C50
3D287822
3D822030
3D919942
BC84660C
3BDB7593
3D848180
BD8525D7
3DD2E51A
BD9094AA
3C22214B
BD1F92AF
BD1C3FBB
3CD3455B
3D7D4F97
BC8232BC
BC789EB9
3AB96D00
3DBF081C
3DA2FC92
BDFBAB6C
3D5ECD01
3D9001A1
3C714B31
3C9E28F2
3CC2346C
3C11551B
3C7EBD08
BD556E8A
3D88401E
BDB68FE9
BDA8C6DE
BD5A5779
BC162DA9
3CB22A07
3D3C639C
3D803056
3DAFED50
BB8FD8CF
3D4D0145
BD3F6CF5
3D17004E
3DB1038E
3BF7432E
3C33E3AB
BD4FC06B
BD0C8951
3D8C628E
BD93A7D2
BD4CFA4E
BD801BFD
BD9FBBD0
3D961812
BD53DC31
3DE1726D
3DDB928C
3D3328E6
3C3B4935
3DF92C8E
3DC7DFBA
3C6CF58E
BD9181F7
BD9D15B6
3B39F90B
BDF1A772
BD0F0EE6
3DA69E01
BDDE9262
BDC4C4FE
3D10EBAF
3DAB41A1
3DA8CDDE
BCE2D83D
BC05DD88
BD558825
3D8D065A
BD137283
BDB6D55C
BD964938
3DCEE1E2
3D91474E
3CD44F51
3C5EF646
BD2E06E2
BDD4481E
BD8A6F5C
BCAB55E8
3D6FE999
3D8DBAAA
BD198C98
BB0B8D10
3CBFF85F
BD91EEF5
BD92D68C
BCF846B4
3DF4EE0E
3DD930DA
3D063559
BDA5E2EB
3D90F580
3C9BE01B
BD00A885
BD8C7E52
BDB52F58
3D5F4565
3C186D66
BDC5C852
3D1B7E7C
3D953280
3D1C8FF3
BD1BC2DB
BD540EA4
BD8E95EE
BD0FD1C6
BD0CD7AD
BDE3CCC8
3C6CE36D
3CDCC7F3
3E0360D8
BDBB84CD
BC24E5B9
BBB400BF
BDB799D5
BDA0644F
3BE593EE
BD5C7E85
3D1FC487
3CC8738A
3E0FFD6C
BDB8411A
3D960A54
BDBC3480
BE088ABD
BD78E97F
BD3FBD36
3D552405
BD779DFF
BD696F7B
3D1429F6
BD3BC632
3D98753E
BD1BF0C3
3C657959
BD638290
3D3FB5AD
3A169D0F
BD9FA44D
BD2BEA80
3D7E9AFB
3C8E9394
BCFA510A
3ACAAAD9
3D0F4185
3DEC9CCB
BDB45A93
3E1A980C
3E5C8E94
BE04C867
BDC2FC15
BDF8CDE5
3C81B3FD
BD02E767
3D81636D
BD1DE0B4
BD9FA9C4
3CA9871B
3D2EAA7C
3CAA36F8
BD9801E4
BDF08D2D
BB94EE54
BD07D9DA
BDA4841A
3D5AB41F
3DA82CE5
BD8C615F
3D17A7D7
BD977C18
3DBD2224
BDC13D8E
BDFA6EF0
BDB67676
BD972D56
3C15C0FA
BD939B42
BAAB8BF8
3CD75DD7
BD463224
3D650312
BDA01F2C
BD443C7A
3DA2B79A
3DF6C3C8
3D8CDF52
BD7FA3F8
BB9B8CC7
BDA33DF0
BCC835D2
3DDCE11F
3CA580C6
BC1449A9
3D7A48D2
3DE8E94A
BD2938EE
BDCD7736
BC19AB00
3D0F7A58
BC5214A7
BCB95E66
BAC545F8
3B809A52
BDF0112C
BDAC0CB8
BD759361
3E075FB2
3CB3DEBE
BD041D49
3D9CD249
3CD0B687
BDDA50FC
3D1C5416
BAED12B9
3DF6FB37
BDB8C620
3DF063D6
BDA58781
3DB600C0
BB37A1D0
BCA86A49
3DEDCD0C
3C8E9AFC
BAA5FD99
3C7D2323
3D8AA9AF
3DDCE08C
BADBCCBF
BDCA082A
BD78FB3B
3CB063AC
3E01ED5B
BD26118D
3DBC213D
3DF662AE
3D8255FF
3E0EEDD0
BDC88302
3CA9BBE5
BB909DF8
3D49D6DA
BD63F5C2
3D8F30C5
BE048A01
BDFFBC7E
3DE979EA
3DBBAD79
3DC3A29A
3CD94FE7
BD716525
3C3AAA64
BCE47180
BD628A02
BD962618
3DEC0845
BD88A059
3D3D18A6
3D7F8B5A
3B8B1043
BCDA8AE7
BCF5DBF2
3BEC9DE3
BD77CA81
3B8404D8
BD5CAE2C
BB591040
3DE98C56
3D834D82
BC7D73D1
3D3F1BAB
3D7687A3
BCEC5D06
3DE485EA
BCF2E186
BCCE5C03
BC8EA2FA
3D4A3743
3D09371B
3C20E3F9
BC318574
BC95DCD1
BCDFD957
3DE31608
3C981EEE
BD627EA8
3D02135D
3DE29BC9
3DEBE050
3DCB03E6
3DA5148F
BD60CE9B
3D2AD680
BD7371CC
BC1CCCA8
BBB1DADF
3D0C0C72
BC8FF815
BD3CDCA0
3DCA749C
3D424BBC
3D55A32D
3E06F62B
BD8CA56C
3D466B91
3CF41CD3
3D01A75E
3D7B5A65
3DB35BCE
BCE293D6
3C961FEC
BBE2E71D
3CE39026
3A2960A3
BD39A07C
3DA25180
BDC46E86
BDD68C10
3DA5EF4C
3CFAF4E8
3E08BB1D
3DDD237A
3D0CEEC6
BC0D9EF9
BDE87164
BDE4E9AE
3BC735E3
3E00861F
3D939551
3C10187D
3D37EFE6
BD8A6756
3DC1776A
BE0671E4
3D639909
BD9A4C79
3DFD9B56
BD5A10F3
3DAC8CC5
BC9E8479
3E2D48F0
3D43152D
BDD9B002
BC61EC33
BD87839E
BDBA5DEF
BE11ED19
3D804115
3D9C6B21
3E08B488
3D2AB2AF
BD73FBC5
BC953318
BC6D953B
BD91BEAF
BD427C51
BDC1BFC6
BD031C82
3D61E365
3D9FFC4F
3D819C7E
BD578D17
BCC3AA0C
BD2B5CBD
3D506FC4
3D30EACC
3D84E806
3DE6182B
3DA81FFE
3E0FBB55
3D2B3C72
BD899DE7
BE0690EC
BE0D899C
3D188D13
BD91F400
BCA14A22
3D4EC1B5
3DEF7A9D
3DF8EF74
BD58F130
3D9EC6C6
3DB3A05E
3DDF09FF
BC4FF397
3DCC2F56
3CF64599
3B8E8873
BDF18C9C
BD3E8BF2
3D64C4BD
3D2B5173
BCA6D982
3CFEB16B
BC099A18
3DEC0B64
3CBFF7E7
3D2BCE57
3DEFB542
3C571179
BD5A3FF7
BD74CA63
BCD08768
3C045425
BD824CE0
BE049AF4
BD75FD05
BBDF23CC
3CFCC656
BCC2573E
3DAA59C5
BDC3C684
BDBFB34E
3D8D6156
3B98D290
3DC11F07
3DC8CDAE
3DA90FA8
BD821708
BC142E71
BD8645D1
BDDF0AE8
BD5904F7
3D52D2DB
3DB506B4
3DEF69CE
3DEC3549
3D60F3F1
3D70C4E5
BBBE944E
BBF51F20
3D20194C
3CF7E25E
BD732B34
3C2A23CD
3D259140
3D5CF18E
BD9FB6DE
3D5A9369
BCAA2008
BDA03D71
3D5CF8A9
BDB3166C
3CF720A7
BDC37770
3D2CA143
BD0DF61D
BC49E4F1
3D295D17
3DE0EAB8
3DBFC693
BD2CC07B
3D5CCB3D
3D8AD462
3D0434D1
3D9839D6
BDAA3A38
BD8073C0
BD87E85A
BDACB738
3CD42347
3D8E920E
BC2BBFBF
BD1290EC
3D73EB05
3D8C6ACE
3CC5B7A0
BD8FE179
3A55EF5F
3D7AB9AE
3DAC5836
BD0F86A5
BC239AE3
BDA1B93A
BBFD8695
BCCF2D3F
3D73A2C7
BBF76650
BCB0D193
3D814AC2
3C4B9171
BD754A8B
3D318C86
BC8CFAA9
BD425B3E
BDD384EE
3E03394E
BD214010
3DC0F266
3DE01E7C
BD8BD12B
3DE84DCE
BDBA695A
BB2A459C
3CD94D0B
BD69CCA2
3D581BE1
BBAFE6E1
BDB1507B
3D9FD928
BD9E8A8C
BDCE2F84
3C055509
BB8A8A3E
3CC8C9E2
3DE98A96
3C180DA6
3CD1608F
BC9198A3
BD996B9B
3D923FB6
3DE39B6B
BD1F6FD4
3E098E26
3D021D90
BCFE5958
3D124740
3D1C8C3E
3D534E49
BCC3A6E1
3BD9BBE9
3D1197BB
3DB98981
BD4BA2C7
BC0CBF6C
BDA06CC3
BDB55644
3D0B5166
BD99D391
BC37DAD9
BDB1EC7B
BCE9531F
3BDD405F
BDA8766E
3D739191
3D050CDE
3D2D6D06
3DFB132E
3D75F01E
3D57F669
3D635414
BCF4BD16
3DBEFF3C
3DEE10BF
BCFF8599
BD9DF934
3E03F6E1
BDA9C22C
3CFE576B
3C72CF8E
3CEF1A73
3B1AD956
BD96C98A
3D8269CB
BE0EB2C8
3D276B18
BC6467BD
BE11715E
BD435249
3D9AEEAB
3AED35D9
BDA2A416
3DC2BC05
3DBCA094
BD36CF66
3ACD402E
3BF3A193
3D4B2CCB
BC969D2E
3DCFEE7A
3DBFE6E7
BD5E6B19
3E2C2A38
3E53A4BE
3DA7F932
BD53EDFD
BC586BD7
BCFB7F3B
3D4E4E84
3DA73D45
3DAF5510
3CBB27B3
3DB48CA0
3CFDBD78
BCBB9A02
3DCCBB7C
3D612472
BD54851B
3BF00A64
BDD9B1BE
BD696B81
3E04320D
3D4281AD
BB4A9158
3C128395
3D6ADD4D
BD956766
BC05AC22
BDB38CB6
3D61484F
3DDF8766
BB65FF56
3DAF805D
BD62F1BD
3E3ACC42
3D4FDFC4
3D4762F7
BE073B65
BC50F3F7
3D956C4F
BDAFF81E
BCC22211
BE0372D9
BD939FF6
3D95865A
3CF8A954
BDA30121
3CA264F6
3C29B456
3CC7584D
3DA3EB9C
3C1C169C
BC624B68
3E09A2B8
BDA29A6F
3C30541B
3D57638A
BD8D54D1

