3F4B1A65
BEB33710
3E92C9D8
BEEA6FCB
BE936F0D
3CFF0DF4
BE9A1EBC
BD8E9DF8
3F4E76E3
3EBD505E
BF1C0D2D
3EE3D059
3E9F63A6
3CCDE694
3E8117FC
BEA6FE90
3F3E31FA
C02A1856
3B4074C2
BF7A110D
BF937280
3F0018F7
BE92C99D
3E80F5BD
3F398518
3E40E20A
3F118CF1
3E7B09F1
3E21B450
3F347D5E
3E514C4B
3EE871A5
3E8BDFD6
3D7170AB
3F35C126
BF12232C
3C3625B2
3DE7B808
BF1D35D1
BFAB2D51
3E7068DB
BDA029BB
BF43AA7A
BCE61698
BE6090E1
BCDDFFFA
3D822962
3F0C106B
BEB45227
3C7F0BBB
BF0F2D2C
3E777645
BC54EC15
3E327F5A
3EC00BA7
BF48B51B
3E9D08BE
3E6963D7
BFA84ADB
BEBC9557
BDB84DFD
3F0DA19A
BF7097AE
BF4F7CCC
3F4C4CF5
3E9CD173
3E5C13C5
3D547DF7
3DCFBA4B
C008F916
3EBC1A4A
BE26FA73
3F582162
3EAB9667
3F5E74AB
BDD1D34C
3E703455
3F64FD41
BFBC06A7
3EA4CED1
BE9E5430
3EBAEBF1
3F07C3E4
3C35F5BB
3C65EBC8
C00EC5B5
3F1C833C
3F2EAF90
3E205309
3D9E181D
BE1990C8
BE80BA93
BDD44DA6
3F239D7C
BF1D338F
BE895C2E
3F6A2F2E
BE934B47
3F862C30
BE0655EE
3AD05429
BF43ADA1
3E19E715
BDC154B7
3EAD24B2
BE2AF41B
3D29C979
3E6EF899
BD8464DA
BEC38627
3F8D1EA8
3E84E665
3F6DF81C
3E03185A
3E6BFEE1
BF5E968F
BCA07897
3E9DF580
BFBE50D2
3F1EB9C7
3F5039B3
BCCC60C5
3E6CE71F
3EAFA6E6
3E16BCB1
BDC38CE6
3F1ABA6C
3E6DC95F
3E174778
BF2ED083
3F506F36
3ED8E61C
3EBB5D85
3E464E34
3EDCD2A1
3F49AC7F
3F1C507F
3E297878
3E2F3C3B
BE0BD36A
3DEDDBFC
BF22247C
BEDAAD5C
BE9FCCFB
BE136CF0
3E418B6C
3E0E0ABC
BE31FBE6
BE9D6117
BE89A208
BF1C61A1
BB253CC6
3FFDEB08
BF2C343A
3F68C26A
BDC904A1
BE74D57F
3F301383
3EF1BAF4
BFADC934
BE470B5C
BEFDB25D
BE453624
BE9FC7EA
BE3C25D7
3E90B2E1
BE5598F9
BF9849F8
3F551494
BED4FCBC
BFCFFDBE
3EEBB8B4
3EAAAA63
BD45772A
3F341852
3E811707
3F1F82AF
BE505529
BF86B809
BEA2CD45
BE61FD1B
3E8ED0DD
BF1C801F
BE2E3D5F
3F66E14E
3E729182
BF03AC96
3DCF65EC
BE15DEBB
3F4186DF
3B709519
3E866C0D
BF001AE0
3CF42C5B
BF79FC0C
BBDE6498
BE4B67A7
BE329ED1
BD4A56D1
3EF14761
3EBAEA26
3E80EDC7
3E75EFD6
3D58E208
BDD25355
3F1CF484
3E4FF7D0
3E3FD03B
BE3E67B9
BC15B412
BE8B67EC
BCEC237D
BDFF2A50
BE602698
BE5EB725
3F9A1CA9
BED9D793
3EC4F7FE
BDE8931B
3EC977BA
3E615569
3E89CD30
3EA0007C
3DE1272B
3EF94D7D
3E872645
3F20839E
3EA87445
3EFE6028
BF34DEF5
3EDC1748
3E11C86C
3F9925E2
3E3E2D70
BE9DEBFC
3DDF9FDA
3C13DF0A
3F17087A
BDFC8D1F
3ECDB925
3E959336
BE8E02C3
BF4D6125
BE117263
BE17FF2D
3E29E1A0
3EA5A84A
BF804D92
3D09DEBB
3DA5C87C
3D013B8C
3ED1FBD2
3F264636
BDCF4FF3
3F28B677
BF548BE2
3D566C2B
BDD300D6
BF94788C
BE003728
BEAACBAA
BC7853D7
3EA60B2F
BF50807A
3EA34B9F
BDBBF1DD
BF2FB15F
3EE65A5B
3ED0045B
3DD1F455
3F84064D
BF43CC6E
3E4E1CC5
3BE25498
BF63CAC9
3E8C0446
3D281772
BE6E7CFB
3EBA2CBA
BF4D9816
3F318032
BE8D1C9B
BEDE7CF6
3E36777C
3E215DAB
3E96AD99
3F25DE05
BF412335
3E350C73
3D8A3C97
BEFA2135
3E97A2E8
3DF8A564
BE39F5B2
3F1CA8C3
BF1E3716
3ED0A825
BE501C3B
BEF46264
BD8ED00E
3D5E746A
BE1CEF6E
3E2E32E9
BE19F238
3E644886
BE0B149B
3B02F761
BDC7F958
BCC95A4E
BE702E5B
3E3CBF9E
BEA708E0
3ED887B0
BD39DAEB
BEAC7F7D
3E109203
BD012982
3E6415F9
3E9F580B
BEA0DE31
3EC4B86A
BDE21356
BDE10CE3
BD9783BC
BE3D57D5
BE341436
BE6DBD55
3E00D1DD
3F12084C
BDBA4A98
BEC3CF56
3E7C3754
BD9C3F88
3DFBF5F2
3EC71814
BD27E0F4
3E1E6E95
BE183A10
3DB652FF
BE35F8BE
BE3A22F6
BE42688A
BE805AE0
BD8016D9
3F192FB1
BE261D06
BE7BB1D3
BDE93705
BE101BC5
3E318FA3
3E02C819
3E285657
3E392889
3D49CB38
BEB04FD7
BC89DC40
BBCC7F0E
BD608559
BD99FB2F
BC81B4CE
3EF44725
BE062798
3F2B992E
BDE13084
BE0C891B
BDDF1A27
3DB67354
3F2FEA29
3E69DA8B
BD52A348
3EA44B49
3D18E7DC
BE402CCA
BD4D2786
3C36FD05
3E8FBAB8
3E4B7970
BE278CFD
BD323568
BD38E532
BDE5BEA9
3E00CD4C
3DBB59B7
BD10DA5F
3E709C02
3DA488AB
BD20DBB4
3D2DBB15
3DC4AC69
BE072328
3D849658
BD1E825B
3E89FFF8
BE07A20A
BE089326
3D0E8ABA
3D1EEB9D
3F1E8C57
3D8BDCD1
3EA936B4
3E35135D
BDCAD0B5
3EE1D326
BCB18505
BE1D1363
BDCA0C22
3D2729C4
BE499A89
3E2BAA1F
BD0E9FC6
BDD88B74
3DA7F47C
3DBA94BE
3E3F0FB4
3DFD9B76
BD96C132
3EE04AFB
3E160BEA
BB2D8CB9
3DCB2FBC
3E2D951B
3E376AB2
3E68FFB4
3D01BA94
3DDED533
3D39D928
3E4E3C0C
BDA78385
BD0BD810
3E2F488F
3DA62505
3D827270
3E29061A
BBC599F7
BE87238F
3CD93352
3D85F462
3E8AB8AA
3E2B2ECC
BE3C79C9
3F29E937
BE30B401
3F3E3F30
BD1AD977
BC0E3B35
BDE590C2
BD9870B3
3C933EB9
3E435CE7
BC761AC4
3D301888
3B909E86
BCE8C5CB
3D0BCD96
BDE11291
BE624F01
3E434604
BD9BA509
BE38F558
3D1182B2
BDEBA0FD
3E41925B
3DCADC77
BCDE8179
3E1EF407
3C33A4FF
3EB3850C
3C2293AC
3D66F78D
3EBEFDCD
BDC12CED
BC68689D
3E849C15
3DEB8B8E
BE7A7DE7
3D83C9EC
3DDFC4AE
3EC6F5C5
3E0AB9FD
BDCDE9D6
3E8F58C2
3C54B317
BDA2A896
3DEE9493
3E3E4249
3E05A82E
BE1B4589
BE3368F1
3E244F2D
BDE3D3A3
BE850D72
3D2EEBD5
3D6289D4
3EE6BE1C
BD92DF99
3EC89373
3E010155
3BD9FDA3
BEAC7D5D
3E2F2182
3E736E72
3E260C21
3C6701BE
BE81B6AA
3DE0254C
BDA2FB00
3EC7A6B4
3CCA520D
3AA29EC1
3C8E8F26
3E144919
BDCF56EC
3E9B15F8
3E36BA8F
BF022F0C
BDF1AF16
3DBBE754
3F377890
3C84B07E
3C69B8DD
3E0E1E9D
3DD27284
BE1BA990
3D300201
3B60DCF0
BDFC4D91
3CACB551
3AF6BA5C
3E171E0D
B7101B23
BF0C08EF
3EE0EE53
3ED8F35C
3EF48A37
3EF4ADAF
BE8C3524
3E1E533B
BDAF2A8D
3EB0FDBD
BC5493A9
BD92AE42
3E3C926E
BE214F49
3E9830C9
3D60F190
3BDCA69F
3EABEFBF
BD9EC4EF
BDDD5106
BE3A922A
BE0422B2
BE7657EF
3DE0A0F3
BE0E32CB
3ECC0F46
3D7B27B1
BDCE684B
3DB7A055
3DD3929B
3E6AA7BE
3E79A0BF
3D341CF1
3EBF2117
3D159BBF
3DA6D420
3D679A24
3D873649
3E271455
3D5BB722
BDC78EFF
BE567BC9
3DF24D62
3E5273AF
3E2CCCDD
3EA261A3
BE165893
3C438D1E
3B93EE3D
3F81C259
3C6A7F05
BB8465B3
BDBBAB2D
BD816BAB
BDA6ECE6
3E1E35E8
BDF7C3EA
3EB35D23
BD44877D
3E1481BA
3E731E55
BE27628C
3EB2D8D3
3EB7AB53
BC275501
3DC614B1
3D9A7039
3DE8E29F
BE897BDC
BD98E793
BE0C40A7
3DE1E64A
3D4B4187
BD0BF038
3E2D6508
3E1FD10D
BE90DE42
3DF25AD2
BE84252C
3DAB1A49
3EA59C2B
BED789E5
3E510774
3DF25661
3F2EA8E4
BD07A6E5
BE96D143
3D216CD5
3DE19159
BE7DB7FC
3E41FD75
3E9B90EE
3E3D5EAD
3E4235D8
3C6687C5
3D319A32
3E2580A0
3EB91D97
BD145921
3CA1B3DD
3EFEA89B
3C63C1F1
BE03CD1E
3D8D11CA
3D79A813
BEE40CA4
3E3560FC
3E5F2EA8
3E0AA76A
3DDB129C
BD19585F
BD6E9C83
3D0EF2F3
3DAF5B00
3DB61E8B
3D26954A
3D523D71
3C828370
BE5642AF
BCA04777
3E1AC7CA
BE6904EE
3DA4BFCD
3E706051
3E50EAF5
BCAE8BF2
BD10972E
3DC16D2A
3D9B435A
BE8D00AB
3E183978
3D9053DE
3D0DC479
BBFCBE91
BDC6C545
3E66703A
3DE68822
BDE5EF05
3B682145
3CFF9AEA
3E41C468
3E0D5DFD
BD8C2D02
3CD1B932
3DFA970E
BEADA544
3D6D4692
3E50DFAC
3CD809F2
3DFE6871
3DEF94DE
3D7B74E7
BA830973
BEA046B8
3BC4EAC8
3DBFCF4F
3E953380
3E345A7A
BDFE03FF
BD0E20A9
BD82AD1A
BDE00468
3CEF5015
3E2C51DA
3CBAB914
BCEDEB5F
BDE8CEC7
BCCCBADB
BD2BF0C4
BE79A08B
3D1D6A3B
3D719FBD
3E5EC709
3D804909
BDCE46C8
BE17E421
BD5B2A74
BDD8FAE4
3D0BD266
3DFE64D2
3D60D8F3
3CBADE91
BDDF5A2B
3D8F5F73
3BA5B577
BDD07A03
3CB5615A
3D822D4E
3D587C6E
3DE101BF
BC88DED4
BC7E7BB5
BBEAD4D9
BE2E50D1
3DF5024D
3E4E74E5
3DC44260
3D59BDA7
BE001832
3D8E6997
3D8723BB
BDD92A29
3E065807
3E0B8B69
3DF90E12
3E1BB0CC
BE2C1395
3D181544
3DC8B376
BE3395F9
3DA84705
3E67DA65
3D2CE90A
3A5075EF
BE37346D
3D8E0B21
BD44B58C
3EA7653E
BCFCE052
BCB8B17E
3E280A0F
BD8A9727
BBEADE09
3C458FDF
3E031F71
BE1ED39B
3E17A627
3E0B93D3
3D34D2E0
3DBE9260
BDA8919D
3DC9AA93
BC1BB16A
3F51D3BE
3C8CAE8D
3CD8E3B4
3CE7F140
3DB04E57
BDEBE6C9
3DC81212
BC46F670
BDCE8800
3D3CDE30
3CBDFDB4
3D104A0D
3D1F2405
BDF52107
3CAE0050
BD6B6929
BE2B21E6
BD9C87F4
3E331C3E
3D3725E1
3D537B99
BD44DF6A
3B35AA36
BD706304
BD9EB86A
3DDB5EAA
3C785F91
BD96E222
BD752F7D
BDCB70AA
3DC98AAF
BD892C2A
3CBD196C
3DBE43E5
3E022840
3C5ED011
BDB2CC78
BD8B2515
BC7828A9
3CC36837
BD187CA9
3C3F5E78
3E1EB994
3BA6D3DF
3D57D074
BDE868DD
3D91DB7E
3DA0FD30
3CE63472
3D337F20
3DDE539E
3E1FEA1B
3CE54FC2
BD1252F3
3DD418BD
3D8A1F7E
3C62397A
3E1C9FF5
3DDFA33C
3DD1D34D
3D663BFB
BE0CC371
3D149D21
3CF5610B
3B3DE597
3E3B1685
3E3100E6
3D90CACF
3D6F2CFC
BD71096B
BCB44486
3DCBAB25
3D894E4E
BBA14BAF
3DB5721F
BC438D87
3DDDA06A
3CE9345C
3D76BF92
3DD2EFA5
BDAA1DA4
3C1B2C33
3DA32555
3C0B1AA0
3D76F3F9
BDC5A06B
3C94FCAE
3CFE3FAB
BD987AEA
3BA67433
3DC92DEA
BD1ABB1A
3DD8EB56
BE57619A
3DBF1A11
BD6685DF
3E869B84
BD30584E
BE1DA191
BD91C6A3
BDC0589D
BCAEAF1F
3D37F2AE
BC6E64C7
3CBAF90E
BBCF5C21
3BB4AFF6
3D256C29
3DE133C5
BDE90353
3E0EB4D4
3DA7F582
BE18E4CA
3E401082
3D2A8035
3E101D31
3DCA3C6C
3DA1C12B
3D87F7AE
3CCA8224
BE12A002
BBDD1D72
3CB4D369
BC2CD2AF
BB3D530A
BE4F78BC
BCE8EF51
BD33CA71
BA1EADDE
BC1A5ED7
3D325B1F
BD5D3F3A
3DAA7BBC
BD036AD4
3D3FA3F5
3DDD7EA3
BE073878
3D8A4AAA
3C46AF0E
3DF07F78
BD3B0604
BDC75971
3D767819
3DAE5649
BE1E3A66
3DE8A6EC
3E156834
3DC1DE7C
3DD2FB77
BE056D69
3DB8234A
3CA573A7
3D54CEF9
3E19BD6F
3D8A0E4A
3CC880B9
3D93E2F4
BDB52369
3E0DEB27
3E0B8D00
BE31DFCC
3E21D7DF
3CBA969F
3CAF1086
3E038474
3B127AE2
3CD94BF9
BCD883B6
3B86F56C
3DDA4217
3CD9D2C3
BDA3949C
3E194C90
BE441DA7
3D22EA59
3DF63320
BDD85463
3E49B286
3DE2673F
3D07B40D
3ADA526C
3BB98AFC
BDBC7AC2
BBCFDDCA
3E9A1454
3D902AEC
3BE0AE2E
BD3293AD
BD885494
BE0B6477
BD3C13DD
BCDD1C61
BD21FC0D
3DFC2A0E
3DFA0D40
3C822744
BC4FA1DB
3D2BCF5E
BD09B6D3
3DC76E60
BC10ED9B
3E05780F
3B1F45DC
BC0CBC50
3CD0F604
BE1E7658
3D92EA11
3CD799A5
BCDFFD1C
BBE9DD01
3CFB8ADF
3C0B28C1
3D695AEF
BC97B494
BD695774
3D7E16F9
BDC4C0EA
BD0A0E1B
3CF4892B
3D01B7D8
3D342E03
BC9C27A8
BD23655D
BD29C567
3E4E2BE0
3D883180
BD63C69E
3D78D2AE
3D04CEDE
BD799669
3DD6BC39
3D66DEDE
BDA1616F
3D644268
3E3E01E2
3DB43A9D
3D838BC0
BDA04A8F
3E1B382B
3D3D6131
BD4F9E0E
3DDE6714
3E219CF0
3DC5957F
3D570FD0
BD80C5EF
BD6B87E2
3DB7D38F
BDC79A10
3E04147D
3DAA79A8
BD940C92
BB57546D
BCA20B87
BB82AB99
3D624864
BDFECD24
3D27BAE0
3E68F11E
3D8F3B8C
3E095103
3DA9C708
BCCF6592
BD7A493D
3EA6EE47
3D161A6C
3D3E8C48
BD234634
BD32E31C
BDD44475
3BFC86FC
3DBFE785
3CEAAB1B
3E216CC4
3D8979D6
3C8761CB
3D813A1F
3DBAE161
3D5836E4
3D1BB7B7
BD205BBE
BD093CE5
3E0E459C
3DE19DAE
BD054A97
BC5678BC
BD1164D9
3D25F339
3C9721A2
BC8897A2
3CF42D63
3DB354F3
3DD7747B
3C06AF34
3E063E7B
BD4AF630
BDEF7894
3E10CC79
3D95A190
3DB1C679
BD000F57
3D4C31B9
BCDA69A9
3E1CE182
BD56BD9E
3D6AB5CD
3CA0C9AF
3D3551AC
3E06610B
BCE3F864
3B0ED830
BD854DD1
3E5F22F5
BE14CDDD
BDCC4E9F
3D919519
BE2C6698
BD88C1F7
3C9F7048
3BF76B54
3AC9B56C
BBA2B37F
3DB92A13
BDD1D2D6
BCB8ECFB
BD67DBDD
3DD7ED36
3B79920F
3C8CB9F5
BD2CAB17
BD70E8DE
BD4B1715
BD59292C
BCEFCFE0
3DC59297
3E23C9FD
BBEF5D66
3D417614
3E3EB3EE
3A53AC47
3E107879
BDFA0734
BCF7201D
BD912A2E
3CD47AC6
3CF16F32
3DE57509
3BAE9CC3
3DADC812
3D0EB2DF
3D0FCDE1
BD206A71
BE1A02F4
3DA77DC8
3DB08E43
3D99C8E6
BCA3675E
BCC16CF8
B881B1C6
BD85D8AE
BDB3E14C
3DEE9C8F
3D7155B4
3E0083D6
BC2A2E9A
3DA8BFF3
3E0012ED
BDBD5F8A
BDF40693
3CF4A965
3CB65987
BD46482C
3C0B55D2
BCA48C2F
BD2850BB
3C231E7D
BDBD895A
3DA20406
3E4B6E2E
3D253A48
3E2C5957
BD1DF223
3C3F2246
BD4D55E4
BCEA87D9
3C6B6F45
3C17C692
3BEB73D1
3C9E8AFE
3D2B49A8
3D2E86EE
3DFB8A75
BD0D970B
3E01E4F8
3E5AD97C
3CA7CB3A
3D4F5123
BDB179DD
BC0B04AA
3DA89656
3E126E20
3D18CACF
3D86C35F
BD847B83
BDC7792A
BE08B994
BDB1FBD9
BC61C121
BE0B9017
3BCD1782
BD4E364C
3D890204
3DCAB2A8
3D636CDA
3D7C099C
BD8A8EB7
BC2BAAA8
BD6889B3
3DB36A5B
3D0F1500
BD90C6F4
BCECBE98
3D8DB0F1
BC8DEF97
BC530D00
BD3B735E
3D663576
BD2D5FDD
BCB7267D
3D4E128E
3C7BB6FC
3DEFDFDA
BE067A21
BC4BED90
3BEEDE8C
BC078C80
3DF07358
3D60FC4E
3D6510A0
3D0F118B
BD85063E
BD31F012
3D879D49
3D9961E6
BB872564
BDAA7A30
BDCB12B6
3DC7C724
3D8AF2F7
3C180C58
3DC306E6
3DA086EE
BDC7164C
BDB66F7E
BDDB02ED
3D8379CA
BDBCB153
BD04E2ED
3D529C80
3DC6B7FE
BDCC2C1B
BDDF4C5B
BDA447C8
BC6B8C81
3D525566
3AE442D0
3B86B514
3C3CB403
3DE5A037
BBB50BC0
3D3AACA9
3DE7315F
3D270539
BC0E5C4A
BD1501BB
393DC0FB
3C5DC187
BD421B0A
3CF913C4
BD7D1661
BD82A6CD
3E02B6D1
3DCFE5A9
BCB81909
BD59B079
BDE79CC2
BC244688
3C982CFB
3DB00709
3DB2427A
BDABE44B
BCEE36FD
3DBB1CB9
BAD36740
BDDD5651
BDA6959C
BD7101D1
3D955F99
BD85432E
BC599248
BD532F6F
BD5024F2
BD56527D
3CD7D49E
3CEBC03C
3DDA381D
BBDC5680
3B911A80
3D933422
3BD06BA0
3DA86425
3D924D2B
3D776E0E
BD7024B7
BDB7801C
BD805942
3B3ABA62
3D82CCDB
BD3A7E5E
3C141B66
BDD2C310
BD522905
BD612E07
BD8D7BB8
BD6A1A21
BDC837C7
3B114B40
3CC2EDFA
BD2ABAC6
BD539EB1
BD0111AF
BD66B4B0
3DA12809
BDC09AB6
BD041202
BDCBF5E0
BD840A5D
BD4C23CD
BD1BAF9E
BCE80DD8
BC49E5BD
BC7DDC18
3DDEBFC1
3DA5B125
BDC75EBC
3D81683F
3DB9B580
BC144FF8
3D9CCA5C
3CC7AD9C
BDE32003
3DBFFFBB
3DAB9831
3DEEB023
3DED3F3E
3DE700C3
BC86665F
BD1AB8C6
3CB56474
BCFE6916
BDC285F2
3D12BEB5
BD18DC13
BDC47A64
3DB54B39
3D10BB2E
3BBBACE0
3D71051D
BDD6BB81
3D577927
3DCE817E
3D811901
BDDE48F9
BCB9571C
3C756CD8
3DFE5441
BD9DD3DE
BB85A2FE
BD4D95B9
3C4FB858
BC8FEBE9
3D96E525
3D51E576
BDDC8ECC
BDD7F3D5
BDCB53B2
BCE45E85
3C109CF8
BB997CE3
3CEFFCDC
3DD9CC75
BD811DCE
3D331126
3DF58E6D
BDC2F6FF
BD79E4E3
BD7ED82B
BCF91E30
3D8BD6E3
BD46D21B
3D6EF632
3C98FAAA
BD80A519
BC2E19A0
BDABC341
BDBEEF8D
3D65FA46
BE130056
3C8DF48C
BCC61B97
3D3F64A7
BAE54DC0
3C574061
BCEAB538
BDCB314B
3D04771D
BDE91CC6
3D4EF961
BDC4A405
BD20E328
BAA04314
BD7758BE
3DDEF3F9
BDB8AA89
3D600592
BD478FFF
3D1DF8E5
BDB4DA4D
3B637E29
BBBDABC0
3BC95E60
BD7169FC
BD88851B
3D7CFCF3
BD68FDDB
BDC35B3C
BD483B3D
BD1A9F20
3D0E890E
BD52CFF1
3D161B0E
3DBAAC2F
3D910E2A
3D8ACA55
BD2A13DB
BD40A846
BCA83ECC
3C22E5C6
BD45FC6A
3A439ABC
3D708971
3D2FD2D6
BCB16529
BD861B36
BCA6A8B0
BDA4EC77
BDA4E3B5
BD8B6606
BDD595B9
3D20BFC2
BC1E137C
BD952FE1
3DE14107
3D0BD809
3DD23355
3DC46F3F
BCC7D8B8
BDCF490A
3CEBC2B3
3D2445BE
BD2C35B0
BD8E611F
BD350674
3D8581E5
3C69EB1E
3D5A5E5A
3D89BC0A
BBF75430
3D4C8542
3DC4EDC5
3C3D1DB8
BD823654
3D344BD9
3C5E16B8
3C25B965
3DB59FE5
BDB28A38
3BB819FA
3C8FC134
3D92C1B4
3D2ADBD9
3BBEE540
BD297BAD
3CB7BA64
BDC5CA5B
3DBE1761
BD0E23E2
BDBF0C16
BDCAF72D
3CC16614
BD6B128D
BDBA6B8F
BC911AEC
BD661E39
BDAA3B39
BDB1E56E
3D7B4F3D
BDB7DB66
BBFAB2DB
BCECC864
3CFD115C
3D93D5CB
BD00E1E0
3DF7AC51
3D50EB49
BC79C628
3CC3BDB9
3D7B80B2
BD0F3642
3D0D4000
3CB6BC4C
BDC4C0EB
3D9244D5
BDB2E2ED
BDAAF7B5
3C99E96C
3CE83C74
BC57013E
BD06F092
BCF465C1
BD0CE3A2
3DC66CCD
BB23F741
BDD567F8
3DAC1187
BD039285
3DD56A49
BDF30D3C
3DBB1104
BDDA7A96
3DB24285
BC011308
3DB7A635
BDC034FA
BDE0A7EA
BCBEB4D3
BCA5632B
BD75F821
3D5B4E15
3D8A149B
3C4B12D8
BBE19B54
3D1CDED6
3DEDB37D
BCE8DCD2
3CBA001C
3D41FC7D
3CAC9EE4
3D090D86
BBE8B6E4
3D9157BD
BC9DAA07
3C5B27F6
BDDEF04A
395A298E
3DE076F3
3C9D5064
3DDAE4D1
3D9DB39D
3D4581B9
3DE3C1DA
BCFBE2A8
BD5A5E27
3D101F66
3DBCD74D
3C75F11E
BDB1A65C
3DB977C5
3D9AC8F4
BD2343E0
BCBDC133
BD505794
3D5EE876
3DDB549F
BDE38D23
3DD1552B
3D0E759A
3D2B888A
BD2A06AB
3CE121DC
3DE34547
3DACD6BF
BDDB117D
BD8B7F8A
BDAE6CF2
BD0A01AE
BC6A9B24
BDA123D8
BDD307C4
3D8E9FC9
BD715831
3BD99EC6
3C6FBB4E
BD5BA48E
3D3EF9D1
3D319C46
BD96C6FE
3D7DDB0F
3D20A136
BCDC3C3F
BDCD86CE
3DD10C4B
3D86008E
3CC03914
BD5F9BDF
BD810460
3DCE7FC3
3DE8CFEB
3CD45C15
3DC76FA3
BD5A635B
BBB406A0
3D684BFE
BD1E243D
BD75C612
3CA6D12A
BD875D09
3DA615A9
3C571121
BD5A646A
3DE33C8F
3E033FD5
BD97C18C
BD069FC5
3DBA4DA4
3D93B54F
BCCF6FD8
3DC2D9EF
3D3E43EA
BDC1BF94
3DBF34CB
3B89F216
BDA9CCF3
BDCFB1AF
BDD8190B
3D08EDEA
3D7F40E2
3D46B75D
3D89DA93
3D994A77
BD99DA03
BDB056DD
3DEEABB1
3CDB653C
BCDF9D34
3C96BEB0
3D571E5E
3B288C50
3D5A6C35
3DCCED31
BC806E53
BD831A4C
BD86CED1
3DF59A8D
3D808FD1
BD90742C
3B5527A7
BD444196
3DF56BAD
3C1C02D8
3D4A85A6
3D8889E0
3DB75825
BDBCCE26
BCB1587F
3DD33EFD
BC26D1DB
BD8EA798
BD89B4B2
BD85114E
BD66B28D
BD980E2E
3DC7010A
BCF77A58
BDD4310F
3D235EFE
BCD12450
BD02691B
BCBFAB78
BDA8CC51
BDBB8822
B8B40800
BD106E0B
3CB175DC
3DD6F19B
3CC267D2
BCD586D0
BCA4182B
3DC708B8
3DCDE049
BBBC901E
BDDA08E0
BDD09FC7
BD366729
3DCB1FBF
BD012F4C
3C913252
BDD54C68
BD11ECDA
3DBC7151
BDC8F023
BC83EE3A
BC1C4278
3DB4E5BF
BB192A06
3DAAC3B7
3CECBB10
3D3567D2
3D8E2543
BD04D74D
BD60AEFD
BC5F0FF9
BDAFF0B7
BDCBA94F
3C34BC2B
3CFE7EEC
BD89EDBA
BBE90AA4
BD919060
BDCBD291
3D99456A
3DDE3515
3DC11E5B
3D421A62
3DAE7AD3
BBDB8EE4
BD8AF439
3CFCF9BD
3D71575D
3DA35BEB
3D0917BE
BC9FAD08
BCA573F4
BD6DA5EB
3D198C5A
BD992D9E
3D3AF571
3B9136C0
3DF0B7C9
3DDAD37D
BD9C2E04
BC83007A
BDDCACC2
3D97B2A7
BD307F4D
3CC3FB94
3D46C265
3CDA99B4
BD9273F6
BC7E3CF0
3DC783C5
BD7FF86D
BD6BCA77
3CFAB25C
3B033D68
3D1B76AE
BD8FABAF
BCCF6204
BD0D4646
BC50CF6C
BB2DB93B
3CD87A4C
3DF5F707
3D90E6C5
BDCD8DC2
BD33A56B
3CBB1EA4
BD2C8575
3BEC3BE1
3D4D78F2
BD45974A
3D9748F7
BCAB5C48
BD31AFBD
3D9D91A1
3DEC905D
3DEFA170
BCD925E4
3D93DF16
3D563962
BD123EEA
BE01E78D
BDBDC9B5
BDC29C26
BD6288D9
BD675096
3BF8E344
3DB5196F
BDB8A31D
3DD983D1
BDC0796A
3CD5CEC5
396486D0
3D50CCAE
3D14172C
BDC2FAA5
BC93BCC8
3DAC6337
BD51694C
BAF56CA7
3D609211
BCDD6A90
BCD92EFD
BDB750FD
3C42A388
3D5F3365
3D5A261E
BCA7178B
BCB69033
3C921014
BDCE6D3D
3D37F2CA
3D80511F
BCA3C50F
3CD03A7C
3D357375
BCCA04E0
BBBBCD30
3DC98969
BD9E3F4E
3CC7799C
3D1DC23B
BDCD5B57
3D9521DE
BD28208B
BDD9AFA4
BDB25F5D
3DDA0443
3D39563A
BD36ED41
3DAB6FE1
BCFDDABD
3C71AEB6
BC855DF4
3DF60A77
3DA3A39D
3D65E84A
3D8C6D09
BD777764
3D8A3734
BD915E89
3D1DA682
3CDBDA19
BDE8ECCF
BD45E29A
3BF3CEAA
BD9B8A88
3DFAF31B
3DC64576
3DDF703B
3DEB28EB
BCD57A64
3CC19B2C
BDA45C65
BC142AE0
BE05833A
3D7AAA4D
3D6E83B2
3CFA8F1D
BDC6E0E3
BD20975E
BDA79936
BDA62768
BD5EB783
3C55A91A
BB4FC060
BDB0B827
BDD429C4
3D3A679A
3CACD028
BD8D8836
3D8F7293
3D91CDDA
3DC6F135
3D226687
3D356FEE
BDA59A34
3D31AB77
3DD3E5EB
3DEF75FB
3D650D21
3C17A980
3D7963A9
3B1413E0
3D323C62
BD161DF5
3C4230E8
3DB1D273
BD0CDC8B
3D056A4E
3C89D35D
BDD7BF20
3D9F1CCD
BD8D8A40
BD88B7B8
3DF79CF7
3D13486A
BDCEA58E
BDC54E6B
BD8E7258
3D262EEE
BD9458EB
3C2CA770
3D97F4D3
3D94E4C4
BC327748
BD4CB6F7
3C5EA7A8
BD64F21E
3DB2DF09
BC817C0C
3D9DD3BF
3DA01098
BD7844BA
3DB65FBB
BD06774E
BB85A060
3D47178D
3D53D33E
3DC479CD
3C704B36
BD17CA2E
3DCF6915
BC39BD18
3D57089A
BD8734FA
3D9E52D3
BC97164F
BC318FEA
3CD8C38C
3DA0F6A5
3D2CBAD2
3C6B6EA8
3CBD97B2
BD778E87
3DD851C9
3DEC40D4
3CC3BE84
BD877425
3D7F1B92
3D19E0EE
3D0A43E3
BD271FAC
BD9FB3C5
BDCA8B28
BDB1561A
BDDED53F
3DA6FA21
BD87DB10
BDDCF7BD
BDB6C948
3D93D63B
BC2A875E
BD4E8EB8
3D2CF277
BDE17952
3C184698
BDB99E78
3D917E5F
3D31FE0C
BE149A8A
3C89D51C
3C2F4906
BD9F7824
BD0E5F9E
3D7575A5
BCC32FC0
3E00AB45
BC96CF4B
BCC7A730
BCB7F177
3D87D575
BDC6C1B6
3DE77289
BD20F2FA
3DA72761
3D9AC100
BD33F0C6
BDC772BB
BD229E18
BB5E0D60
3DF4C309
BD0B081A
BD01499B
3D9C1B20
3DCD502B
3D9FEA7D
BD61F28A
3C29F330
3B80E3A9
BB2B66E0
BDBDD977
3D7A7C85
BD24D214
3D91D579
BD5586DD
BDA8442C
3B86A52B
3DDC18E9
BDBD194B
BDAD8C45
3D6A2F7E
3D9001A4
BDCC7160
3D040FC2
3CE3C78E
3D963981
3D871853
BCCD3A55
3CB2E19C
BBACBB4E
3CAF31AC
BD83B7A2
3DBF0079
3CDFEC7C
BCBD0667
BDA5773F
BDE58C0A
3DDC8F27
BD790D90
BDE26E9C
3DDA46B5
BD744BDF
3CAD57E6
3DA5F226
BD87E71A
3D8E33D4
3D98047F
BD8A44A4
3D13413F
3DC6208F
BD9AFAE0
3D12CF52
BDD148E9
3BA36943
BD8873DC
BD70DA42
BD9D52FC
BDA83B8A
BDEDBD0C
BDDEE940
3D41F242
3DB28CBF
3DC69265
BD38F54A
BD42E0A9
3D9F09A9
BC354C78
BDB0D047
3D56DE32
BDA12C3F
BDB814D1
BD0354DE
BDE92993
BD9349E1
3DC6D121
3D67AF11
3D279ECA
BD3817C0
3CF9D52C
BDD3CCE0
3DACBC2D
BD8AB207
BD6DEE99
BDA53157
3AE47A80
BC37A2F3
BD9A5FF6
BDB62298
BD8A321C
BD81EBDC
BC7CAD23
BC21A84A
BC976E34
BDC6ACA7
3D003B5E
3D72D386
BCA4210B
BD18AD8C
BC9AE5C7
BC641CF2
3C77CF78
BD7606BB
3B31CD40
BD2C6E58
BBBBBE08
3DE82F65
3D2D3459
3DACD67C
BD98CF54
BC442D83
BDA7A75D
BD041712
3D975E71
3D257D5E
BD8076F2
BDC35240
3D9D8947
BD874B33
BD1EC3C8
3DC71293
3D034BE1
BD20B2B0
3DF5E88F
3D6D28DD
BDD277EB
BD0C23F1
3DE91E19
BC5DBF18
3DA71811
BDCCA113
3CFA1915
3D8AA6D9
3C2A56E8
BD1E0525
BDCB20E3
3D5AB9DA
BD0A9DFB
3D729506
3C081BA1
BC565CFA
3D68D8D2
37963CE5
3AF44E40
BDCB6155
3B41B56C
3C8AB58C
BE01B318
3D431A5C
3C98EA94
3D158991
BDAD1823
3D8D4521
3CB33399
B987CF00
BD7F2A32
BD7D216A
BC6ADDF8
3ACCA1DA
3DBCCD05
3C1EF870
3E0017DF
3D4274B6
BCD1618B
BDAE6D9D
BDD8F929
3DCB51C9
BDDC475B
3D0ED752
BD99536E
BD0966DC
BD600F4B
3BBCA0A2
3BF33900
3D97E697
BDA55E32
BDDFD907
BB8C0036
BDB7F7DC
BDAFF948
3DAFADC4
BDE70760
3D815B96
3B51EA20
BDA9B6F8
BC791C08
BCB0B7CC
3DFE9BDF
3C0823DF
3DAFA92D
BDC1D79F
3D253B1E
BDB550E4
3D9FB68F
BD9CF344
3DD6AA77
BDA99A56
BD9E5EAE
BC9EE909
3B183540
3D5D3FBE
3DBD9B9F
3D56FC22
3C75BB10
B9849F95
3DD8F2E3
3DA79389
3BA875F0
3D90E37F
3B9B637B
BD793B3E
BCAC3C13
3D4D26A5
3DD18639
BDAB1CF7
3D934F7F
BD926139
BCF4DF19
3D79DE26
3DCE2A39
3D6B8295
BD2D2088
3DEF8EED
3C783778
3CE364C4
BC700551
BD814A73
BD577A7D
3D2258E9
3BE1E950
BD9EC05B
BDD2F186
3D3004AE
BDA4C372
BD176C0A
3C968DC9
BC3E6161
BDCB17AE
BB1E24E7
3C7DF9E8
3D46205A
BD9ECD40
BD9BDEEA
BC9BD96A
3D4E4D1F
BD310D68
3D41593F
3D5BAA12
3DA2E917
BD5BE2F7
3C703258
3B9CF97C
BD057708
BCA5E310
BDBB905F
3D730422
BD802564
BD79774F
3C00A168
3DC32149
BD96C0D3
3A522500
BD871155
3A7D7780
BD04993E
BD46B34B
3D94FE85
BD422393
BD9485E6
BD4CF14A
3D12C274
3DAF6E9B
3C89DEBC
3D2AE5FB
3D82E3A3
3DA3B077
BC1AED3A
3DAC356D
3CAF710D
3D447A46
3D78242A
3DCFCAF3
3DC4B1EB
3D077FF7
BCB17EAF
BD64710E
BC453B53
BD41CAC2
BD6ED02C
3D48D681
3DCF30D3
BC5B75B5
BB33077B
BCE9728C
3D12CBEC
BDDCBB71
BDAA8686
BD3CBA9B
BCEB1020
BD81BEA0
3DB0AF36
BDCA689D
BD4E131D
3D48463A
BD1ED780
BD4DC8DD
396E3C00
3DE1AB93
3D03B792
3D966513
BD6A1F41
3D74E28A
BDAEAD1D
BD8EB11B
3DD17E8B
3DCA5B47
3DB73ECC
3C45BD98
3D5D2769
3D7A3C1E
3DDA57FD
3D959E1D
3C918DCC
BD20B6F7
3D5BE0BC
BCA53780
BD1ACF07
3D8ECB23
BD707764
3DE6ABFF
BDA2C4FC
3CB7555E
BD864FED
BD775A73
BCFA3F9B
3D878D19
BD7A4AA1
3DA0FD0F
BD79C81D
BDDBF19E
BD3CD7CD
BDB1107A
3D28168B
BD9570DE
3DBADF3F
3CAB1242
BD8F4018
3DC1C6FB
3D8875DF
BDE07DD3
BD03D92F
BC0A2600
BDBCF907
BDA15E1F
3D03317E
BCD39667
BD9554C9
3DCD0425
3BFDB5E5
3D9B18FD
3D589F56
BD6C26B7
BD3CAC6E
BCF43FFD
3DF41510
BD3F1B18
3DA3D787
BD4DA00E
3D8937AD
3CCEBCED
3DDF3DE5
BDA9CF20
3DF7D44A
BD9C9338
3D6B2225
3C86CAA4
BDA7D4AF
3C48D7A0
BD4DD47A
3CFC5B35
BCDD2371
3DC90C33
3D98A1CE
BD49F892
BC9CDBFC
3D56CFF5
3C869624
3DB2F5BF
BDA8F1B7
3C12C5E0
BDD7D767
BC2D0DE0
BCE1A82C
39A4338B
3DAF1A95
3DB481D3
3CA55D9D
3DB4C54D
BD917409
3D2F1456
BCBA11F8
3D5A2B57
BDBD9DBD
3D9029C1
BD9CAFA0
BA318400
BD21045F
BBFEAD30
3DE5FB09
BDAD63CA
3D959899
BD27155F
BC51E1FE
BDD70562
BD997846
3D6B5146
BD89F228
BB831C2A
BDAA2140
3CE6D253
3C0B7FAA
3B1140C0
3D03CC6F
BCBE66B0
BD35667A
3DAEC115
3D5BD7E6
BC4473FB
3C5BF156
BDA5EFCF
3D636D61
BDB9CB34
BDA0A005
BD0C9E8F
3DCB372F
3DD724D3
BCB06F1F
3CE9B3AC
3D8AEFA8
3D0E202E
BDB2D1CE
3DE2A861
3DB935B5
BD6740D9
3DF551D2
3DD4206B
BD340EB3
3D33C1C2
3C0E3D48
3DB80739
3D6328AA
3DBFBA99
BD0387B1
3D3D82FE
BC8A364B
3D816AB5
BDA235E1
BD62521D
3D14427E
BDCD39C4
3D9C6966
BC9A80C4
3D877DDE
3D1B1C6A
BDD733CD
3C41FB20
3D9C1245
3DC7F54B
BD9A5029
3D5A1A06
3DC6CD19
BD66A2AC
3D672342
3D965077
BCFF86C0
BDA81D6B
BA7E5ED5
BBA279B0
BDC1BF61
BCD3EA6C
3DBAD1B3
3DD46277
3BC68A20
3D3A2EC5
BC338E3A
3C4126A8
BDC447AB
BDE4FE12
BD75D16D
BCC530F7
BDE17E8E
BCF696F0
3D777471
BDD23C70
3B038EB8
BDB3EEC9
BBC3B280
BDF1288B
BBB84AD0
BD26214D
BDBC1DAF
BCE6F5F8
BDF24A6F
BDB75B68
BDD3FCF8
3D532BA9
BDC6C668
BD8B54EF
BCB9A42F
BD6AC4E0
3DC59883
3D7C909A
BD6468C6
3C5205AE
3DB49B39
3D47DF59
BD4ADC95
3DB3D1E9
3CF225DB
BD8388B0
3C488BC8
BD073D95
3D7A9332
BD10A3EF
BC3956EA
3D4A3016
3D349FB6
BD958521
BDB4491A
3E050728
BD15D5C2
BC383B2B
BD1D7817
BC6A4DF8
3D60D83D
BC52CD50
BD6EE633
3D635651
BDB01492
BC80D147
3BBF7722
3D93F42B
BD642576
BD364D6C
3DE5BD35
BDC3D774
BDC72FA9
3D5ED119
BD5C9263
3B3E3640
3BDD52A6
3DB76057
3DB6A733
3DFA4323
3D86CE3B
3DED6DBB
3C250EEE
3DD9E6F3
BCFCD822
BD7873BD
BD7F6EA5
3D5FFE91
3DC70567
BD6EA6ED
BD13C469
3D8902BD
3D897138
3D1B2F0E
BAA7B280
3DAC91C5
BCCFF950
BC2C0FE3
3DC5775C
3C120CA8
BD342497
3DB1A8DD
BD05381A
BDD1F7AF
BD74A59B
3D201D77
BCC00CA2
3DBAE1F7
3D967ACA
BD4B4FFC
3C9D00EC
3D8341B7
3D8F46A3
BC3AD2B0
3D94DF38
3CC0675C
3C8F1C0B
BCAF4750
BDD349E0
BC01A625
3D11FF7A
BD203F01
BDB726DC
BCAAF658
3D9A2029
3D915AF1
3CD51154
3C815655
3DB17CFD
BD028D0D
BD251257
BD9D5952
3B006FC8
BCB0C790
3DBB2B7D
3DBE06AD
3BF82020
3BB3A0C6
BC1B403A
BD738C57
3D961277
3DA25223
BDDAA422
3DA3C8F1
BDD2368C
3CC739DE
3C8CB0E9
BDD9E525
3CE52CC1
BDCE28B0
BDA01430
3CE29726
3D3AE84A
3DAD54C3
BD924449
B9AB1D00
3DCCB147
3DAC2477
3D2481A6
3DFCAE19
3C246268
BD9D071C
3DF475A8
3DADEC55
3D7E1171
BD5651FA
BDE63418
3DF6C93B
BCB6E3B0
3D141785
BDC90C94
BD830D29
3DABF3D9
BDC0B766
3CE189E4
BD6A4371
BCE128F8
BDA54DC4
BC4463E2
3C603C08
BDBB586B
BD114E68
BD9C045A
3DA46801
3DC218CF
BD20D337
3DB61964
3B96DDE0
BDA780A9
3BA7C2C0
BDA73892
3D52A133
3D810209
BD740703
BCE5E8B3
3D9ACED7
BCEC8654
BB77C140
BB9AC9E0
3D566E99
3CBAB164
BDAAC434
3D8495AC
3D1EA38A
B6A24CA7
BCFBE694
3BA608E0
BD877302
3DAC6BFD
BCB61377
3D739325
3DC81AD5
3DA16BAB
BDE4343D
BD885E8E
3DAC1B9B
BDB43688
BCE7F88A
BBD46020
BDCDD6A4
BC67E40C
3DD6FD13
BDDF6060
3D238323
3D7C9722
BDA10184
3DCF8FD4
3D752B8A
3D136BC0
BD36D624
3DAF4AEF
3D13B89B
BDB127E6
BC1DE41B
BD33B26C
3AB43C80
BBB529DE
BD95504C
BD8B78D8
BCA1A38B
3D807CD5
BDC28AB1
BD383117
BA98ED40
BB81C0AE
BDC33BD8
BD669512
3C32D090
BDDB448F
3C0948F9
3BEBEE31
BCCA5574
BAA75CD4
BDA1FC4A
BD0F64AE
3E021749
BD5F3B14
BDA86952
3DEC8966
BDE01561
BDA57B1D
BD2DE5EC
3CC9CF3C
3D6D85D9
3D9420EB
BD915171
BD3C590B
3DC0C809
3CF79EC1
BD82D338
BCB7FFD4
BDBAA0A8
BDCA173C
3DD84AFB
3B908353
3D96DC23
3D9F5BE3
BDB0F4E6
BDBF3DA8
3C4DF070
BDAB21EE
BD648EDF
BDA09AE1
3D39A5E2
BDB06165
3DB77EB5
3B939370
3D9261E3
BCF092B0
3D7CAD43
BCFC4B1C
BBE61430
BC531D71
BDD90B9A
BD2BB29A
3DB54C29
BC651B90
BDB0A66E
BDB300F9
3D4F227A
BBE487F6
3DC06771
BDB23D6F
BD56D3A3
BDD2F290
3DC7945B
BDCB8072
BCE86EE4
BC620BE2
BDCDFE62
BD2D8876
3DCBCB7F
BDA3D04A
3C71FEB8
BD807C41
BCBD60DC
BD95AC65
3D9EB65D
3DE1D4DB
3C7E3FB6
3D9282D5
38A57DD4
3D100252
3DAF0103
3CCC2E69
3D6EC47A
3DA60C45
3DFEE5A3
BD95E88D
BDC3F45E
BDAB4AB4
3C4DC998
3D57B145
BDE6C153
BDB31B34
BD4EE6A9
3C3C38E8
3DC795ED
BC3F79E2
BD1F785A
3D6B4201
3DC13031
3D81B3F3
BCF5F3C4
3DCCA7D5
BCA9779B
BC6B1EAA
3D11BFFE
3DE84B6F
3D9FEDE9
3D160606
3CEBB552
BD6DD374
BD1901C1
BC8670FF
3CD40304
BDD93FC9
3D96E6A7
BDB20FEA
BC67A048
BDC5BEDB
3DB1CF8F
3D502E05
BD0B0A68
3D23B6DF
3D2668E6
BBE4F6B0
BDC13E08
3D8B5F71
3D94DB3E
BD82183C
3DADDCF5
3C75D4A2
3DD41735
BDC37F7B
BDDC305E
BDB0C09E
3D032133
BDB621A6
BC795FB0
BDAA9063
3C6D7158
3D1565EE
3CA7D8A6
BC000D18
3DE7814B
3DE5225C
BCFB41DC
BDCD9B35
BBFDE970
BD775991
BD898489
3DE2B0BF
BC0BC993
3D1803EE
3DDBFF49
BD454EF4
3AD32A40
BA529B00
BCCC9310
BD9E583C
BDC60163
3CA657E5
3D4249FA
BDC0EE99
BD070180
3D02197A
3DBB691F
3D1F4472
3D5EAAD9
BC9270D7
3DA99F09
BD3FF917
3DA86AFF
3CD183C4
3D5ECC59
3D372F56
BDA2670C
3D1DCE11
BDB26CA2
3DD14BC3
BDE69B25
3D4E69D6
3DF218F5
3D9E6D41
BDA73967
3D9847C8
3DA96E3F
BD8EE0FF
BD3E4DD0
3D28BA82
3D5A04F5
3DA6DFB5
BD5F910B
3D975BB2
3D8123E3
BC485BD3
3C5B01B8
BDD70B88
BD86E617
BC80C430
BD5A6739
3D286975
BB4A37C0
BCEBB824
3C75F4F8
BCBB01E0
3DA378E3
BCBD4F9C
3DF77145
3D9A56FE
3DDBA783
3DB528C1
3D7453E6
3DBD601B
3C9AAEA9
3D7A6E02
BA926EA9
BD7290D7
BC6275A8
3DA8170F
BDA5A098
BD1B9200
BDA3A8F4
3D03500E
3DC40DCD
3D68790D
3D808805
3DED3565
3D232292
3DAE8D09
BC237682
BD275B84
BC10D99A
BDCA94A9
BDD47D1C
BD8F6AE3
3DCD8809
3D79B4BA
BDE43AA9
BCBE091C
3D396917
3D6F201F
3D798372
3D896456
BD00C778
3DD85A3B
BCB2A3A9
BACB2A00
3D352C7B
BCF2B969
BDBCB586
3DCAD861
3CFEEA2C
3D5C477A
BD7AFE01
BD1B42E2
BDD0F21A
3DA3EFEA
3D9649E9
3B066545
3D6892EA
BBBE0D70
BD0F7B0B
BD05C7AE
BCCFCD23
BDAD20B9
BD98E9F7
3DDFB9AD
BDC87243
3C2F1740
BD1C1A53
BDCB7D69
BD88C777
3C0363BD
3D8CE1E5
3D292CA7
BD8C5D42
3D29B9F6
3DA38D43
3D8CBA6F
3C8D89A0
BDCA4B15
BB8A3850
BD6B1B4C
BD2586B6
BC99C9B8
BD91EE70
3D8D9639
3D8A2666
BD4AC284
BDD37F61
3DAA4BFB
BCB16434
3DE20F3F
BDA98AFE
BD93FB6C
3DE93D27
BD6F5EA9
3D1F60AE
3D0BFB99
BD2FC9F6
3DA91A31
BD28BE27
BDAA8DFF
3D7CECA1
BCF0D465
3DA39211
BC8EED8F
BDB08F80
3C9F95CC
3DDFA4F9
BD3080B4
BB14891C
3DB72326
3D99D6C7
3DA88ACB
3D08A6CA
3DD1415B
3D5023B9
3CAC7FC4
BDC0B3D9
BCB23B4F
3D2EF15A
3C05F6E4
3CB8F224
3C845974
3D1FD5F4
BDE2203C
BB066783
BE0F216F
BDDAADD3
3D2778DF
3DA696B1
3CF5F6DC
3DF90B0D
BDBB223A
BC46BF9B
3D976BC2
BD3A3782
3D7454D1
BD418550
BCEFC694
BC0B70CA
3D713736
3DA7144F
BBB5114F
BDB2B654
BCDC8255
3DD60DD5
BDDDF482
3CD39A26
3D837AD1
BDBEA131
3CDDAB6D
3D695C96
3DC9C2EB
3D3AE4E2
BD4F8DDA
3C8D6220
3D30C70E
BD3AFE95
3D4DD22D
3D918F31
3B136C81
BCE078CC
BDB0070D
3DA184B7
BCB2DCD4
BDB1C397
BD6A23D1
3D8A2781
3CE70F99
3DE380E7
3C673518
BD9F470E
BCBDA9B8
BD589969
3CB9FF2D
BB604460
3C487833
3D9D9423
3DD27D0D
BD42139B
BC61DA08
BCF64942
3DE3B1BE
3D82095F
3DE78C29
3DB37D13
BDC9FB3E
3D21319F
BDADD703
BD71A14D
3B515CE7
3C6A9EA8
BC48AA9B
39E60600
BCD0009C
BD8D023B
3D53A57A
BD7739CF
3DA3C2C4
BD3EB41A
BD9822A7
3DC746CD
3DDED209
BDC298A3
BDE1F8A2
3DAEBCB3
3DE726A4
BC6E8BE0
BCB807AB
BD2C4818
3C0AF3F0
3BC8941A
3C034180
BC87B7BF
3DB16732
3D5847DA
BD0387E1
3D63054A
3D99E41F
3DF9E251
BD7FCD63
BDB799DD
3D8B9811
BDBC8DDA
BD109D25
3CA72534
3C944F94
BDA16A25
3C56F2D8
BCA666FB
3DA3ED8A
BDD72FD8
BD69C049
3DA26D81
3D224F5A
3C17F6D6
3C629D68
BD1B2179
3BC15F82
BDE4C4A8
3D70486D
3D46441A
BCFC5384
3D0EA38C
BC951EA4
3CD05211
BD351ACB
BCA6175C
3CDA8446
3D831EE1
3D94C3A9
3CCCC2A1
3DCA40C1
BD899DC4
3D4A684D
3CD38584
BCBA7677
BDE16B22
BC267970
3E03B74D
3A937BC0
BD9137BB
3BC15DF2
BDCA2B8E
BD6C93DC
BDB4875B
3C95D55C
BD1F2501
BC9BBAAC
3D4CEE5B
BE007649
BD875ADE
BD84B79A
BBE99990
3D2E03A2
BDAE02CE
BDBF6D95
3DB0C631
BD8264CD
BD180388
3DE95621
BB484940
BD0DAC62
3DAA7031
3BDC9AC0
3DF95687
BD17DE8F
BCF22744
3CA894B6
BDA3EAD4
3B447820
3D991DF1
BDE36F83
3DC0906B
3D237A6D
3DE3C6FF
3CD36249
BDD79D21
BDA01BF8
3D846B93
BCC42938
BDF10F69
BE14D7A5
BD8C801F
3D98BEDE
BD35BB6E
3DA8625F
3C92CBEC
3D0C773A
3DA7A4CF
BD1D3E17
3D903837
3D8F381F
BD815CEC
BC9B1354
3DC725E1
3D980AE3
3D4642BD
BDCD5674
3DB67F75
3CCBAFE1
3D92279F

