BE8626A7
3EBD6849
BED13B55
BEC34475
3F0EE6FF
390B853B
BEB69CD1
3E95138B
BEB0DDF9
3E3B8514
3ECB2901
3E812A0D
3F059ED5
BF6EDBAF
3E989A90
3D09CF13
3D3BA954
3F0B8357
BF7C3F0B
3E9759C0
3EFE9B40
3EE88D98
3ED550E7
BE7484A2
BEE2B5D5
BCCD1A41
3EB40272
BF10AE28
3F6177FD
3F2F7E18
BEE8F3D9
BDAA05FC
3F181829
3C843DF4
BF11DA50
3EA1BCC7
BED14997
BF5BB08B
BF3D8ADE
3F15851D
BF410B21
3E3D88E8
3DBAD0BF
BDBA7089
3CD2E39F
BFAC4590
BEABE265
3DDB8D83
3F20A036
C000B9C0
BEB30E76
BFA468A4
3F67291B
3F570FC3
3F01CB7C
BF8A6087
3DA4936C
3EAC874D
3DB0C2BF
3F6EB949
3F59E7C1
3F236834
3F18BF65
BFEA9F76
3EA0736E
3EC0BAA8
3CE3A938
3E604F24
BE5B82E9
BF0943B7
3D88ECED
BFFB5A24
BEC25B05
3E090C0A
BF033688
BF82688F
BEEC8A54
3E55AE43
3E31E230
BBA57772
3F4933FF
3E827215
3DFBD043
3F662317
BDF220E3
3D87C393
BE8C9669
BF08F097
BF1F3A7F
3E0A8C63
BEA4F58A
BED8039D
3EF5BEFD
BE584AD2
3E7615C8
3BC8D4D7
3F432B4D
3F3B8823
BEA4AB21
3F4C8495
3FA90E0A
3F79D8A2
3CB6A70C
BC6F3BD5
3F2F24B1
BEBBC8D5
3F39E830
3E8FD490
3F5D5C27
3F7C36F3
BF4B1FE7
BDFF0FE1
BD069092
3F1AF609
BEC9AB2A
3EE54DD5
3EA1062D
3E9E080F
3DFC0716
BD80FEA5
BEC94DED
3E15BEA0
3E49220E
3F2E3733
3F429DD7
3F7C14AD
3E277BDB
BF5E628B
3F02BED2
BE12E6D8
3E1C4898
BEC671DF
BF669CF0
3E5DB2AC
3F276859
BEEEE5B0
3DB6B628
3EE0B392
3E4B45E2
3F4E6C35
3F5CE6C3
3ED7246B
BE17DD09
BEA5FC4C
3E4C6B3A
3E2CD53D
BF317925
BF6CB46D
BC4E1EB2
BFB1F646
BE51D899
BF3DD2B8
BF293FB8
BF15A2A2
3D44BBF9
3E063EC3
3F87E2EF
3E631CAF
3EA567E5
BF81E373
3E8D0FCE
3F117680
BE836CC1
BF07E48A
3E98968A
3E385B97
BF032D81
BF1764D6
BF4BCB42
BF32B90D
3F592D47
3F85FB5B
BEC217A5
BF4FA115
BECB233C
BF913E79
BE5F8A5C
BC32FC37
BE98D54E
BE518F00
BEEE6DC0
BE0A695C
BF47723F
BF3CBAE1
BF84FC1D
BD390B3C
BD6CF5BF
3F2BCACE
3F7F2FE7
3EEBE658
BF21EA29
BF13A4F3
BE882F8F
BF267938
BEBE9E81
BE33BF5A
3EE8C052
3CE0C2AF
BEEFEDE6
BF4FD571
BF57459C
3F11A393
3DBCDB74
3F27E5A9
3F866992
3EAEF52F
BEA7D9DF
BF1A5B2A
BEF9D68C
BE49F9E4
BE5267F5
BEEB8A1E
3DBC39F3
BE7E7DB5
BE346931
BF9D5A9C
BF1D1D1C
3F3F433A
3EC827FA
3F01EA76
3F2698C3
3EFD05F9
BD18F8D5
BF64B13C
BF7EA0AC
3F52EABD
3E640F22
3F44B76C
3F559A4C
3F2AA298
BF03593A
BF2EF983
BF4D1010
3EE9829A
BE15BD91
3EF78371
3F971FCB
3F2058D1
3D8CD2D5
BF71DCAD
3E7D080B
3BA7ACF4
3E6822A4
3E2D2D1C
3F628D67
3F600B72
BE2E060F
BF579DB9
3E7BC81E
3EBAE297
3F08E7FD
3EFB365D
3DD58212
3D69CB28
BF1C378A
BF18B1F3
3D324E71
3EA39105
BDA9A8DA
3EAC0A25
3F7EF568
3F761A75
BF01DFB4
BF58151A
3F6003F3
3F3DB69B
3F26001E
3EE76474
3EC6F17E
3E22C34F
BF1B99D5
BF1377B1
3E938FD5
3EEE1E5F
3EA18C9A
BDAF7D8D
3E52264A
3EB55D64
BF03984D
BF275BBB
3EF5FBEF
3E4AD5F1
3EB61265
3D04329B
3F348EDF
3EE0F6F8
BE8DBE96
BEF0C1F3
3F431223
3E67C0C5
3EC9E225
3E3EC77B
3E1D1450
3E42130C
BED33640
BF1C22CE
BBDBB8DF
BE02C518
BC548128
BE4D4070
3F10BB0F
3F240D1C
3D108710
BE01AF24
3E423811
BF042266
BDA023BC
BE84266E
3EB32844
3EC8D109
BEC3F0A7
BDD23404
3E20E313
BE126B89
3D0F39E4
BE3F2C4C
3E87EA30
3DBDEC4E
BE4435CB
BE9412DB
BD3236FC
BEBF55E8
BE23D7BE
BEC20B7E
3E967DCE
3EC2FB43
BD930C28
BEF60DB3
3E0CECDD
BE8CE94C
3E1B3158
BE8A242F
3E9EB579
3E434059
BD5EC73A
BE6DDC3F
BE9443A9
BEA0E283
BE42E33E
BE93B545
3EC98B8D
3F218263
BEC04E88
BF1F5AD2
BD9A94C7
BE4B09EC
BD49E4D8
3D2D4E58
3DC1276B
3EB75469
BE95E203
BE996477
BD8967D6
BE39A0F5
3CD5DCB9
BD8CDE39
3D608B45
3E12BDBF
BF1A578D
BEEBA9EA
BE4A23B8
3EA3026A
BD9B9888
3DAA0160
3F513BDD
3EDBFF64
3EC89ACD
BED06044
BD43A0E1
BE1DAF48
BCE4FA31
BD9379B1
3DDDA443
3F003396
BED7F92F
BED84232
BCC4CF24
3D332347
BDB48F87
BD34DEEA
3E48E819
BD8A85E6
BE74C889
BE93D899
3D8CCB90
BD220973
3CC1E5A6
BE10AA3B
3E31E16A
BE74BC3A
BEF61739
BF44FA84
3E79A3F7
3DFB690F
3D9654A8
BD23DE98
3E9A7ACC
BE554B4F
BD429BA1
BE89EEC0
BD97E67D
BD957D8C
3CE071CB
BDC9736C
3E2D0BBF
3EBBF4A0
BE4C208B
BF3C3A9A
3D78AB75
3B47FCF6
3E0B08DA
3D647985
3E6271BE
BEA0962A
BEA968C2
BE8EA56C
3E6EFCD3
3D42E2B4
3E2C6E6A
3D006161
3F0252E5
3E1672F7
BEDA8309
BDDA5963
3D482138
BDACCBAB
BCFAD739
BD3F4ADD
3E3C3E7B
3C8BA16D
BEAE2DEC
3E07B8BA
3E37B557
BE957021
3BEA71F8
3E313E0A
3E21C94C
3CAC51D0
BEEDCE49
BF0C71C6
BE5A3101
BD9AF5C1
BE414025
BE88BD0C
3E1FD25B
3F111403
3EA5A08E
BE60593B
3D652460
BDA770DC
3BEF76A6
BD0A07DD
BC9C3DE0
BEAB1B76
BF033756
BF2A0E54
3E870542
BD9AE1CB
BDB7C474
BD4FB53C
3EAF7737
BDA29971
BE1F5D65
BEC8632E
3CB378B3
3DDC21AC
BBE48EF1
3C48B08C
3E2ECBA3
3EA2F1F5
BE2700A1
BEFE3CAB
3EA4CE00
BDB7A51F
3E79C24E
3DF96F65
3DE90D23
BF043397
BE6B39DB
BE41BEAB
3D75A9D5
BE287D2C
3E296744
BD05A6AE
3E5664EC
BEB1F18B
BF102440
BF2DDAB5
3E684BF7
BD29C5BF
BB17D9FF
BD810A64
3E89FFAC
BE1095FC
BE38F0A8
BDA97B21
3E63C0AD
BD8CDF4B
3E0C408E
3DD3C7FD
3D1F0A35
BEFAC8FB
BF06E322
BF31E9B8
3D1B2B6D
BE889C47
3D537199
BD8B4178
BD4556B5
3DED1A7C
BEAF97FC
3DF52CD0
BD3111B2
3E211F64
3D6FD42E
3CDE3932
3E88600A
3E7627F4
BEC240C5
BEF6A8FA
3E476918
BD0EE96A
3D732A8F
BE2150FC
3E6CEE94
BE93746E
BEB047DC
BE8AC21F
3EC49EA3
BD9F0751
3E454DA5
3E40463D
3E7A327D
BF0D0EBC
BF17C999
BF07D77C
BDF5C09F
BDF57AA9
BDC388B5
BE37C8DC
3E20C98B
3E5A6825
BE1A3497
BE0D43FD
BDC646F5
BE4F168A
BDA0FCEC
BC60BF97
3DCE689D
3E8F04BA
BE9B38A1
BF44472E
3CFA8329
BD9F1EDC
BD98D06C
3CB92FCC
3E095EF1
3E2708BA
BE3EA9DF
BE78E285
BD2CE2CA
3E6AD760
3D1F238F
BDB40A26
3D924C08
3E749A22
BE9C2CA1
BF052DEB
3EE4F951
BD3A72E2
3E1D0451
3DAD2D2F
3E0C8EBA
BF0F4761
BE6FD599
BE00E813
BCA4EB93
3C9FCD65
BD1E4190
BE0C81CC
3DCE141A
BF011895
3EFC5F46
3F12F50A
3D87C986
3E048CC6
3DCBF174
3D8289CB
3E6604AE
3EAD80AF
BD1A348E
BE8D5855
BC59DC65
BD9F3ADF
BD1C3BEF
BD10FFE7
3E745980
BD910A6C
BED10A08
BEAD9D6E
3E3EE6C2
BDE53691
3E959B80
3BD4E142
3D949354
BB4FFA7D
BE63BB75
3EADB830
BDF39AF1
3EA21471
BC26D71C
BD053689
3E716318
3D82558B
BF0BE2EF
BED2FFDF
3E52AF7A
3E36E7E8
3E52EE08
3D959069
3E8123D8
BEAC0568
BEB48A5C
BE89DCEE
BD578CBE
3EA4359F
3E7F2AC0
3DBA8F95
3D9DE4A9
3EB0BF50
BD92424A
3CAFA0F9
3E685D58
3E05C210
3EAF1441
3D1D9613
BDC7BACE
BE918174
BDB47B01
3E7DB5A8
BDA4E5CC
3E260700
3DC8FF69
3C59A98A
3D95525C
3D23133B
BEB356C4
BEF139F5
3EB1FAE7
3CC8BECE
3D81DC20
3C3CC480
3E8D1AAF
BEAC4792
BE7DE8A2
BE4E8E0D
3E3A0AD5
3DF49671
3E000F22
3D736665
BE1B6699
BEE23C47
BEEB3078
BEB8F967
3DC8C6CE
BDAC0A83
3E733DBA
3DBB16FC
3E14CDD7
BE99E023
BE85E117
3E778806
3E8E6FB6
3DE5D2F0
3E67A073
3CE6BA43
BC80E5C2
BEE304A8
BEF58824
BE8CFEF5
3EB0DD03
3E22DB1F
3DFF4EC4
3E6A523E
3DACDBE5
BE362915
BEBDAB5F
BDABB965
3D97E878
BD099AEA
3D75DB94
BD7515DF
BE6EF87B
BA8277DB
BECEA94B
BEDA1DE3
3D570635
3E0422FD
3E977648
BB3813F1
3DC29E83
BE5A25A6
BE2CA60B
3DE1E0ED
3E0AFBC7
3CEEEAD5
BCB1F5B9
BD0341AF
BE242E5A
3D62B084
BF0EB2E4
BEDF768B
3E1FB0E3
BD27AA1D
3D27F99B
BD0602BD
3E40B1E5
3E263E20
BD4EAFD8
BE509F50
3E9A9EDD
3D039B6E
3E89CF3F
3E09692B
BE3238F5
BEA4FDCF
BEDAB334
BEFF5263
3D5019FF
3D3D60F0
3E2402D5
3DE14F53
3D7B5E8C
BE2799E4
BD843025
3E80F39E
3E99F6BE
3E696538
3E1F7698
3D89F1F8
BE87E842
BE617463
BEE38CB5
BEFEDCA1
3D8A4299
3DE55A5F
3B7C1066
BD3357A4
3D43997C
3D9D75A8
BE1ACCA0
3D5915B5
3E2ABFB9
3E075B01
3E153F18
3E14CF12
BDDD6C38
BE603991
BEA40658
BEB1FEB9
BD0902F6
3D28C93D
3D54789C
BD6AEC55
3F431603
3F25F84B
3F16903F
3F4564A5
BD181642
3D05B2D4
BAB3B608
BCA7C00E
3DD9ABB6
BE647A09
3F5B076F
3F5742C6
BD84C7F9
BDF2D31D
3DA536B9
BD87CBF2
3CD92F43
3EB3BF40
BE9D3F58
BE076C3C
3E627CC4
3E2B498E
3E28DFE2
3E11B405
3D830734
BE80F352
BC08C98B
BE30762A
3D5712C4
3CB5FF0E
BD581FD2
3DB1A741
3D0F6CE5
3DBD4071
3E077B27
3CF110C1
3C31B94F
3BDF6592
3E1EBC08
BCCD3CB7
BC4840C1
BD5F74A4
BD399F29
BD84DB0B
BCC37399
3D898A2D
3E17C2F8
3DAB9FBF
3C07BAD3
BD26F237
BDC4C216
3DC670E7
3D37A6DC
3D057745
3E4467D5
3E2582C4
3D9B2CF2
BE7E0951
BE5D6248
BE30576E
3E539238
3E0B4605
3E5B4F30
3E41A2F8
BD097319
BE129E79
BDE711A9
3E29A9C1
3D619503
3DE62E6E
3E1D51A7
3E0982F0
3D61199E
BDB83C95
BD19E3F6
BD3991F7
3E2174CA
3D522DE1
3D50193C
3E1D7483
3E336CC4
BD9F6AB1
BDE6ABF2
BCA34C4F
3E6C331C
3E4C367E
3DFB3FBB
3D1FD437
BB356D10
BE5EE7C0
BE0351DE
BD9790B7
BE12E929
BC86061B
BDA7D6E8
BDD59166
BD7C1B1C
3EFBF648
BE318C19
3EB706D5
3D8C16EA
3DEB7D44
3E143A22
3DB3D6D6
3D260C23
BDB19187
BE05C9F1
BDF42E82
3D7B42DC
3E1E200A
3E755AE1
3D980F31
3DDBE4C1
3CFC90E2
BE0AF392
3CB27F23
BD2F3A23
BD44FA65
3DDFAA48
BD3991D1
BD981800
BD828D0B
3D55D9ED
BD37F0D7
BD096F5A
BBCEBFC3
3DB9004B
3CE5FEB1
3D724F64
3E3E1BDB
3CF5F18A
BD8C5857
3D99D1FB
3E5F459B
3BCC641D
BD31958A
3C3F2148
BDD08F4B
BE372D30
BE287A02
3DCACF23
3E03FC14
3DFDEA4B
3DF6C3DF
3DEA4CBF
BB483269
BE5110C8
3E0A82CD
3E26B9B2
3E5E1DA4
3DBE1660
BCD4059B
BD7E98B1
BCE19325
BDE3F67B
BDDBCFAE
3D01EA5A
3DF9FF57
3E42E502
BC476609
BC59C2F0
BDCBA71D
BD38562F
3ACF0585
3DB02E1A
3E30E656
3BE01E6B
3DA61096
3D034A5B
BE49C688
BD99867F
BD90C529
3E43E2C4
3E213336
3E7A58CB
3E067E89
3D4C2773
BDF5B34D
BD388A06
3D8ED6CE
3E252736
3DC5FE85
BD7CB984
BBB70B90
3BA5AA5C
3CA0B021
BDD892C0
3E14960D
BDFEFE15
BD9E45E5
3CAA9B22
3D08525C
BBEBA8B5
3E734EA1
3CEB5E12
BC161AE3
3E29A11E
3E36059F
3DAD8C6C
3CB6C65E
BD7F7235
BE0EFDBD
BE5D028D
BE07BB5C
3D0B05AE
BC1D4679
3E28BE2A
3E01E3FD
3E25FE1E
3CB5A697
BE669E8E
3DE192B3
3DDEF013
3C010D69
3E5FB7BA
3DC428F2
BD218BAD
BE78A73E
BE62D994
BD867EE2
BD8361CC
BE31FAC0
3D89D485
BDA20B82
3C1FBC05
3E97A450
BC2EED25
3E60D73D
3E1F66DC
3C8C5709
3D598688
BBCC03CB
3D603D9D
BD0B6C51
BD6F6ABE
B9A947A3
3DAEDC66
BD37BF52
3E466D61
3E09C6B5
3E0B2CFB
BE04E03A
3D98C139
3C40E370
3E67EFCC
3DF3C3D6
3E6D0C20
3D556FB9
3E0023E3
BE24E1BA
3C12DC01
BDCBAC49
3D8A1D8A
BC4BC0C0
3E5669A9
3E43CF88
BC3E40D9
BE02C1AC
BD22FCBF
3DA87009
3E37DE4C
BDAA3050
3D8A3949
BD7CAF76
BB192995
3DEA7DAC
BD8F3768
3E6B99FE
3D93AB4C
3DEAA3CC
3DD893BD
3E1059F1
3DBA7AEB
3C045111
BDEA7EC9
BDA4CAA5
3E44FA2E
3D5CD62E
3D16BDB7
3E1B2918
BDAFAFDD
BE1E4893
3CB373A7
BD543782
3E1C47D4
3D1895E8
3D7AFB25
3E262C8D
BCC89E96
BE1D9949
BE07FC86
B8E9DE8F
3DB43AA9
3E2C1D91
3D883081
3DB6FD84
3C8F7A10
BDBF16BD
BE02AF12
BD14A193
3DE298E5
3D8108C3
3D5259F8
BC46114A
BC8D80C3
3C26E041
BD6A0033
BD837315
BCC998F3
BE208AC4
BDECFBA2
BCD8FE0C
3BDDA86B
3EC8EB9E
BD8AFFBD
3E4AF95A
BD2F98F9
BDF48AE8
BE30CF93
BD9AC395
3D68D9A7
3EB74475
3D3FE200
3DB4FC1A
3B9D671F
BE21AF5D
BCD1F1BD
3C73D2DF
BD75FB67
3E64E1CD
BE135042
BDF342AE
3E0459FE
3BDE7C61
3E04C762
3C31392C
BCEC41E2
BDAAC31B
BDB01649
BDC4194F
BE06EC7C
BDBD3DE1
3D9A4CAB
3DCF7378
BD87025E
3EA9E6BD
BE390DB3
3D34BA6A
3CBAAFE1
3DDA14C8
3E0FD0F5
3D09DE76
3E102DF5
BE3C6E41
BDF4DD57
BD2E6758
3E73CB5E
3D81592C
3E1F8F26
3D0B7AC1
3DD02726
BD278F6B
BD80B349
BE2F7A5F
3E1D6DCE
3D0C413D
3D826864
BD606B43
3D88DDD9
BDB34E71
3D1F4E79
BE009A9A
3E31D7FC
3DDCA9A9
3D713501
3BFF1553
3D8A62B2
BE5F4FA3
BE2780CC
BDC2C5D9
3DC039D5
3D97E2D9
3DF86EB4
3DED387D
3DAA4892
BE131483
3C03439F
BD93BFE3
3E71DBA2
3D157E86
3D27B19B
BBE42B15
3E04472E
BCFB7F52
BDEE39CA
BCE5AF93
3DA9E239
BCC3FE6E
BCDC3C58
BD500C15
BBDC3EDE
3E4ABC22
BCC6159D
3E429F63
BDC99488
BDB7AE89
3D71FA49
BDF7CF9C
BDF96E5A
BAA6A462
3E2219C8
BD7CFD14
BD84314A
BD9CA704
3DC60CA3
BCBD4D92
BD6B0F8E
BD82A166
BD77A1A0
BDFCE342
3CC8DC12
3D940614
3D38ADBA
BDA26CF5
3DB42A77
3DBC7C4D
BD4D634A
BD57911A
3E13143B
BCDE0CD3
3D84C6E4
BD7D8513
3DFB79DF
BE097034
BD7AF476
BC9523AF
3DBD341A
3D4B5DF3
3E0F7D0A
BDAD00BE
3E049034
BD039F31
BE084FAA
BDB36831
3DAAC0D2
BD954843
3C03CCAA
3D6F5A3E
3DF6BA1C
BCC0F068
BD542D8C
3DB32ADF
3E09AB01
3DCE3A45
3D8AB3DC
BDA08C3E
3CA5D05A
3CF59F2C
3AC396F3
3CF49BC3
3BE350A3
3D62AF3B
BD105E49
3C3F6213
BC0BC862
3D9DBC21
BCD5B658
BD43A0AE
3D326481
3DDCA35F
3DDB531D
BDC982D0
BDBEF52E
3D903EF9
BD34754E
BDAB2000
3DB76F46
3E041C10
3DABF56F
BCFA7601
BD691A36
3CAD6EF8
3C5E97B0
3BD80632
3E0733CD
3C89CC5A
3CF6EBCA
BD2C8C87
3C038866
3CC10D4E
BE04290C
BC9F117B
BDCBDBEF
BE11A597
3DA2C896
BE087E24
BDE074FC
3DD442D1
3E158991
BD915102
3DD2F408
3DD06611
3E0AD507
3CA72BCA
BCEF3546
3CA1EB28
BE11B032
3C43E0F8
3DEDC966
BC0339F7
3D8D096A
3DB3A22E
3DDDBB80
3D8D6D26
BE197BB1
BD63292D
3D69803D
3D2D5A8D
3DB76D7C
3C976D7E
BD864A12
3D9964F4
3D8D40EA
3DBAEDEF
3DFE971A
3E090562
3DE26542
BDC63C70
BDA84176
BD3F9F1F
BCB49200
BD97E568
3D0C246A
BAAAD84E
3D4ECF76
3C8BC7F9
BDBAA0FC
3DB93B7F
3D9A9CC3
BDBD2D40
BD6F476A
BC438D01
BDA2DFFC
3D78D051
3DB63860
BCFE3E3C
3D3E4448
3DA25801
BD9D802E
BD8A216A
BDA0F0D2
3DFB6092
3D12BF14
BD8DAF3E
BDE3433C
3D47041E
BD8E603E
BD946DE4
BCB7F824
BD6F1557
BD83E39A
BC3E2906
BD21A93F
3D5548E6
BDE0B726
BDD4F912
BCA55840
BD51C29B
BDA7CFFA
BDA35BC1
3E0736E9
3C397AF8
BD7FC582
3DC82A4D
BCCA7C8B
BCCAD08B
3D90CAC4
3B1C45CA
BD99E5CD
3D7406EA
BCE6417D
BD12CBE5
3D9726B0
BC88E385
3CC0E4EC
3D892AED
BC81427B
3DAD7A67
BDA0F64A
BDAD084A
BD5FDB15
3DBA8816
3D4EB29A
BD90DF4A
BC829738
BC6117D8
BD08ACAE
BDA7FA87
BC5DA9F8
3DF12138
3DE00610
BDC45173
BE03F56D
3C652388
3C142A4B
3C541F15
3D69933E
BE00B21E
BE0706F9
3E1C6434
3E2EEA7F
3DE61D99
3C80BC14
BD97D786
3D358944
3DE8844E
BC14EBB2
3D2C68B3
3D0F8276
3D4EC1EA
BC5F7B57
BAC65702
3DCB16E0
BDACCA4A
BD4ABAB0
3DA5C8B8
BDFF7DC7
BD282D26
3D486D9C
BCA3413B
BE0DDFC2
3D88B0B9
BD1ADD2A
3C531526
BD2ADBE1
3C65F388
BD236818
BDBD2AAC
3D85628A
BD64D905
BB905E0A
3D25754B
BBCE7BCB
BD4F9AE4
3CC2C372
BD67F3B9
3DD302E0
3D63DF39
3DB79E56
3DA3D86E
BDEAA07F
BDA67ED8
BDD0EE04
BC6110E7
3DB92E0E
BD1F5B3F
3B18DCA1
BDBC0E2F
3E0FC38B
3DDDEDBD
3E0BBDCC
3D4A4F05
3D818303
BCB12BD1
3D9781B6
BD98D175
BDD659C0
3D93CB03
BA42D802
BD6E184B
3D541F60
BD5AADE5
3DE1D18E
BC56080C
3D28EAB6
BD2AD69C
BD52C912
3B760141
BD500770
BDA5AA49
BDA8F124
3DADBAA4
BC384398
3D59E3F2
3DB4454E
BD63C673
3D977155
BD48E483
3DF9B4B8
3D623EA6
BDAD2DAB
3DC3204D
3E010B0E
3DABACBF
3CB0B8C8
3C70AC65
BCCB832E
BD4EACBF
3C237280
BC2935C0
3DB08158
3D054B8F
3BE09751
3D8B70E9
3DF3FC98
BD2B4BF6
BE0B3B1F
3D8CE559
3D7A2BCC
3D589C55
3A8CB907
3DA36566
3DC712EA
3DC980DC
3D25042E
3C23A380
BA2DA51C
BC53DBED
BD43ADC2
3D8F9217
BDDE99DA
3C430B08
3DF05277
BD8EEFF0
3DAAAF7E
BD9F1609
3CEB65DC
BD908F83
BDF8033E
3D074DED
3CB9FE03
BD026DC6
3DA853E6
BCDFC2B7
3CD6B5DE
BDAA2053
BBC7E8F9
BC46EA12
3D436452
3D248356
3D6137D8
3DBD0B9F
BCEAA4DC
BC16DFC1
BD9828F8
BD82A497
BE13DC39
BCBA7290
3D6AC78D
3D636675
3DA6CCE0
3CE7B2A3
BD548FB8
3DC69DC0
BDDAC43E
3DC70831
BCD09707
BD96CE53
BC9A59FB
BDC88FD2
BD202B0E
3D81FC5A
3C6B3120
BC242460
3D8082C7
BD9B1A7A
3D58508C
BCB430A9
BD4AB45F
BD751295
BD26771F
BD973B76
3E11ACD5
3CBEDB9A
3DE89B3C
3D3C8571
3D19C00C
3D3DA09B
BE14FF4C
BC98BCD4
3E0DB12B
3D8DF7D8
3E0985ED
BD20D3C3
3D3CE8B6
3D55D465
BDF48B62
BDE5AE35
3DE72212
BCE8CFFD
BD651563
BD97652B
BD2C2BDE
BDA7FCCF
3C10978E
BD8E704C
3DCB9C40
3D16B6AD
3D72334C
3DA3741C
3D80E84F
3D5C2212
3D709678
3D886173
BC739581
3D98A2E6
BE012C99
3C77B548
BDCE963C
3E45015D
3CA3F826
3C1BF9A0
3CF86D75
BDA53E24
BD707E91
BC8C3A15
BC801DFB
3D8F3E1A
BDDA091B
3D9F9347
3DB0FFDC
3C969961
3D226075
BDA59B51
3DE780A6
3D00C387
BD4244FA
3D7D7212
3C08B3BF
3CDA8DEB
BDB0EF99
BCDF7679
BDD2511A
BD909355
BD9374D6
BDC2AEB0
BD3F4129
BD9543BC
BC9C522B
BD7F90F6
3DE0DFE8
BDDA77C3
BCDBFEF8
3D8BA751
BD399FDD
3DF76F37
3D5099C0
3D69ACA5
3D4CE7A2
BDB82B8A
BBF6601F
3D37FF9A
3E02085F
3DA4CD13
3DA2E446
3D1281D1
BD62AE58
3D058ABF
3C684872
3D435286
3ADD8979
3C86232E
BD497E0D
BC625630
BD97B820
3D441A83
3D0C7A52
3D39F45E
3E0D6C4E
3DD3274B
3CF36962
3D3BCCA1
3C6FEA7D
3D521B0C
BDC4CE89
3C93B874
BD8CE42E
3D59D581
BDA698AD
BD07A6FF
3DCCED24
BC391C16
BDC535F5
BCB111AC
3D403601
3C9B341E
BD20C2D2
3D6D570D
3DD90518
3D3E5A23
BD679620
3C438C08
3DB2657E
BDA93768
3D3E7E09
BD16E311
3B2D9E3A
BDA88047
BCE55A10
3DAE7059
BD371ED0
BDCDDE97
BD495BB0
3C8AACA0
BD097375
3D34CDCA
BD33CA79
3D3B00AE
3C5D6E17
3CB24E7B
3DB637A8
3D9DF480
3D572182
3D96EDF7
3DFB7AEC
BD56F9E3
BDF17B16
BCB9EA3E
3D30CC1C
BDA8460D
3CC0E854
3D2B1203
3D192F3C
BCF7734C
3D85115C
BCBDB57A
3CB4C158
BD9EC77F
3C9D35EB
BD80CB35
3CB67514
3D5ADD5E
3ABB3FF9
3D6FAB59
3D42A591
3C785975
3D6ECDFA
3CFEEB5A
BD961F09
3D488E3A
BC829E70
3DC9ABEF
BCC58C80
BDCBD47F
3DB521CC
3CB2A204
BD3988EC
BDA8F292
3C22EF1F
3D510CBD
3D5705D8
3D60B679
3DDF1446
3D307407
BDD5507F
BCC1C248
3CE02079
BCEC5D28
3DFF4006
BD03CBD3
3DFB384E
BE02FAD2
BDD64FC7
3DCC98D9
3DE309A2
3E057B57
3DECEE06
BD81D427
3C113FA5
BDFF0F4E
BE02F11F
3D71C9A2
3DAACE54
3DF60933
3D833FD5
BCC6DCB2
BD190E9E
BDA68443
BE01A567
3DE154F9
3D482D90
3D3B3A19
BDAD1CA7
BD8CD2E9
3DB9CD3C
BD5AA861
BE0BF3A2
BCB74AE4
3D1D2656
BDC1F331
BD53C93C
3D7A18F5
3D0A974D
3DF8C977
3D7E83A7
BDDD70D4
BD9F97E6
3D32125D
3CEDD142
3CE08023
BD875D36
BDE99079
BDE4E0F7
3DB9EB55
3DBD187E
BD430975
3DBEA806
BD22AA05
BD9EC02E
BDDF9C39
BD137346
3C8C1EB4
3D567F48
3B293E1F
3E039082
BDBBDFCC
3DB50DAA
BB8856B4
3D9C2402
3DD6425B
BD2C608F
3C629137
BD16BD76
3D5C7CD1
3D8BAB70
3D324127
BE1483D2
BD9EF43C
3D389FAD
BD565929
3DA8AE2A
BD8DBFF3
3D4ED72E
BCFFAA84
3CF34B53
3D9F97EB
BD9B9544
3CE282DF
BD9A0FE9
3D946002
3DECB138
BCDA4B66
BD249490
BD845192
3CF9AA25
BD2FC7BB
BD050884
BDA8DC23
3D20F3BE
BDF08F40
BDD93F43
3AFCBD80
3E12075A
BDA656CF
3D8F63CB
3D0DDBD9
BC929983
3AC31069
3D28BF5E
3D559D92
3D8FE774
BB09AC7D
3D682674
BDC473D1
BDD27F54
3E44037F
3DA7AFAF
BBA00510
BDA2915E
BDC1A0AC
3CFFB9F5
3D6882BF
BD8AFFD2
BD57729E
3E0BBC40
BD6951C4
BC24B647
3A99A8BD
BDD62349
BD1BDF77
3D9F60D6
BCA8B8E0
3CD16F38
BC9C90F8
BC8B8130
3DB1D7AF
3DAA6DAA
BD8D1877
3DDB91D6
BD547D3B
3C3D73CE
3DA8A2DB
3E0E7539
BC8F755F
BD0AACCC
BD68FD29
BDBDD7C0
3C9CC4FA
BDA7297B
BD0048F6
3DA8334C
3C9C52FE
3CB5BA14
3DBCC14E
3DC545CA
BDC0FA2D
BD3F12F8
BC7419B0
3DD41B44
3DE2FE2B
BD977D64
BCC218DD
BD6BB6AB
3D0E53AF
3C08794E
3D21F6AA
3AEA8673
3D310415
3C972E94
BD762D63
3D473B22
BD651C79
BDE4E8B1
BD6A3AD9
BC90D5C4
BDB383E9
3DF92A10
3D38AFE1
3D94DBCA
BDCE6F77
3CAF77EC
BD9860CE
BD3BD761
BD164473
BD9E8E41
BCF6274D
BD0148A4
3D0E4BF3
BE19A23B
BD89A7E7
3C559B5F
3CE4BC73
3D4D83EC
3DE421F4
3C1AB445
BD15C862
BBDC08FF
BC9BB890
BCB74B43
3D9E617E
BD713EAF
BD3890CC
BD297086
3DFA6C88
3E275D09
3DBF07E9
3D4BFB9D
BD40A0E9
BDDD52DB
BC9E685A
3DA8C676
BDC82A89
3DC2E4C0
BCF08F80
BD22F8C5
BD95C7EA
BE075BBB
3C968735
BDAA1ABD
3AC64377
3D263006
3D8934D1
3CCDA10E
BD8EFDBB
BD99D86E
3D897382
3C9B0B3F
BD04A06D
3B8FBA4B
BDE02E61
BD1368EC
3D796379
3DDFE1EE
BC85D061
BD4A2B65
BDAA514D
BDF9AD07
3D80730F
BD136350
3D9CC0EB
3E055BB1
BD82511F
BC8F7A17
3D5160E3
BAEE8385
3D2D8646
3E111270
3DDBC917
3D3205A0
BC6F6938
3DE83B1E
BD802851
3D70BA9C
BD2F19B6
3CFE6225
BD56CF03
3C984FAC
BDAE25BC
3D36899E
3D85010A
BDA1C7DD
BD9E986C
BD62086C
BD6A37B3
3DD05CE4
3C7A59B5
BD8E73A0
BBF54CFF
BE1185B7
3D81CC4B
3D5D37F0
BD84131F
3CCA768D
BD9AF156
BCE8551D
BE01F2DF
BC978696
3DCB5541
BD3CF061
3C80BCF5
3DF62F34
3DB891A6
3DCDCD60
3C925B48
BDB4E79C
3D646412
BDA2D4CE
3D6E8B99
BDA179E9
BD47CF77
BD939520
3CDC3EDC
BCC5FB2C
BDC873F8
3D8CA7DC
3D96F4FA
BD3874D6
3DA06DC5
BDFA3F32
3E20A94A
BD0F3C55
3D248866
BDEA0E30
BCA1C42E
BDE4EB7F
BD6FF0FB
BDF7F2D4
3DE5003E
3D751174
BCE46400
3D97014A
BDEE7C1C
BD9B1041
3D3E442B
BDBA3E0E
BD6324F8
BD3A4292
3D85FFBB
3E09A7BD
3C8AEA33
3DC96E3C
3DA9BC40
3CC4E99D
BDF4280A
BD2759DB
BD234EC6
BC953AF0
3DD9DE19
BC7E54D8
BD0869D3
3C73F0D5
3D5546B6
3D5B7592
3DC39713
BDA32410
BC65C05B
3E04DDEA
BD2F479F
BDA7B7AC
3DC479C8
BC260068
BC902CE4
3D3B68BD
3DBB8279
BCE44D50
3BC99891
BD1F8BA0
BDEA8920
BE143167
3D0EF4B6
BC2A6B19
3C990DA6
3A9E6AC7
3DDB3FD6
3D746032
3DC464A0
BE0C593C
BDDAD661
3DD5AF76
3D720411
3DA72270
BA56DF73
3DE1E2D0
BD59B261
3D9BBE1C
BD87B0A8
BD4E215B
3E0CF17F
3D6411FC
3D50BB55
BD06802E
BC629D34
BE0E6C27
BD2F6FA2
3DBFA40A
BD1EB575
BC9A0263
BC9EF2E1
BDA9233A
3D444623
3D9C9344
BD845ED8
3D21F31A
BD51D16C
BDF75B58
3D74EC2F
3C32E162
3E2E7EFA
BCD62586
BC93618C
BDA8D68A
3DAFD4C1
BD8E7D52
3CFEA553
3DDEC804
BCE6A616
BDD5351E
3C91AE4C
3CC3D5E6
BCDB2A62
BCE2238C
3D5261C5
3DF5B0CA
BD2849C1
BDED71FF
3D224F36
3D4A7068
BBA62D01
3DA44E26
BCBDE951
3DC5DDFC
BC83DCBF
BD400BA4
BC6500E8
3D492CD8
3DF973D7
BD8CCC95
BD2632A1
BDABA31E
BCD715A8
BD61BCCC
BD4B0A34
BC9EFA50
3CD4EDCF
3DFC82F4
3C4D15A5
3D1EF267
BCFE6B60
3D05133E
3DACFAC1
BD9800C0
3D5E1F35
BD3048A2
3D4D88F1
BDB35A84
3DC0EE62
BDABFBF7
BD5EFBF5
3D4783DC
BD0404FD
BD811DE0
BD8F8779
BDD4C924
3D8757A4
BD45100C
3CE38B3C
BCB0FC7E
BD44A54B
3DA9D28E
3DA183D2
3D263442
BDE21E9B
BDD96A3F
3C80922C
BD9D0E1A
3D256A09
BDA0B5A0
BDA32850
BC10D1E2
BD6BBA0F
3D5C8343
BD9F698E
BD5A5CCF
3D83EEAA
3D2CD930
3DEF6C0A
3CCF420D
BDFE9747
BE037FBF
3D3CC61A
BD627684
BDC92189
BDA21028
3C6CAFE6
BE10AC1A
3DA51A1D
3DD767CD
3CF11D94
BC9FFAAE
BD658247
3D294E10
BD9CE3B3
BD664AF6
3D4B40C5
3C8E2E3C
BDA5348C
3D6BBF01
BB7A0E21
3CECABAD
3DCD82F6
3D5E0206
BDA6B019
3E1709E6
3DABE0C3
BD25368A
3DEA053D
BD47785E
3DA38072
3DF4CC6C
3D3E9FEB
3C4F7C0E
BD0F11A2
3C7DF361
3DABB80B
BC1938D1
BC669381
3DD6379E
BD76819F
BE1047B4
BDE665FF
3DCEF2BE
BCFBA956
3E074903
BD5C4007
BD8A7400
3B3BB1D2
3B37D891
BC316358
3C4BA7E7
3E096FE6
BD80CCF3
3D8105B6
3C91D08F
3D376FDF
BDD48D43
3D50133E
3C2202AF
3DB93CC7
BC210D21
BC2F9021
3D840775
3D909062
3CA31334
3D7547B6
3DD4D68C
BD33CD3F
BD366F0E
3C5486ED
3DCF5EBC
BDB87FAE
BC5BFC26
3C360EC0
3DD7BCB8
BD8C915C
3C9DB360
3DDEE734
3DA99CE6
BDB99FD1
BD0685D2
3C95FC5C
3D3B4B9D
BCA47F86
BD8DFD07
3D8078D6
BC4C8888
3C94EDC8
BD6B9BCA
BC5FDFE8
BB176187
BD92F758
BDD82647
BD7B912A
BDD392EC
3D77A276
3D0B2EE2
BDD9743F
3D534778
BCC632EF
BDB37FC9
3DDDCB66
3D741326
3D4B639E
BDB2BEE3
3CEBF5F4
BDF1B4AA
3CE9BE05
BBAED8D2
3C8FBD85
BD54FB04
BD91A218
3D28459D
BDD3F23E
3CE9648D
BD1D751D
BDAF401C
BBC8AF6F
3D29C1EE
3D8E80A6
BC8CBB69
BD402A92
3DF4848E
3E006E06
3C867467
3C88B701
3DD09614
BB2A6100
BCDA8D84
BD973DAA
3D7D44A0
BC9AC9AB
3C8A89AA
3CADE10A
BDBAA33A
BD3264EA
BDC4C97F
3D9660EF
BD0849E0
3D99AED3
BD3BF7FE
3B9D7C91
3D8E444E
BD139B3C
BD90652C
3D4DE28A
3DB51BCA
BD86562F
BD106ACE
BD4BCB73
BDAC358C
3C806F30
3D054356
BC9CCB40
3E013270
3DD98D6D
3E02E25E
3DB0D746
BD5D4896
BDD68D36
BACDF886
3DE14D77
3D3B9885
3E0D3FAE
BD8E311B
BD916444
BCEF8E4A
BE02217A
BE146576
3D8E2B89
3D8C13B6
BDE56D2F
BD9DA506
3D2B04BC
BDC70760
3DCEDA42
3E116BA2
BDA47017
BDCDB1EC
BD2FDBE1
3D709FF3
BDF8B2A2
BA966875
3DA05BA2
3E197FE9
3DB734B3
BC80BC98
BD8E99AE
3DB5455A
BDA6BB5D
3C840E7B
3D9F932C
3E0A6ACE
BD457CC6
3E0251D0
BD4EC58B
BC1AA3F1
3D613A85
BDBA86F4
3C9EEAE2
BDA3A1D7
BD3A52F8
BD8107DA
3BCFDBC1
3CE5B475
3DB0E4E0
BCB22C43
BC8AE203
BDB36423
BDA72C64
3D620955
BDA4F69C
BDAA7B34
3DA0B426
BDA7CEA0
BD8F1F9C
BC7833E6
BD508A58
3DCCA266
BD0D33F5
BBE7EFAD
3D8B9F2F
BCF68D15
3D051F2B
BC9F8867
BD60C6FA
BD7D0CD4
3D01B584
BD19D35A
3B6EF45E
BD2DC920
3D870904
BD386B4E
BD7E77CA
BD26A924
BD545DD1
BCA706CF
3DE3D342
3CE8D35D
3D6932E5
BDD85B33
3C801DE4
BD880D1E
BD4DF6C1
3DB58106
BDA641C6
3B822839
3D98C57C
BC701006
3DC8634B
3BF8AB23
BD5631C7
3CD1235C
3D81DB70
BD6E3F8A
BCFDBC68
BE1515C6
3DD92C43
BCF194CB
BDE4AFF5
39BEC7BB
BBB56CE7
3CCA7C5F
3E16C404
3E074424
3C3407C8
3CC117EB
BDCD56AB
BC25AF68
BC411E7D
BD0B38B9
3C3F57D7
3D7ACDBA
BB901AA0
BBF77B39
3DC60567
BC4B9769
BD2EF741
BD017C68
BD87048F
BD4DCE3A
BDA85D58
BD02AE62
3DBCB297
3BEECF22
3CF66673
BCC3FA60
BDA8842D
3CF79C2A
3D632B6E
3DB9C830
BCFCBD9F
3CF27E42
3DA00C6A
BD021D68
3D3625D3
BE01E8AB
3DA8141F
3DA22EDC
3DBD015D
3D6B0B24
3BA6DC71
BD1E32F4
3D08AA47
BE08AE76
3D96CEE7
BA87B303
BD4C7CB5
3E057F5F
BD7B134F
BD2D0892
3D72DC8A
3D8F9E4A
BD2C5A92
3D47BEEC
3D5D459D
BDB75929
3DA84844
BD1F720A
3CB85264
3D218316
3D5BB68A
BD32BBD6
BA621469
BC95CACF
BDA3A8E5
3D889A6E
BD1EB9FF
3D776642
BD01E640
3E03E0F0
BD65B2FF
BC201381
3C824338
BD0554B4
3C8C16B0
BDE4B07F
BDBE1EA5
BD7A7851
BD1943F1
BD913BA1
3C042DFC
BD56D95B
BD65EE79
BE0E0F69
BCC7ABDC
BE049188
3D870FF8
BB82F221
BC4DBE6D
3D1CDF81
3DD83FA4
3C8D6140
BC499A78
BDDFDA2C
BC006F18
BDAA1FB6
3DA6857A
3D315832
3CE9E932
3D7D1136
3CFB3CE4
BCDF5999
BD1DA749
3BD6446E
3DD06380
3D449DCA
BD72ED28
3D83C7F8
3DC44215
3E0B47E1
3DF2BA67
3DB434F2
BCD7BB76
3CE95A15
BD28B455
BDB34356
BD4F74C8
3D0227E6
3DBBF9C9
BC9AC367
BD7EF22D
3CDA48C5
3CA11C22
BE089537
BDA0D64A
BCBC8B5B
BD989A12
3DBF2370
3DF6DC3A
3DCA9E20
3D9A5BB2
BD072144
3DE73029
BDAB04D2
3DED5D4D
3DF516D0
BCF39184
BD99405E
BD49D6A7
BE00EE27
3D9CE16F
BD9B1456
BD3B2C9D
3D8F89C1
3D262F55
3DBCC61C
BD439397
BDD4C052
3DA4AE6B
3DD3018C
3CA8366D
3A2A1C8F
3DDDC1F6
BB905886
BD2276AF
BD058AB2
3DAF4475
3DFC5ADE
3C88A8C3
3D9514E9
BDB4100B
BD64F8C8
BDB2583D
3D795B16
BD93CF06
3D89D119
BDA63BE3
3DE195F2
3D1F5551
3D69ACBA
BDF72D6C
BE08EA7A
3D0E8DFA
BCC2FFA3
BB8FFCFE
B99A7C3F
BD0C1D26
3CBF2590
3DAC0444
3D255EA5
BCDA0A40
3E10BAFE
BC9C0FA3
3DAE8ABA
3D21DDBD
BB9ABB96
BD90F386
3D9306F0
39F4DA00
BCB1BD46
3E013059
3DDE48A4
BDC10EC5
BDA3C448
3D19E7CB
3B1316C7
BC680378
BD3D0B97
3CAD9B29
BD244902
BCA206F9
BD160D14
3D4D2392
BDBE2C5A
BDC5E30B
BBE44FED
3BE69ABF
3D66AC88
BDA53DC1
BCDD4B17
3CD2FF8C
3D9CFBC6
BDC4C5A3
BC047AB9
3DF35D6F
BD2DA092
BD0AD7A9
BD8FF0DE
BC7F842C
BDBC63C4
BDA9701F
3D9FC048
3DA98375
BC82E558
3D60D7CD
BDA3A902
BD75B163
BD7485C8
BCF0ECAC
B92FD5F7
BD891739
3E0A6183
BD7E05C5
BC86822B
3DC22E5E
BD025767
BD80CA98
3D12C8D2
3E01ACE5
3B2089C1
BB998900
3B6746DB
BD98ACD8
BE176DB3
BD441860
3B816AE2
BD2877C9
BD449A42
BC696B82
3DF77BB6
BDC158D1
BDF7CD80
3DA7270B
3DA7CA68
BD5D4489
BCD81992
BCF635E1
BDCCBA56
BDD18C12
BDE67528
3D08123A
BDA91098
BD3FF761
BD8917FD
BC96E4F1
3AFBEEFC
3BB8DE2C
3D24164A
BD8DEAD2
BDC1B891
BDB41B08
BD157F56
BDFDC4F3
BE0FD12A
3D8F8911
3ACB07D3
3DBC3405
BDB0AEE8
BBFFF80F
BE09B76D
BDE5DC2A
3C863ACB
3B36573E
BD398048
BD9ADA94
BCF54339
BDF627C7
BE01B885
3DA2D352
3D083CAA
3D176E67
3E0D799F
3DDF3719
3D7EE124
3E0790D9
BD7F8364
3D957978
3D77EAAE
3D44BF07
3D8F1CBA
BC6534B8
3B5B4E12
3CD582D3
BD080FAA
BDA65965
3C2FE68C
BDF3D317
BC3BF388
BD3FC012
3E09CACE
3DEDA347
3D4C9F88
BD62949D
3CFCA695
BD734C5F
3D9C775A
3D38185E
3B4811F2
3BA1A932
BDB6F19D
3BA7C5A1
3D8146E2
BD3A4F8A
3C2E3FB0
BD9AF420
3D8FC0D0
BA11FEE8
3DC64482
3D3C81E1
3D0EA330
3C4F8682
BC2AA568
BDB0E348
3DAF7AF6
BD710879
3CC4392C
3CD6BDAB
3D911C08
BDCF62FA
3D2ECD4C
3D83EB8F
3C9BA52A
3D4671F5
BD918749
BD75B0BB
3DBF509E
BC9513DB
BE08D080
BD3B1798
3DEAA17E
3DAE28F1
3D3BF78C
BDAF3F57
BD139DD8
BD74C6FF
BDDC4866
3DC92085
BD1B5604
BB108D7D
BE100684
3D0BAF72
BC63E35F
3E56DA98
3E083817
BA30A000
3E0F390F
3D3E4C35
BD435434
BC2F9199
3D25EBE2
BCAD3BBC
BC8C9591
3CB629BC
BD9B04D6
3DED867F
3D60AB68
3D2340BD
3DE1A7B4
BC90F38F
BDD6A939
BD8455BD
3DFC52B6
3DB5D193
BD26023E
3CAF7252
BD39C232
3D311C47
BBD2EFDF
3DC746F1
3BBEF6A3
3CE577D3
3DDA2720
BD9E5C64
BCD0A052
3D47A4DB
BD9442AC
3D9E8141
3D618DE9
BD8ACCBA
BD2AFD6C
3CE8B7E3
3DCFAA8E
BD2A1EE3
3D80EA02
BBEF8CB0
BD089A80
3DE64579
3D01EB26
3DC091E2
BD67C874
3D78BC27
3CE2AD1C
BCEFA7B8
3CC40BFA
BC0976A7
3D301C5C
BC0FCD29
3DFA2A82
BDDF0369
BD598F3C
BD8123BB
BD156938
BD66D853
3D5946E4
BD4D0AEF
3D06A226
3D2398DF
BCBB9097
BDC6A1EF
3DBD0C96
3D098E3B
BDA99FAF
BD8D2517
3D7C9D26
BD6E30BF
3B1E6303
BDBCE10A
3DDB8EA4
3D9467B1
3D929B5E
3B3C9FC0
3D76CDCE
BB27797E
BD75B230
3D75FF2A
3D9FB70C
BD6EA909
BB7C0563
3DF64D9A
BD385E0E
BD85EAEC
BE07E90D
3D822E2F
3DCDCF46
3DF125C1
3D7F7F78
3D13EC31
BD8867F4
3DC7A2BA
3B1A3987
BDBA0930
BD6CCB3E
3D08F3D7
BDE90705
BD9B904C
3D34B2CB
3CC51B16
3DE43787
BCFF4ECC
3CBB05EA
3D278BF7
3D033CF4
BD84BEFB
3B961336
BB5AAA0D
3DD4B0E6
BB0A7960
BD60531C
3CAFFC12
BDF3B96E
BDF3B185
BDB9AB0C
BD4670ED
3CB571CB
3CEE04FC
3DDBC28A
3D4E5A91
BDA05C5D
3C37EF4D
BCD491FE
3D96DD56
BE066C16
3D353736
BC53EA31
BDA5248E
3DC541AC
BD1B7097
3DD5CE18
3B54384E
3C230590
3C3D3C88
BD99871A
BBC79E11
3DA5A144
BD8B6BA8
BCECC1DD
3D8BF51E
BDD7426F
BDB39B62
3CCBDC1A
3CFD5703
3E01FFDA
3DC6A992
3C690BED
BDDE3FAB
3CCA26FC
BD04EAFA
3DA70812
3DCADEC9
3C6D1336
BD9D670B
3DB26B60
3DAA4A10
BE05CF28
BCE5D270
BD50BD95
3E088E09
3DD003EE
BC42DE9A
3CFAD81D
BD9168C0
BDA8C8B0
BC278F18
BCD6A7F3
BDA32A2A
3D9E6402
3D737075
BC8378C7
BD84DB4B
BDC4892E
BDE18A68
3B5B2C72
3D6799E1
3CE59E31
3C311F8D
BD9CB98E
B9FC2AF3
BE14CB6B
3D2095BE
BB09B348
BD8EF432
BC63D72E
BDC9633D
3CBF16B8
3D9E975C
3E18689D
BBB0BA70
BCDDF50A
3E079546
BCCBBB0E
3DC8EDFC
BD6AF217
BDCDA333
BE03122D
BCD225D0
3DDAE610
3D9F9D75
BDAA322A
3CD736B3
BDD48720
BD0BA3C0
BC02694B
3DBE4C7B
BD49E98D
BC6D455B
3DC64F36
3D0955D1
BD0D937A
3D8F3B30
BCB906BF
3DDE5F8B
3DA11FC8
3CA0256A
3DE4A846
BC11DA11
3BD4A25A
BD043D29
3D24F182
BDB60594
3D90EC60
BC1CC38B
BD18B76A
3DE4CE50
3C682A85
BD744B65
BD98A593
3D327C12
BD6304F8
3DB6BD53
BDBA397A
BD50C607
3D37E612
3D880010
BDCFDA67
BD585204
BC9C3554
BD7BC9EE
BD260792
BDC69A8D
BD552193
3D9ED05C
3C86EDB3
BDA26BA0
3D690981
BD530A9D
3DC0FC94
BDA6C46E
BDADD21E
BDC409A5
3CC5E27C
3D2A1582
3DC2794A
BD902338
3DDB43A2
BD345141
BDD1DF1E
BD7F7211
BE09AE20
3D881C5F
3D180E56
3DB86E6B
3D87C465
3D75D59D
BD86B89A
3DB52DC6
BE148BCF
3D361A66
3E0EC435
BDABCA45
3D1CED20
3D0F66AD
BD6DFD84
3C9F413A
BDD03A89
BD98A0FE
BD980620
3CF8A7F7
3C08D447
BDB19187
BB9D04E6
BD658E6D
3BB44128
BDC8A86F
3DDB1058
BD58A11F
BC6C1040
3D6B9DCD
3DD7E702
BD46C4EB
BDBA587C
BDCD8D87
BCA12A38
3CA90EF1
BCEB4AF4
3D4D2EAD
BDD313B0
BC64BC6C
BC9FB597
3D33A2DA
3B87C215
3BF26DDC
BC185B2C
3D7FF649
BCCFEB1C
3AA834BD
3D64A116
BD585173
3D657C99
BD30F7A5
BC25DF21
BD419EF5
BD912FAC
BD0813F8
3CA9E8E4
3D215532
BBB07F1B
3D4B0D51
3DA0689A
3DA14B5E
BC2727F2
BC41347F
BC710126
3D55D1F6
BCE13BCB
BDF8AD14
BACCFC0F
BE0AC20A
3CDB54CE
3DDD280C
3E20346B
3DB0F97B
3DBDBE50
BDA690F3
3B4F0BE1
BD83E797
BD68F618
3D0EB983
BD410542
3D6D37BA
3E0B15B9
3C85EF26
3DA2BFB8
BCFF2EEC
BA25DE07
3D86FDB4
BDAABB19
BCAE74C4
BCF551FC
BD0E4953
BD864436
3C6C9E4D
3C2058C5
BCBE1C44
BD1D132C
3CFBD64C
3A6671FB
3CF6B186
BD3731DA
BCE88429
3C61DD95
3D8666C1
3DA19B9C
3DD8B207
3D949AD6
3D2750B1
BD364D2A
BD4E90EF
3D47452E
BD161AF1
3D00771E
BCE0490C
BD3C2A1B
3CAF9549
3D118087
3C63DF5D
3DDAD156
3DA2808C
3B8DDC0B
3DA70925

