BEDF19F8
BDD614CC
3F202798
3E0AAE06
BD8280B0
BDCA30E2
BEB77018
3DF85A87
3F0E83B2
BF1CD919
3F24B049
BF4BEF64
BE598C56
BDAD694A
3EC18507
BE1F5F9A
BFA3756E
3EDE58D6
3F23ADB2
3EB7E782
3ED08385
3E7BE316
3ED45F70
3F3CE45C
3EA085CD
3F49F44E
3F1CC307
3EC976E2
BF4F72CF
BECCB048
BF261356
BECA9593
BF377F15
BF5C7348
3E7687FB
3F16B466
BF241FB8
3F2492F3
BF336164
3E8E6339
3DAF46C0
BF47063E
3E1D1337
3E4BEB8C
BFB3CB00
BF1B6F82
BF0276DB
3E86CC4F
BF296EA7
3F5D2FA9
BF3E85F1
BCF6A69C
BE2EA2A8
3E87EC4E
3F170222
BE4B25E5
3E4C9A13
3F625B08
3E3D6E2C
BC89C153
BEA026A4
3F00ABE3
3F5CF6CB
BEEEBD7E
37844135
BEE9065D
3F708AE2
3C9C862E
3F366E5E
3F021E9D
3EB027EC
BEB1CBF3
BF0F0077
BEB4F637
3F8FF133
BE0503B8
3FB8332A
BF424BA1
3E8B6E97
3EA626D3
3E6AF0D9
3EB38FD6
BF052E87
BCFA1537
3F11F61E
3F457B81
BEADE1A2
BDA7D674
BDA765FE
3E792C0E
BD2270B0
BD846E63
3D6AAF37
BFA4F7A4
3E9525C5
3EFE44D3
BE534FCA
BF822D4A
3F2EF732
BD0AE396
3CDA8ADE
3F24C648
3F18E787
3E98D21C
3F2FAEEE
BF3F81AD
3E0A5906
BD157D43
BF8DA9F7
BD49C3E9
3E8FB489
3E259038
BF118C0C
BE8C21F4
3F55ADCA
BD61022C
3EF71011
3E9666AC
3E48DDC6
3AE05F0C
3EF7CE2E
BD94FB7F
3F39CC19
3D7EEC0C
3DB9A468
BF076BD4
3D3D67F7
BE82A83D
3E4B5743
3F8EDB0D
3F4069A0
3EDDEC84
BEE0B83B
3FA31810
BEAD21B1
3E983AF9
3DF40F2C
3EC75D69
3EF3DC97
3D15391E
BE83A10E
BEC4F0D6
3DB5D1A8
BDA0DA07
BF89F410
3EB6E3AD
BEA7747F
BDA6C29C
BF060E4E
3F093F2F
3E647EC1
BEE3B045
3F219BBD
3F06956E
3FE9ADAC
3E0A359C
BD9C89C3
BF9785E2
3D0BA14C
BDAEC9D3
BEC18E52
3EBD8E72
BEEF5DAE
3DDE66EE
BECF67E1
3F726C22
3F19F597
BE9B1F4F
3F36DB64
3EC9D742
3E5073B0
BDF938C3
BEBB4ABA
BF428911
3AE738E8
3DF79525
BBBFB759
BEA8F76F
3D35D3D1
3EBF7661
BF4EBCAC
3F95ED77
3F135941
3EA55ABD
3EBC59F8
3F332BF0
3F293A75
3E8DC99D
BE9C611C
BF4C026B
3E3BF3B4
3EC8A6FF
BE1AAC40
3EFA17DF
BDDE81A5
BDB4B685
3EA40D6B
3F2FAC62
BF239383
3E7FC678
3E885E55
3EE0C9C4
3E773041
3D0DFC1C
3D8499D7
BF15E32B
3EE0BB0C
3D214C92
BEA3564D
BE402EFD
BE061FDD
BD8244DC
3F2DA324
3F3E602E
BEB1F0AD
3B886B87
3F225091
BE3CE9F4
BD9E037A
BEF59F14
3E7456AD
3E721C7B
BE9BFAE4
BE11E392
3F43AF52
3E57459D
3ED6DF9D
3E101191
BB2D6183
BEEA195D
3F13FF2F
3E1E0497
3E6A4DF6
3E8D3A02
3F58BAD6
3E24A768
BED90F91
BDA3514B
3E8A38BD
BE44C883
3EB0CBFD
3F1A05FD
3F58B026
3E5C7101
BEF67360
3DEC7722
BEB7A83D
3E999D81
3F184830
BAB7F283
BD5E8718
BD0722AD
BEA76ABE
BE4A3580
BED4902E
BF1DBF18
3EC5CD88
3F0D0E88
3F66FE40
3EE71B36
3E9D4DB9
3DD767E8
BEFE56C7
BD5FE05A
3F5A3520
3D2A5EC0
3D1F7DC3
BE5FAA31
BE598B11
3DDBA806
BF147F08
BF4693B8
3F03E05C
3DE408D4
3D834B7F
BD6B64BE
BEB2389E
BD58A8D4
BE5B551B
BE8DFBD2
3F148758
BCFBD770
3F226CBB
BBCCA618
3D5CFF11
BE1D3C09
BE16BB18
BE7C7765
3F061897
BDF97D54
BD0AD1F4
BD282D87
BD1A1E4A
3E39A723
BEB3CBC3
BDFB7D9B
BDFC0D67
3DA79C97
3E507089
3E363EDF
3E0B17B8
BE248820
3DDF4371
3B1F0711
BBF1AF26
BE1743A1
BE4E5401
3EA58751
BE123A1A
3E22D1F3
BE990803
3F15CC8A
3D4AAAF1
3A88EA1C
3D89BCF3
3DA8C2F0
BC5B6297
BE1608F0
BD88DA0A
3D93C290
BEA02310
BE0B7144
BEA350EC
3E9F6F92
3E445848
BE281ADD
BE83BE5F
3EF22E20
3E0F9803
BE085585
BDBF5B20
BD9ECAA9
3D3ADB70
3D6E483C
BE2C8384
3E1F3AD1
3C91704F
3D8BA239
3EB4355B
3E184D71
3F247196
BE58D06E
BEBEAB80
3EAAC768
3C845A09
3CBE1952
3E65AC06
3CB7A6FF
3DE4D5F0
3DC03CD1
3DC6B540
3EBC0403
3DF46BD7
BE9416EB
BF17444E
BD7C9E30
3E630E43
3D9C5569
BF0C2618
BD79BD1A
BCB506B9
BD3F4FEF
BE842047
BECCAF2E
3F308A67
BE0F0A4C
BD45483C
BE1A508D
3E8568D1
3DE12504
3F2F40FD
BD7EB84B
BC0C362B
3E9B95FE
BF01C465
3E2D2AAC
BE1C15D7
BD7C5934
3E928A07
3E8CEB13
BA8BD605
BE0890F0
BEBE26CD
3E267E41
3CB06C42
BE8B299E
BF1BC275
3DB12B55
BE601673
BC1D4008
BF005C09
BD146315
3E225A9F
3DC89956
BC15142B
BE40BC88
BED4B632
3EB493A4
3B9239AF
BDFD4FBB
3D9E6954
BDDD0940
BEB11467
BDDA1A0B
3ED7310A
BE1EDC15
BF117838
3E212457
BDE63F97
BE030351
BCDF6B04
3DF60FA2
BE25F73F
3C0C1F09
BEA2B3E2
3D913553
3EBEA9D1
3E990001
3EAE36C7
BEAE6C56
BEC419A4
3E883B56
BEFFC7F6
BE9C4EB1
BE1B42BC
BE87F1ED
BECFD021
3DE1DB58
BE79B7BB
BCDB91C6
BE908757
3E3812B8
3EA661DB
BE2F9EFA
3EA181A4
3D8A6130
3EC94761
3D95F912
BF306C5C
BE89C665
BDA94314
3F322DDB
3F405803
BE0FB02D
3F00ACAD
BE07D508
3F003463
3DB379DE
BCB3357F
BE8EBD4B
BF09854B
3EBC3619
38664954
BDAFB0DB
BF2C2BD4
3E559C5C
3D005421
BDDD1BBB
BDD36A61
3BBE2E3F
3AF1302A
3EBC8AE9
BE4283CA
3DD7D815
3E3199CD
BE30FA7E
BE07D655
BD3E540F
3ECAC71A
3E274684
BE9201C6
3DD68C90
3DEADB22
BD6B58D7
BC1DA930
BE30C2A8
BEB5416C
3ECD90D7
BEA8948A
BDFE2B12
BE067F67
BEB07329
BEC289A1
3E493787
BD32DA29
3D6E4E65
BF02CC76
3DF8BFCA
3E410EBD
BD40C984
BC8C12F9
BE721500
BEA9B82F
3EBC6FB6
BD401F33
BE876804
3D8ACEAE
BE89397D
BEFBA4C1
3D3CBCBC
BE5C2F37
3D96FC58
BF33A5C1
BDE34E56
BB08545A
3E8AF922
BE687241
BE28FBFB
3E3EFA6E
3E86F311
BE8D60FD
3DC3F52C
3E3FD4FA
BD23C257
3EA20188
BD4D091A
3DFF9956
BB3E4230
BEE63616
BEAD83C6
BA0E10D6
BE8C6CBA
BEAC1573
3E2DA52A
BEA50DB1
BD253D55
BE82AC79
BCAFB13D
3EC99482
BDA8C230
BEEE0338
BD71ED0B
BE8C4B9A
3EEA7678
BF2F2DED
BEDDD643
BD22F466
BDBF048B
3F0AB090
3D448C90
BE70A2D0
BE2F19D0
BD82E828
3E8E58EE
3CA46FED
3E1AEF7D
BDB46B19
3DF1EA4A
3EFAE0EF
BE78C297
BED9BD57
3E9B96E0
3E09CF90
BE813E6D
3E67EF65
3D94E4BE
BE6A41C6
3E1E8095
BE05777A
3E534ED9
3E363D64
3D0766AA
3E9C2C93
BDF7CCEB
BED6745E
BBBA4F90
BEB7AB03
3D8593B3
3D248D27
BD478A66
BD9BFB95
BDF47C4B
BEBA8D04
3E778FCA
BE33759A
BE62B2EB
3C0C785B
3F59637C
BF1D2C46
3E7FE7CF
BEA265B7
3B56B961
BF24603E
3F0A4A32
3DAD301B
3BB46860
3E51CC9E
BC05197F
BF1268AE
BD2D2901
BDA86450
3E3A4964
3DF4F7BD
3D27C288
BE2EFC23
BDBCCE7F
BE9825D1
3D89ED9B
BF01B82D
BDDB13C9
3E2B9DD0
3E89DB3D
3E2557A4
3DBC8389
BE396D52
BD1CFAA7
BD881050
BD50FB76
3E72761E
3C4E6C33
3E5BBEE8
BDFB18EB
3E3B4274
BD87A2D7
BEE54373
BF012368
3DD9200A
3D0E1FF0
BE3F81CA
3DA93509
BEFCE132
3C9888A2
BE8AB2C4
BE04EE1A
3EC34193
3E90B566
BEB05CE6
BDB02144
3C9D52FF
BDF3B554
BEA3B1C8
3E272D52
3DFD5D6D
3CA3E2DB
3D3AC413
BD427432
BEEC0E45
3E35EFB2
BD9010B8
BDADADF9
BD1B61AF
3E58FBEA
BF0322F2
BD623E84
3DBE0B35
BE10B522
BEC8ECD4
3D7C7B37
BCB6E1D2
3C4167E7
BEB8E48B
BD610BC3
BED60BC0
3DA40D00
BE223AAD
BE14945D
BC0F4841
BDBD455B
BF1899DC
3DF1E5CC
BE9BA945
BC82FED3
BEF24286
BE6A15AE
BA8397BB
3C85634B
BD9CC246
3DECD371
BEB0295A
BDAD39D2
BE1E00A2
BDEE386E
BDC99618
BDAD8653
BF2A40C6
BD284BEA
BEC4F141
3D7F06D8
BEA9677C
BE82063E
3DE375DC
3D8C5EB2
BE90857F
BD7F7322
BEFEF8F4
3E38740F
BE63CEA5
BE8EAD18
3E129AAE
BD5A34DA
3C0FF1AF
BDDE09F4
3EA6E4D0
3C791288
BEC072F0
BEC4D36D
3DF11C88
3D3D43A2
3D009632
BC8B8E4D
BE229961
BD7F90E2
BDBC4699
BE361C02
3D0920A2
3D5F3DD3
3E099956
BD78D28C
3EA31DF5
3BBE89CE
BEE321E2
BED21DC7
3DF7FC4A
3D9FBE85
BDA412C6
3C3B6FAB
3C0D793F
3DBE3AF1
BDF46B3C
BD0DCD6A
BD237B70
BDC7B96A
BF121CE4
3D60FFAF
BD95FCB9
3DBC1FAB
BF014C55
BEAFF2F2
3E17F571
3D8C7663
3D4C4BA7
BE32510B
BD99DBE5
3C5DB43C
3ACBEE1C
BE029BCE
BD3F5960
BC5F6E64
BF0070C9
BD2DFAB5
BE17616A
BB5E42BE
BEFF773A
BECB792B
3D535FB8
3DA3EB90
BE870B56
BE45B60D
BEA3349B
3CB0DFF5
BE40B409
3BDB8974
3DD1CA43
3C9B1DBF
BF0E65FF
3A170B45
BD832D49
3D930645
BED0DEB2
BEB644F7
BCF86A74
BD173D34
3F4D52A2
3E9E2D50
BE86A116
BD6A19BF
3F2EE44E
3EFAA2C2
BD9C031C
BD03757F
3F501E39
BE40B990
BE6FD710
3D9014E3
3F505110
3F45EBA3
3DC7F2AF
BD2310D8
3EB32317
BE0313AD
3E683F38
BE064228
BE99E467
BE7B164A
3D19E8F2
BD172AB8
BE420DD8
BDB617AF
BE39F39A
3DC70D21
BD5C0E68
BCD673CD
3E09B155
3DCED53E
3DF0608A
3D4AEE07
3D7C61D1
BD4B62C9
3C34EEDE
3D17B418
BDA97CB8
BDA31C17
BE76A453
3D988AE7
BD7F7582
3E197F29
BE32C854
BDAB21F3
3DD1AA8B
3D5C6E91
BE204EB0
3D59C892
BE88D281
3E13138F
BD5CD22F
BB1FFE49
BCB5A446
BDCE668A
BE10FC19
BE24F41C
BE4D6130
3E0A2191
BE1A728C
BE466304
3C5354F7
BD89ED7F
BD805E0D
BDA63242
BE9446C8
3DBFA8FA
BE1D1E48
BE580E6F
3D52ECDC
3D7CCBD1
BDF447D6
BDF654A8
BE5F735C
3C8A4907
BD875E49
BD5F895D
3D8BA761
3D9B1368
BE0F0FA0
BD890A8D
BE23DD39
3D232B84
BCC04419
BDD417C5
BBD10626
3D46FDE2
BE70F6BF
BDBF3AAD
BE28E500
3C27967E
BBF6C4A7
BE3BCD4D
3BBE2479
3D19F7F0
3E73D93E
BE2C818E
3E6D55A6
3C6222F8
BD9C3150
3DAAB4A5
BDB7C13E
BD625336
BDB6C63F
BD6AFC3D
BE959D60
3D86FF99
BCEF3AB7
BE54CBD5
3CF58931
3D98E5DD
BD9809D0
BE2924C1
BDDC24ED
3D940D79
BD0DBB88
BE37773E
3B4042ED
BC932DD7
BDA5CB73
3E0EB85A
BD3810C7
3DD9397D
BCCBAC21
3D98D2F0
BA0ADDC5
BD669434
3E3FD3F3
BDC3FC47
3E7E765A
BE333258
BD06ACCE
BCD9820F
3C951D6D
BDC5CF92
BD6B513F
BD488A18
BE91B116
BBF57EB6
BE177A10
BDEF7225
3C6B3182
3DC4B76D
BB9810DB
BDC8FF46
BE8B2500
3E05F278
BDF71149
BDE0F7F1
3C3EC396
BDE78954
BE7A94FE
BDA33503
BE5AC2E6
3D33F2BC
BCABA5FB
BE014367
3DE9442B
BADAA4A2
BD15AEBD
BD64F9EB
BEA511E8
3E1B76CC
3C39974F
BDC156C1
BC7B0E8E
BE01A948
BD973112
BC0D180E
BE8EFC29
3D9DBAA7
BE29CCA2
BE5C0AB6
3E048517
3D56BA9D
3C8D3C22
3B215573
BE94D0C9
BC2DA3D4
BE27EAD2
BD336663
BDD5CB9C
3D25FE33
BDCE2048
BE247D19
BE4F3A30
3DDC45CA
BE461792
3D909BCE
3D3720D4
3E0EF4DC
3EDD630B
BD707499
3E2A4E55
BD0F21B1
3C879A94
BE41036C
3D6ADB54
BDCD9276
BDF225C4
BD65387F
BE31D51E
3C9A5EB1
BE0F186B
BE54492F
3C7D4015
BD43FDA0
BE0B0B56
BDFDA66A
BE9649AA
3DD87FF6
3CBA1A41
BDFBFCCB
BD608036
3D913726
BE2BACFA
3C24DF88
BE68E8AA
3D20BA96
BDC8FEB9
BE629A19
3CE65398
BCD2E7FF
BA2BF2A3
BAB4383F
3DAFED04
BD561070
BD499A4A
3E7C40A5
BB3E2267
BD871B55
BDC7BAC6
BDE54FD3
BE272E9B
3DDCC49B
BD734844
BD361611
BD55B308
3DF78028
BC73056D
BE02AF68
BDE8CB56
3DF1C51A
3DA7E474
BD09FA27
BDEF5E8A
BD82BFC2
BE27AE55
BD769973
BE857B57
3DFF47E1
BDEE7B26
BDD752E6
3D8B1A3B
3DD364C3
BD5D36D8
BC00E9D9
BE8E3625
3E1C6D35
3D45EA57
BE45DEC6
BD67308F
BD8E00C5
BE84529E
BE31FB11
BE6179D2
3C866239
BD3C80FF
3C3A1776
BDE14FD6
BB96D4F5
BE11B2F8
BD8C7FA6
BE2B2F46
3E074A34
3DA44650
BCE2E8B9
BB52566A
3DACF1C6
BE08C103
BE2F73BD
BDBBC9AB
3BEA337D
BDCCAE6C
3BDE80D4
BD10CE64
3DE70CC3
BE068ADD
BE103F16
BE7C0870
3E281EFF
3D1E31EC
BD247BA1
3DAF1E8E
BB7E1B87
BE5F26D2
3CA4B38A
BE5FF82A
3DF9C426
3CC90D3A
3BFAF6CF
BD882BC5
3CBBB465
BDCF6948
BDEDF42B
BE927F92
3E21167B
BDE4366C
BCF56967
BDCFC689
BDABF60D
3ED20A85
BBF52B69
3E4C3492
BE2B2DEF
BDFE8D98
3E2D6537
BDB0FEA7
BD24747F
3EB30381
3D2EB8A4
3EBE4F13
BD1CF82D
BD27E589
3DE8991D
3C0D96B2
BDA22D6F
3E5E9B6E
BD773103
3E84F064
BDDFAE26
BD96106C
BD898381
BD8981B7
BD03812A
B7E52D91
3BBC77FB
BE798B93
BC053333
3D7F0F35
BDD7E025
3C169AEA
BD6117D0
3E46A4E9
BE4FAE6C
3EA5DE68
BC6737A2
3D75592E
BD30F726
3D9B07E1
3D7B4879
BDE44A5E
BC921F55
BE017B88
3DC322D7
3C350A8B
BE474342
3CC767A7
3DA731F6
BE812885
BE08E2BF
BE665E1D
3C572ACC
BD53D0BA
BDA9840C
3D7720A4
3CC6BA2B
BDFBB1D8
BE10EFB7
BE275B8D
3D935414
BD37630F
BD4E84AB
BDD2FE0E
3CE2CF2F
BE06AF8B
BC3DCEF1
BEA04F51
3E07B363
BE046805
3C816DA3
BD868624
BD895346
BD01930A
BBB3C903
BDBE8700
3B186E78
BCF24F8B
BE00D3A7
3DDFA9E0
BD57FDFC
BE1AABB6
BD892B59
BE4172A1
3CEB2179
3D4552D9
BE0ED594
3CE4CE53
BD162CC6
BB06351F
BE2871AC
BE286750
BC3DD4A0
BDEACF32
3D9F54B3
3DC808CC
3BD2B417
3E3CE610
3E0F2546
3E06B53A
3D64CDD6
BDC2F1A5
3D76CE18
BD95C135
3D0EDCA2
3DD1E989
3CAA8344
3CBA837B
BDC3E3A8
BD769D5F
BCA747DB
BD36F696
3C9BCA55
BD91BBBD
3DA6081E
3E10B243
BDAE7070
3D9FAC0C
BC117B51
BB54AFFA
3D9CC395
3C4F6C2A
BDFC03F9
BB11AB20
3CC8209C
BDC99BAA
BE294A48
3CCBD59C
BDE5EB73
BDB499E9
3CD47266
BDE7D653
BBB45F30
3CB84D01
BD7DB4DC
3C132F0E
BDD1C23C
3D9DC9ED
BC4715DD
3D078A16
BD9A4EC2
BDA53EBC
BCDE05EE
BD99981E
3CD30AAD
BD863551
BDA1365E
BC7D0622
3DC79039
BDDD01FF
BE09A5DA
BD381E54
3C958D1B
3DB9A03D
BD8DB90B
BD895C0B
3CA2A594
3D515504
3D2A1EED
BDC64C51
BD8BB793
BD8CC191
BE03A951
3D1B6348
BD7EC507
3CAE3B12
BE14C030
3D42CC54
3D9CBA05
3D88FD4F
BDA991A1
3D58E3AE
3BFB99B0
BC9A0C5A
3D7B8B85
BCD0E8C3
3DCC54AF
BD6FA531
BD6A7A88
3D64BC7E
3DDA4165
3D0343E5
BDB05911
BD729EC1
3DC0BA8F
3DB91DEA
3E2C8962
3DEBF4F1
3D8A6A27
3DD9BE9F
3CC953BB
3DBA8A1E
BD999EB6
BCDD60DA
BD8D374F
BD886456
BD2550FA
BD9353F4
BBFDA552
3D153AF9
BCC2077C
BDA87BAC
BD836429
BDE2F392
3D7543FA
3DDFB08B
BD00CB7E
3DA42844
BD30B2E0
BDF865CC
3DA5EEC7
3C336410
3D82C5F9
BD9AD25B
BDEAFBE2
BDCF89E0
BD32AB6E
3DA50AFB
3CEEA985
BB23AE8F
3C3DD188
3D9498B3
3D6BF620
BD81DE02
BC6FC0B8
3C2B161D
3CF270D0
3E566792
3D1317A2
BDCF0441
BBB3903B
3DE29570
BD919808
BD5D5974
BD529483
3AAD3300
BD9B9F94
BDE23D29
BD39F3AB
3C9AD236
3D21F686
3DB154F9
3D042227
3D3B7630
3DAF9B49
BC5FA840
BD5C8B6D
3DBE3B8A
3DB51339
BD995159
BDD17E98
BDBA06BE
3DDCA1AB
BC9482EC
3A44EFEE
BD9C2F29
BDAB1B5A
BD8C8623
3D5857D9
3DCAA943
3D3D8602
3D293A86
3D4B2D8F
3CC73DE4
3CBF6634
BD301C0E
3C95ED5F
BDE9BDF8
BDA3A66E
BDCA11D0
BE0A6DFA
3C684A04
3DA83495
BC710A08
3DD7A841
3CC03703
3C9998A4
BDD0B0B9
3D78D4B1
BDBF41F5
BB5D7880
3D8B2D7B
BD4359F8
BE13E321
3DC56655
BD82A68D
BD1467B0
BCAA922C
3DD5CE4B
3D91DF0F
BDC75BE9
BE0C4A6D
BD68160A
BD2FED4E
3D8EB204
BD5EE410
3C3893A8
3E1A87BE
3D251738
3DBD5AAB
BCD1B208
BDC12CFA
3B0D52C5
3D9322ED
3C4CA608
3D2EE6EE
BE00E1A7
BE184B48
BDBCC534
3DA04527
BE13D9D6
BDC05DBA
BD87B367
BD8D4B29
3D9C7927
BE0A7A73
BD03B178
3D223986
3D99C372
3D239C5D
BCD73640
3DF5F424
3CB31CD9
3E2A15EB
3C1862D8
3D411222
BD05D711
BD83E797
BD979342
3DAE32A7
3DECEB85
3D9E6999
BDDA386B
BD995640
3DA04947
BDE7825E
3DD3C25F
BD92CA30
BDDF8FCC
BB298CCF
3DCE576F
BDDE4ED3
BC84D054
3D85952C
BD617DE3
3DF4018D
3C7E2D81
3CE1E5AE
3DB19361
BDA4BE95
BC798E69
3DC2E442
3BEF1D60
BD2AE796
3D34F028
BDC7E8DC
3D400EE2
3D7EB46E
BDD55BAB
3C445972
3DC96EE5
3D7F61E3
BDA1D199
3C09A000
BDE65FA6
BDC95DB8
BCD6319A
3D8673C2
BC63EB08
BC1EA8E3
3C0B2679
BD037B3D
BDC4015E
3DB7AC6D
BD41676B
3DA3CECA
BB2BD580
BDDC6F30
BDD37FAC
BE0EB27F
3D519992
3C5F8BE8
BDE14ECB
BB1020A6
BD7B3267
3D4655EE
3D627453
BE097100
3D98E5A7
BBC92A70
3D9D68A8
3DD27B30
3DE42D69
3D4AB5BA
BE0796D3
BD139CBC
BD8BBEBA
3DCDB86B
3D3885F1
BDDD9D4D
BD5A6A81
3DBFED05
3D622E94
3D94ECA9
3D14E4CA
BCC697F8
BD96C198
BD40DA95
3D90B1BD
3E5113DE
3D1CDE55
3E4A2750
3C1369B0
BDE53D18
3C6145C9
3D933CFA
BDC0D891
3C256A4B
BD5F556A
3DA8B032
BDE72ADA
BDD59395
3E0CE400
3C88345C
3DC4057F
3CAEAC18
3DAD1DCF
3D8A6D57
BDE52DA0
BCD539CC
3D0B969D
3C8F83AE
3D0EFE1A
3C7F0372
BDD73ED0
3D8F2659
BC246A98
3C2B8788
BDB72B79
BBAE3DE4
BD603D6F
3D4D46BB
BDAAAFD8
3D5A74E0
BD1A3328
3CA20BAC
BC53E61B
3D1D16F8
BD5E6F48
BDC6BDC5
3D83BC4B
BD35094E
3BC3FA30
BDDF6BF9
BCA90D2F
BDB4C04B
BCCDD010
BD274BFF
BDEB9E80
3D084024
BDB6E5C4
3DC68109
BD282A59
3DD7A7F0
3D1E8FF6
BD1CAA69
BE04D25F
3D82ED01
3B55F020
3D22C542
BE0BCED0
BD952AE3
3DA6167F
3DA3DB79
BD75D55F
3CAB2B80
3D9DE437
BD7874D2
BDC35EB4
3D5EB7A2
BD013DEA
BD04141F
BE046AE8
BE04489A
3D949E2F
BD1CD12C
BD9C07DD
BDB371B6
BCF724B0
3D85D7C9
3DA96833
BD3ED17C
3D55B96E
BDD88BA6
BDB48E27
3C2C210E
BD84D234
3DB92774
3D82966F
3DB0D3FB
3DB672B1
3D98BBD9
3DB951E3
BB39553E
BCF10D58
BA5F580B
BDFCDE0E
3D5F57C2
3DE11DDD
3D233BE6
3A8647FA
3D892DFC
3DCA347D
BC55561C
3C94A65F
3D754B2E
BDE23F41
BD53560B
3DA2AFAA
3DA630C0
3C5DF9B8
3CA38FD4
3D8C33F5
BBE36DD9
BD081C72
BDD77BCA
BD0C9931
BD82AE49
BD8F3AF1
3D12D6B2
3D3D2F20
3D82DBF1
3DCBF3AF
3C95B0DC
BDFB9E13
3D371CB2
3D5A1E12
3D34F9B2
BD8CB7A9
BDE83C88
BD91DB2A
3D90A08D
BDBC8457
3D4E472A
BDA18E8A
3DCDB849
3D4EF46B
3CB85D90
3D9D530D
BDA233D8
BC4E8A5B
3DB0E14C
3BB77040
3DB32649
BD3AC258
BDC4E1AC
3DC6BEC3
BCE2558C
3CEDFF46
BDB42FC3
BBAEBC30
BDBB4BFA
3D23D897
BE18B333
BD07E1FE
BD1ADF22
BC334CEC
3DDD576C
3BD50770
BDC247C4
3D36FEB8
3D622B3A
3DB64E31
3D44F466
BD6EB16D
3DAFA1EE
3CE88F84
BC6D7882
BC647E79
3C88DF5E
3DCB77D5
BD432A24
BD1445D2
BC049C88
3D5C6A7E
BDF2E01C
BD7C0333
BDEC50E4
BDCE41A6
3C466408
BD918E50
3C9E7A55
BDB769A2
3C0A999C
3E1D7E52
3C1A51D1
BDDB68EE
BD7BC647
3E32BF0D
3DB1492C
3DC74A53
3DA55CF9
3D45A9C8
3D3F553A
3D94E893
BDDBB49B
3CA8AD77
3DE90F5D
BDD1FFF6
BD38C61E
3902DCA8
3D96E6FD
3C94F4FC
3DD831BF
3D428517
BDE2DE97
BCD01A54
BD80BB1B
3D9D1973
3D8B9563
3D6F0D72
BD03EAA6
BDD15F87
BD6D5243
3D3AC6BE
BDD50D72
3D5DB0E8
3D545D80
3D422F6A
BD8B098A
BD82C455
3DB4FDB2
BD249782
BD376072
3C0D6159
3D3FA232
BD8A1E86
BD8E3782
3D68AE0C
BD5643F2
3D415BD2
3C953F96
3D9580CF
BDDBB439
3DBD6979
BC1BC5B8
BE035AC8
BDC7571D
BC80CD30
3BAE35A7
3CC08E88
3D4C5850
BD8C5B2E
3D983C65
3D93F1E8
3DE2B76E
3D438546
BCB36C1C
3D53B547
BDC3F207
BDE51556
BB997720
BD4D1F49
3DB751EC
3D7B63AA
3B0055D1
3D302F43
BD84A0CA
3CAEE18C
BCEAAEF8
BD5E6307
BCA8317B
BDBE3970
3D199572
3BE6A6EC
3D765063
BD44F654
BB1614A0
3D91E528
BC6ACE00
3D912055
3DAB4586
3D62AA6B
3E1A6713
BD4F641A
3D1379FE
3E2CDF04
BD58BFE8
3C2029C0
3CE587A6
BC40DE99
BD16EF80
BDCE0C8F
3D77C65E
BC9F39C6
3DD77E4E
BDD88A41
3CDC3BD4
BE027761
BD91E524
BB373B00
BD724D50
BD25AC7C
BDEE8044
BCA2470C
3C9B3F8C
3D959FFF
BD623F66
3D87E6F1
BD01D634
BD961ECB
BCE7ECE6
3DD98DD5
BDAA3FA6
BBA2AE5D
BCD247EF
BC1E8BB8
3C51DD58
BDE5E0E7
3D9983E2
3DC25E17
BDA2DE6E
3B25385A
BD826D96
3D3C87B2
BB5E1A20
BD428197
BD0ABD92
BDBFB525
3D49CCF2
BDBC7154
BD5295C2
3D4B4EAE
3D528032
BC5827EB
BD3431A2
BC13A468
3C12BECC
3D5F6478
3D81CD11
3D0341F2
BD83ED18
3D4BD5C9
BCAFBBD6
BCB70430
BD834844
BDDBC6F5
BD229F6A
BDE0970A
3DB05009
3A1974E9
3D377AC6
BDD58A7E
3E03F7EE
3DBB9A5C
3E456D78
BD9598A4
3DACF5A9
3DBF86C1
BD77B29C
3D9F52F9
BD93D99C
BC28D519
3E0165E9
BD0205FC
3CE9E6AC
BCB59CB1
BCC8D94C
3DB77861
BD71E203
3CA83AFB
3B41DA4F
BD0EC2CC
BD93074C
3E0EC9B8
BC1929F8
BC3E1670
BDB44BA3
3D43F2A0
BDE56CB2
BDB1C7C1
BDC7987A
BCEF969E
3DBC27B8
BD42770C
3D875D91
3DA6B115
BCAEA9BF
3D3D6E2E
3D16048A
BD95003C
3DDB0C56
BC844178
3DA91A7F
3D9012E9
BC4626D6
3DB00563
BD77C5F8
BD216019
3D7C902A
39AA4600
BD86CBF7
BD318DAE
BDEE2280
BDC149C0
BDDEE213
BB9A946E
BD07D248
BD96FC40
BC8A5BE7
BDD780CB
BDAE4685
BCDD58B0
3D9681D5
3D9D1182
3D653846
3D9429ED
BD4B2FF6
B9D6E364
3D03643C
3D016BC2
BD9D062A
BE13E2FE
BC95FF1F
BC8CA8B8
BDEC27B2
3D72A715
BDA1D664
BD581137
BC5C23B0
3D5AD151
3DDB06E2
3CF5F57C
3DAC9DAF
3D599A1B
3CB355E8
3D71208E
3D41E4BE
3CD1444A
BC86859F
3CED3F84
3DAD859A
BCAD9A1B
3C04650B
3B3B2940
BD8A58DA
3D51D5ED
BCF5EF48
3D7738A2
3DBCB92F
3C034FA8
3C3C3C94
3DBF3C59
3D99B3B7
BD5BB15A
3DC7929D
3DABC817
3E6094B8
BD42C7E5
3E384EEB
BD343DCA
3D38796A
3DF218DE
BD4E1EE0
BDB3F7D6
BD54D18A
BDF3D52A
3CD0E1C0
3DA5C575
3DAD1889
BCAA929B
BDDFBC93
BD4F5384
B950E088
BDCA1045
3D911AB5
3DA29019
3DCA5A6D
BE0B52AA
BC5D8654
BC9D4CB0
3D284776
3CE43BC0
BDBC03D3
BDA0BC2E
3D60C06E
BCA064F6
3C88F10F
BDAC8FB0
BDAC5A46
3BE6CAEC
3D77C3B0
BD1007AA
BDABE3CE
3D3C3CE1
BD556EC8
BC8C1530
BD85D3B7
BD9F0AFF
BDABC9E6
3CE34E2C
3C7F01A8
BDF4C8D1
3D5141A6
BDD050AC
BCEB79D6
3CC9A90F
BD9EA733
BCF99854
3D0AFB4A
BE086DAC
BDA2B957
3DE5EDAB
BDBA4C12
3D41C57C
BDD604E6
BDCDEE2D
BD7AA916
BCD8228E
BDBAF667
BDBD3766
3BFF3CBF
3D23FF8B
BD8DEF38
3C8B2B04
BDD66E44
BDA7DAC9
BC38FC6A
BD9EA5FC
BD8E8943
BD069D4A
BDE3318B
3CF6D5FC
BD422650
3D4A07FD
3CAD4855
BDAA2E30
3C9E1557
3CA1A9CF
3E64375B
BCFA112C
3CFC0534
BC13DB5B
BD8DD6B5
BD86C12C
3DC9B333
3D2BCCC4
BD455A50
3DCC5CA5
3C6F4398
BD789515
BD838012
3CDCC494
BDB857AA
3DEE19C9
BD518D2C
BDC44250
BD9F379C
BB2F2E52
3CA1D896
BD8BF994
3CCD9764
BDCE7B34
3D6B38DF
3D33104A
BDC0D939
BD0621F2
3CEF2DC5
3DD9F72D
3C292CFC
BC8A1767
BDF253F6
BD94C278
3D1927FA
BDBDC604
3C0D5EB3
3DA939C7
3D7C2C07
3DA8DE75
3D69FB1F
BC87EBAC
BB597800
3C9039B6
3D20941C
3D987F99
BC26A393
BDB5D25D
BC2F0952
3D02073E
3CDF1CAC
BD77EA95
3D8F0B26
BC4635E8
BD5FD172
3CB18DB0
BD3A3FE6
3DB06255
BD3959C8
BE08F134
3D86229C
BCA18B9C
3D46A10A
3D994335
BBD44EB9
3CB5CC9C
3A5DFD80
3D2643B9
BDE03410
3D5CA36E
3D97BA29
3DA5123B
BE00C50F
3D9329B1
3D56742E
BD4F2383
3DC7DACC
BC5DB618
BDC9A3D2
BCCED750
BDA6F044
BCD8AEE0
BCDE6AC0
BDAAD4CC
3AA50A26
BDAF9D70
3E568BB8
BD030280
3DEA2E4A
BB9B0E00
3C112EE8
3D7C1935
BD86D4FF
BCBCAEF0
BD7C13EE
BE05F2D9
BDD652D5
BD62277A
3D0884C6
BD28EB0B
3C0C7BF3
BC716500
3CA85B06
BDE34353
BDD687A7
3D49C156
BD8D57A5
3B8A0514
3D9733F7
3D7E0CE6
3CD5C3F2
BD79D9D5
BD01B385
BDB9813A
3C544388
3CF503FF
3CE7F3AD
3A73B480
BD5B9C10
BE0E8BC7
3D105AB4
3C1F34A8
3DBB72F3
BCE3BC3A
BDC43AE7
3D0BCDA2
BD67CD58
BDF132FA
BD431FAA
3DE33899
3CE86874
BE0592B8
3DDB21E4
BCF582D8
3DB6DA5D
3C760701
BD33E928
BC9D628C
3D006A52
3D3E65EB
3D9653A7
3D644162
3D753569
3BF0322C
BD9B2592
3D452B7E
3DBD3FAB
BD1545C0
BDAD650D
BDD9E02E
3D3C656E
BC161169
BE128CC5
BD0FC64A
BD82F92E
BD916E32
BD020580
BD19FF04
3D63D749
3D83C969
3C742690
BDAC4F41
3CDACAB4
BDA04F90
BDC3EA2A
3CA7DBB4
BD7C622A
3C976877
BDA25C81
3DB16E47
BBAD17B0
3CCE2241
BDCA69EE
BCE11174
3E3914B4
3D418F74
3DF2D5C3
BCC072DC
BCFF78EC
3D1EAEC9
BDAD8FC9
3DC6621D
3D8210D2
3D504939
3D64384E
3D03DD7E
BD47A344
BC65E3A7
3D62C9FA
BDAFA0B6
BDA08B7C
3DE9A9D5
BD062BF2
3C94A5FC
3DCA1FF1
3E0F164A
3D61B23A
3DAE8C2F
BD00F01C
3BA2552F
BC8B89B7
3A6D2700
3CFBB954
3D40398F
3DB251F2
BC06AD08
BD260FB5
BD1B0F54
BDEABB51
BD24EB76
BD306F06
BE02748F
3C131524
3D0EFCCE
BDD72806
BCC8F340
3CCD7BC0
3DA5109D
3DCA4F65
3CA901AF
BC23A1D8
3D0F97AE
BC8B017B
BC0FAEF9
3D495D78
3DD14B5F
BD3FA304
BE0E8DC6
3C4DEB12
BD33146A
BDCD6324
3D99CFB1
BD94D35A
BD0B29BE
3C1AA768
BBE36212
BDDD977B
3D718FFE
BD9C7F28
BD757C67
3C31FA40
3D193D86
BD24E650
3C67F96E
BDC92065
BCF8B09C
BC785D52
3CCF75EF
3C1B16D0
3B85CAF0
BDD1360A
BC561ABB
BC522264
BD21494C
BD90915C
BE090EDF
3D8152DB
3CE95DD4
3DCA594D
3CD923BB
3C1A90DC
BDA6D45A
3E439F4E
3D2E31A2
3DED92BE
3D9A3651
3DD8FA9F
3E206914
3D9E3C78
BD6AA3DD
3DBF3175
BD8B3F39
3D909873
3DCE5455
BDE4EAA6
BD285A4D
3DBF3B5E
3C99446C
BD1F19D3
BD0A4DAD
BD3F87BC
3A489680
3CA2662C
3D61C603
BD11846C
3CD4C16C
3C0AD8AA
3CA3468E
3D6C3CF7
3DBF9163
3D16A8C6
BE040749
BDB16C9B
BD91CE88
BD9E7721
BD9FEB3E
BDBF5511
BDAEE477
3DD52045
BD3D84BB
3CB892AD
3C9A850C
BCC1FDA2
BD543A6B
BE18D271
3B0FB6E0
3D2976F6
BDF25F64
BDA7297E
BDA39C3A
BC71129A
3D5FA654
BDD18B52
3D290242
3BB9A720
BC11DA6C
3DBA2C00
BD81F9BB
3CC88FFC
BDC42A63
BE133330
BDB70DE2
3D0C0456
BE0D5A4A
BDA294DE
BDDEBDB4
BDCEBBA8
BDD621EE
3D1795CC
3DE6B851
BC1F3F40
3C8EE8DE
3D3E0F0A
BDBE80DC
3DA6CDF5
BD843DEB
BDF44E90
3D85A6B9
BDD0B316
BDC295E8
BCA3B811
BD9B461D
3E3038B0
3D762716
3E0EB1E4
3967BE00
BD1C04DC
3D2A9E4F
BDCD2114
3D88AC31
3CF5233A
BD698C3C
3E18A16D
BD882F30
BDC2C3D9
3CF53116
BD2764AA
3A5ACB80
3D40F8E2
3D0ED936
3C940FCD
BDBB6FBC
BDD7A137
BD0694E9
3D7DD0D2
BDD968AA
BD7081FE
3DA133B3
BDCCE844
BD265FAE
3CA1522C
BD00CC08
3D40B5AE
BDD973F2
BDC1021C
BD2DD402
BDE682EA
BDC11EB4
3DD8ED65
BDEF4DE6
BDC83771
BD74D233
3C080DFA
BDBE91B4
BD4D7686
BD7849D2
BD2807D0
BDB566F5
BD890083
BC9057F8
3B9EECC3
3D4D8B03
BDFAAA86
3D007E46
3D8C858F
3D32D8A5
3B1F9A7B
BA7A6100
3DC26EA3
BDBEC6E0
BE0879E3
3DE671CF
BDCFF156
3D84A9DE
BC90F5AF
3D46CBBE
3D240D66
BDAAB681
3D2DB5F2
3D8BB3F1
3D7B2A6E
BD46CC7D
3DA8BBEA
3DB3CF41
3DBC61D5
BD768DDF
BDF3FAAA
3DE4A2A5
BD99497D
3D48FD5B
3AA68042
BCECD4F8
BDEE2280
BE015BA6
BDB784F8
BD06BD6E
3DD5A74B
BDED9DD4
BC4B7C4E
BDD67D85
3E25C7FC
3CC68B6B
3E57CDD2
BD8CCB0E
3DD4A5D1
3C0EDF08
BDAC6A21
BCD2A550
3D821302
3E0E7F1B
BCC0A2C3
BCDFE580
BDBACC89
3BFC9A52
BD8950A7
BDE83DC5
BDF4DB82
BB9048BF
BD5F055E
BCC1BE78
BDAD5948
3CF55B3F
3AE94E42
3D958CA1
3DCBC7FF
BD8A2FF0
3ACB25F1
BDC7124E
3D47ECFA
3BF8F98F
3D8A96C0
BB2EE5A0
BD99883F
BE0A95C3
BE1B40A8
3DC88AD3
3D548F96
BD00FABC
BA010E7D
BCAD0E84
3D0C2C96
3CFB842B
3D17F7EC
3D394682
BDBF11BE
BDA026DA
BDDBFC0B
BDD222EC
3CCF79AC
BC18C6C9
BE0176C7
BD2685C2
3CB51FA4
BDF8EF43
BD82BEEB
3DBBD667
BCA98574
3CF853DC
3BAA9711
3C936254
3C92F934
BE1638D2
BDAC5874
BDD35963
BDA19DB6
BD9ACFC3
3CD5F62F
BDB97335
3D4CF17E
BDE4F74B
3C7DDF36
3D561C4E
3D93051F
BD41D14A
3CA4D2B2
BCDAE434
BD909114
3D039993
BDD4D33F
3D82B621
3CD06124
BC721AE9
BD90A09E
3DA42A0D
BD555D07
3D8BF6DA
B6CCD2FF
3DBF271B
3E210CB0
BD5B7F2E
3D4A212C
3D04E8B2
BD1D0CDA
BC8451ED
3CF2724A
BDD4DCCE
BDB5D511
3DEEB423
3C9F9CC9
3C8165CC
3D36054E
3DE4D4F2
3D801BE0
3CA9C7A4
3DC50167
3B39D4D7
3E191D11
3DCC8701
BDE53E7D
BCCC62C2
BC9DDA1F
3DB70E89
BDAD3A64
BDAE7100
BDF5FF5C
BCA45664
BC96362C
BD89F7F7
BDA805B3
3C4D7708
3D811DB5
BDDAD1E1
BCFE89B6
3D2BF6DA
BCA083A0
3B9C5BF4
BC9E13E3
3D3052C6
BDA247E6
3D194293
BAB550E6
3C18C1C8
3DA9BE5F
BD881994
BD0F7694
BD875056
BDD2B12E
BC092AC8
BD49134A
3CFA2CF4
3AF487C0
3B266994
3D7A486E
3D235D52
3B26F4D4
BDD53806
BD8FBB76
BCE91FD8
BD65B1F7
3C896567
BD2C1BAC
3DE2D087
BDCEFE68
3C1DBD19
BD452294
3D0CF482
3D448B72
BE07C06C
3D6418D6
3D45D4CE
BC9BC864
BD10DE9A
BCA5D63D
3C98655C
3C324E88
BDD162B7
3DDFA90E
3DD21D45
BDA04BAF
3A980F8A
3D8A15ED
3CBDD38C
3C04E9A8
BC52728B
BCF0E441
3DC5F9A7
3E610908
3E1D3606
3D13138B
BD9F3658
BC5B69C8
3E028738
BC6224FB
3C3E6898
3DCA5027
3ABDAC86
BD8EB918
BCA7FBC0
3D95ABCB
BDAE5BDB
BCB86C37
3C72CEA8
BDE76BBA
BD9C5C75
BCFCB51A
BC6ED068
BCD583AC
BDBA1AA9
BD8EC713
BD08276E
BDA649E2
3D63A7F7
BDE17BFB
3C93BB5C
3D4EDD3E
BE08ABA4
3D3B4232
BBDE7830
3DBAFA41
3CE61A18
BD9D6DBE
BD9847BC
BC0E7A70
BE04CF1A
3DB9CCEC
BC1BD6E8
3CACD3B6
3BCDD66E
3D55A120
3DCBE03F
BD39C010
BD4ED5AD
BBA651C4
3DC0A07D
BDA005CA
3D5BF457
3D69C993
BC2902A8
384C5800
BDF680F1
BD8CB37F
3BF1CE50
3C1F1B7C
3DA55A21
3D5BF978
3D83D9F5
3DB737E3
BE0C0DBE
BD4F481A
3BA2DC80
3D4B39F2
BDE2FAA4
BE15F054
BD90EE5B
BDD3F9B6
3CFDECA8
BDBB3C21
3CD9116C
3D5F8255
BE0FB75B
3D69AE9B
3DD5283F
BD084E88
3B0488D2
3D5FD776
BDDF0A3B
3D1FE4A2
B9DA6364
BBA5B99F
3D2B26FA
BD7C4FE1
BD0BDB7B
3DD6139A
BB5F08C0
3BFF8FA8
BD51A5AD
BE02F8EF
3DCAB04D
BD9EAFAC
BDF4FF84
BD8F283E
BDBB8083
3D8DC594
3CA1E67B
3E0FCD34
BBA7ECB0
BD311BFA
3DCBF0E5
BC6A4E9E
BDD046E9
3CEDE502
BD8C64C7
3DD451AF
3D36F13E
BCCE68AC
3D871414
BDC7E79E
BD784231
BDBF8F9A
3DAE42ED
3DAFACA7
BD769B84
BD89D8D3
3D55C8C3
BD99B484
3D35CD0A
BCBEC35A
BDD4B6A2
BE11BB3E
3C93EF0C
BDE6ECF0
BC24D6BB
3D211A68
3CDA37CC
BDD7CEA7
BCBEBB9C
3D1444BC
3DC8DA5B
3C266300
BD542693
BD847F0A
BC9096D0
BDE441DC
BD337B0E
3BEFB08B
BCBD8254
3AA41C80
BD23DB1E
3D001593
BD7E7D0E
3C0F603A
BD90C1DC
BE1BB173
3D5140CE
3D56850E
3C98DCA7
BDD0156D
3D6D1B4A
BDFAD28E
BE0C3B99
B947A003
BD90317C
BD990C6E
BD95D644
3D864E5A
BC09F3E8
3D738F34
3D0122BF
3D69195B
3DE2E74F
3C6475B8
BD99DD35
3DCFDF20
BC928A80
3DBE7FCD
3CBC49D7
BD87425A
BDAE5D9C
3C890994
BC1E378A
3DAD3E40
3D500AC2
3D0D262E
BCF51E8B
BD7014CC
BC995164
BD7AF933
BD53A4FF
3B56859E
3D1B1ED2
3E0E80E1
3E0CE54E
3DAFC078
BADD2680
BD93D8D1
3E129B6D
BDCFE1B7
3CDEBFF4
BD62DD60
BCCA3480
BD9D43D6
BC14A228
BD8CF5D8
3D492F73
BDC9BA7A
3DC96489
BC22A6B3
3D40A4A4
BC827367
BCC6C194
3CFB1C84
3D43BF41
3D9070D4
BB79DCC0
3DA89017
BC8D5057
BE0B07BB
BDCDC360
BD0EADE2
BD33E0F7
BD858011
BD694E69
3C0BF55A
3D8D5C1B
BE040970
3D2B70BE
BDA99890
BDEFD0E9
BC1F30B8
3D6C6032
3CF292DE
3DA1AF01
3D1FD348
3CA268AC
BDB22B68
BD2B46DD
3D8388D3
3DC8F23B
BDCE9ABA
3D52748C
BDE6DA3A
3D2F3B2E
BCDBC030
BC873B64
BA9B6BBE
BD7C2431
BD89FF0F
BDE9B3D2
BD19472D
3DE42BC9
3D86378F
3C38E7F1
3D7A6876
BD9BBB91
BD400808
3D85FE3F
BD7230A6
BC85ED80
BC0D5AE0
3BE270F2
3DAD170C
3D47B656
BE0165F8
BCAA52A4
BDF82539
3DC66CCD
BDE2EB17
BD89F6AF
3DA88064
3D8AB207
3CA61454
BD823116
3D2C1B66
BDD330F6
BCF3C15C
BD864F36
BDECE4D0
BCBE0F8C
3C0CC6FA
BDC62D79
BD8029D3
BDC539CC
3D8C4D9B
BD5F5125
BCA6D137
3B901150
3C3311FC
BD857BB3
3CA997BA
3D89ABF5
BDD624E6
3D14B413
3DCC88ED
BDD2EAE8
3BE5227C
3D494055
3D5B0932
BD93C34D
3CFA157C
3D258921
BD4B0B1E
BC15C628
3D96C4C6
BD034D55
3C06F6B8
3D265A06
3D3CA452
BC8389B3
3DE632A2
3DD95995
3DB1A12F
BBE408BC
3DD91931
BC65C358
3DC1297D
BD7BE56D
3DC6BBB2
BCD76180
BD36D9B0
3CFE3A21
3D4CBA34
3D82C207
BC6BA3F0
3BBDEE32
BDAB7E7F
3D92CCF1
3DA7BD71
3D9D249B
BE1614D7
BDCA412F
3D899BD7
BDF11D8F
3D7022EE
BDBD71CC
3D539683
BD91BBC5
BD9858A9
BDC9644C
BDD184A5
3CD8A26B
3D7BB666
BDE4B3B1
3D22C346
BD908A9E
3D226E3C
BDC47BFC
BD92D88E
BDFE5976
3DB63FE6
3DE43629
BD9E1270
3CCCC577
BDB5BAF2
3CB7C014
BDBCD7BB
BD9833D6
3D72C402
3D43AC7E
3D7ED338
3D7B4355
BDDC0D1E
3DCDB0A5
3DBC902B
3D118177
BD294FB2
3DD53907
BD91154C
BD1A7C82
BDB07258
BD8F2846
BD9551D8
BE0086CF
BCDAFCEA
3CD842BC
3D08AEF2
BE10CD6F
BE0F70D1
3C5735C8
3DB75347
BE0A1D64
3C9EA57D
BCA07FA4
3C90EF61
3E313DF4
3E421454
BC0FDDB8
3DC5B79D
3E340485
3CCC6864
BD975F26
BDF0027F
3D68DE54
BD3929D4
3D0A289E
BD82D000
BE0092F4
BB9F7070
3D9D1BD7
BD943A47
3C133909
BD7AC65E
BCD05490
BC736B10
BE0ACA54
3DD112FA
BD74FBB9
BD3CF5C2
BE0B8A0F
BC998165
BCED8B00
3D3016CE
3D662944
BD005954
BD962A76
3D8AF2AB
BCC70798
3CC5B958
BDAF0882
3CD23C74
BCA7AAFF
3C98026E
3D7F46DE
3D5583C6
BE0C419F
BDD3C4C4
BC26F270
3DB3C727
BBD259F2
BDD85D0D
BDD0426A
BD94ABC9
BD56F685
BCB41F18
3DAF1D33
3DD70421
BD93931A
3D68BFFA
3DA54C73
BD889450
BD89B505
BE023A3D
BD6166B8
BD54E404
BDD9812D
3D972722
3CBFDDF4
BB21AFD6
BDC0EC28
3D837357
BBE68AD0
BD27D174
BD1F9B81
BC5BEF0B
3D3BAFBE
3DC426E3
BC1C39B9
3D5406A0
3DCF793F
BDE2B1D5
BD92A145
3C887DBF
BDAE6ED0
3D42C826
3C84E887
BCE753FE
BD7B15CD
BDB334A2
3D7A0A9D
3AE84F42
BC3E0400
BCA3C3A6
BD998870
BC5BF856
3D93AFBB
3D236D2A
BD30F2A9
3DC08B2E
3D9E6347
3C9E9204
3DA993AB
3D8A7103
BC46FBF8
3CDFD14C
BC52E16A
BD0F4B18
3DAEDD11
3C880A66
BE0A069B
3D31DFBC
3D33675E
3D3094EE
3D72E054
3D9A6F0A
BDD9847F
3C24BE1C
3D4FC9F8
BD80335F
BCA261D8
BD585EDA
3D4E770D
3C7FD665
3D98FB71
3D056842
3C223563
3E48FBA6
3C53E668
3DAA4F33
3DAA7A17
BDB78073
3D37838A
BC0ABAEA
3C7CD9A2
BD56D012
BBA6B650
3C4BD688
BE02ED6F
3D17C555
BDE86E43
3D6AD472
3D4683AB
BD86D996
3DB7788B
BD871A88
BDB2F230
3CEBB2BC
3DBC7CA3
3D92E494
3D7C4CDD
3E3029F9
3D873D8D
3B492200
3E30683D
BCD92376
3CC66524
BC2AF99B
BE02EB24
BB9032E0
BC81DFE0
3DB9F697
3D354A69
BB76CADE
BBCD3540
BD7F1966
BC8384D6
3D59417C
BD997B6C
BDCCA07A
BD9572AF
BDBCB0B5
BDA24392
BC8C839D
BD844850
BDFA73DE
3C5F8EF8
BDE68867
BE04405E
3D5EBA9C
3D983A69
3D5CD052
3E26B370
3E1A247B
BD042CA4
BDB0FAD5
3D9F69BD
BCADF31E
3CF9A63C
BDC52B07
BB946A7F
BD43BD80
3D0345CE
3DC56B8F
BCA9D283
3D34FB22
3D7B70CA
BDF769CA
3D3407E7
3D8BB201
BC791E00
3CC8086C
BD0D3E0F

