BECBE666
3F4B1A65
3E89ACE5
BECDE20B
BEDF19F8
BEA7181E
BE8626A7
BDCF96A7
3DDD6BEA
BEB33710
3F0D8C47
BEA92CE9
BDD614CC
3E78223D
3EBD6849
3E9435A3
BDDD8FC3
3E92C9D8
BD88EA70
3DD67527
3F202798
BF002641
BED13B55
3E5D2ABF
3E5A19B8
BEEA6FCB
3EDD3204
BCAE9E18
3E0AAE06
3EE040DB
BEC34475
40722ADA
3DE1E331
BE936F0D
BD259E1D
40A104C7
BD8280B0
BDD47FEB
3F0EE6FF
3F31FF2A
BDE9ED02
3CFF0DF4
3EC945C1
3F3946EE
BDCA30E2
BE8D94AB
390B853B
3DA144F8
3F141DED
BE9A1EBC
BE92C8CB
BF01789D
BEB77018
BE276574
BEB69CD1
3E23EBC0
3E82EAFE
BD8E9DF8
BE70BDCE
BE7C4B2F
3DF85A87
3DDB186E
3E95138B
BE4B2EDD
BF16C228
3F4E76E3
3E89257B
3F227BC9
3F0E83B2
3EC19AE6
BEB0DDF9
3EA37255
3E1802B7
3EBD505E
3F206429
3EC7242D
BF1CD919
BE44460E
3E3B8514
BEEBE290
BEA3F3CB
BF1C0D2D
BF054D13
BF457C57
3F24B049
BE616386
3ECB2901
BF4BD731
BDA1183D
3EE3D059
3ED7DEDE
3E2B7D15
BF4BEF64
3F22862E
3E812A0D
BDEC3924
3DEED146
3E9F63A6
3E712621
BE0A2D9E
BE598C56
BEC2814F
3F059ED5
3F83540E
BDD24B9E
3CCDE694
3DC67CE1
3F37BE5F
BDAD694A
3E1A39E1
BF6EDBAF
BD8EA35C
3F1108AE
3E8117FC
3E9A417D
3F01C40B
3EC18507
BEDADCF8
3E989A90
BF35C6E7
BF124060
BEA6FE90
3E3969D1
3E9F6AFD
BE1F5F9A
BD615AE9
3D09CF13
3EEDB30F
3EB54BA8
3F3E31FA
BFF93B94
BF8116F8
BFA3756E
BF7513FD
3D3BA954
BF5FB9B8
3F1B3F23
C02A1856
BDAE78AF
BF2A35E3
3EDE58D6
BEFA6695
3F0B8357
BEB6B020
BE5878B5
3B4074C2
3E4A05AB
3EA27158
3F23ADB2
3EFD37FE
BF7C3F0B
BF1038C7
BF36006F
BF7A110D
BC4FD76A
C01975AC
3EB7E782
3EE9B83C
3E9759C0
4007ABFC
3EEC6B66
BF937280
BF1DDD94
3E4B0924
3ED08385
BEB5D63E
3EFE9B40
3F328941
3E1FBC87
3F0018F7
3EB366F4
3F3A8DA4
3E7BE316
BF48DA60
3EE88D98
BE04D6F1
3F20E804
BE92C99D
BF0CBAE4
BF7BB5CD
3ED45F70
3E9482F9
3ED550E7
BF246E07
BE6062BD
3E80F5BD
BF36F509
BF9992DB
3F3CE45C
3EF9CFFD
BE7484A2
BF0139D8
3F03E465
3F398518
3E01C07C
3EB4BF4B
3EA085CD
3E8C12D7
BEE2B5D5
3CB026E9
BECFDE24
3E40E20A
3F13792D
BF91BFF9
3F49F44E
BE872168
BCCD1A41
BEF408DA
3E97EE0E
3F118CF1
3DFE756E
3ED142A1
3F1CC307
BDEF02AE
3EB40272
BE1A49AE
3E9AA448
3E7B09F1
3F14C2A0
3E19267E
3EC976E2
3EE60D30
BF10AE28
BEB8D2CD
BE85BF17
3E21B450
BE0AB3C6
BE22C19C
BF4F72CF
3E567B46
3F6177FD
3F27975D
BE6CA708
3F347D5E
3F486C25
3EAB7F9B
BECCB048
3EB6C306
3F2F7E18
BE68F941
3F114DEC
3E514C4B
3F3BD09C
3ECF1F58
BF261356
3DAC0115
BEE8F3D9
3EDEEEEE
BED207D8
3EE871A5
3E1EDA2C
3E04BCFA
BECA9593
3F2D668C
BDAA05FC
BB964910
3EF46A27
3E8BDFD6
BF453637
BF81ABBE
BF377F15
BF1E3914
3F181829
BF21F902
BEA5F288
3D7170AB
3F21F0DA
BD8804BD
BF5C7348
3ED42D4A
3C843DF4
3ECF2D51
3F4FA948
3F35C126
3DAC11E1
3F317FF1
3E7687FB
3F18C7FF
BF11DA50
3E82C2F0
BF5EDDAE
BF12232C
3EB09396
BFE825C0
3F16B466
3EDBAF70
3EA1BCC7
BEDDC0A4
BDBC8706
3C3625B2
BE272CCC
C076B116
BF241FB8
BE95284F
BED14997
BD67EFCE
B9F616C0
3DE7B808
BE94FCD1
3E82E950
3F2492F3
BE92EBA2
BF5BB08B
BE9910C2
3E4BB126
BF1D35D1
BF50E9A0
3E07C79D
BF336164
3F1A84B8
BF3D8ADE
3EF6D97B
3F20D1AF
BFAB2D51
BF7DB786
3E1ECB35
3E8E6339
BE9F21B8
3F15851D
3F41F4C8
3E42548C
3E7068DB
BF4DAD85
3E246557
3DAF46C0
BEBFDD97
BF410B21
3F0D6BD0
BEB189E4
BDA029BB
3F1B8A95
3EDD2C9B
BF47063E
3F5029CD
3E3D88E8
3F45C435
3F10A6A6
BF43AA7A
3E30B32C
3E87424C
3E1D1337
3EE068A9
3DBAD0BF
3F155D83
BFB0FBBA
BCE61698
3F4B323E
C00E341D
3E4BEB8C
3DB152E1
BDBA7089
3E2F501B
BEAF1D55
BE6090E1
3EDF0BF0
BF8AC63B
BFB3CB00
3F52DFF2
3CD2E39F
3EC6DE67
3F1B823C
BCDDFFFA
3F047B73
3F33A77B
BF1B6F82
3CA31A61
BFAC4590
BDA0F26A
3E3F182B
3D822962
3E8DF1F6
BD3B2CA2
BF0276DB
BED02444
BEABE265
3E5BD2FB
3F395C89
3F0C106B
BD86320F
BF2761C1
3E86CC4F
3EE43114
3DDB8D83
BE1E5C72
3F823BF8
BEB45227
BEC304F0
3EDF543E
BF296EA7
BCAE9D92
3F20A036
BFAB1286
3E8EFC63
3C7F0BBB
3E3E0279
BEB10BE0
3F5D2FA9
3F0BA5D1
C000B9C0
3E9B422F
BE3E9909
BF0F2D2C
BF9ED66F
BDEA2640
BF3E85F1
3F3FB67A
BEB30E76
3C36E82D
3D97AAC4
3E777645
3ED125F1
BC2B47BD
BCF6A69C
BE8C5573
BFA468A4
3E9EC768
3E40D280
BC54EC15
BFBE5468
BD441F0C
BE2EA2A8
3D56A5E8
3F67291B
3F107CD0
BFD4FD32
3E327F5A
3EBBA33C
3F4D95FF
3E87EC4E
3E16701B
3F570FC3
BF9E3384
3E94DDF1
3EC00BA7
3E4101F2
3E71E21E
3F170222
3E6978BC
3F01CB7C
BC161BA2
BE35CF37
BF48B51B
3EF94957
BD988ABD
BE4B25E5
3CC66ECA
BF8A6087
BEF92717
BFB78A00
3E9D08BE
3E2501C3
BF1D7031
3E4C9A13
3C75A57E
3DA4936C
3F087E6E
3EA7B042
3E6963D7
3F22F3C3
3F1BCCC3
3F625B08
3F279F92
3EAC874D
BEC6C43D
3E88D14A
BFA84ADB
3F4C860D
3CEF13F6
3E3D6E2C
3F15DA4E
3DB0C2BF
BF43C13E
3F147FCD
BEBC9557
3F8C92FE
BEE4AD60
BC89C153
3DD3A318
3F6EB949
3ED9B1BC
3F0AA661
BDB84DFD
3F7871E1
BC3533A6
BEA026A4
3E82339B
3F59E7C1
3F77F952
3F3E66C7
3F0DA19A
3D83CE2E
3F2CFCA6
3F00ABE3
3E54832A
3F236834
3EDB2B8B
3F0AC829
BF7097AE
3E8257CA
3F16AFC9
3F5CF6CB
3F26C201
3F18BF65
BE205CC6
BDB2298F
BF4F7CCC
BE50520D
BEB6BC82
BEEEBD7E
3D03613E
BFEA9F76
BF184C1A
3EC52300
3F4C4CF5
3F07076F
3EC1D85C
37844135
BE4538F4
3EA0736E
3EB17584
BEC44DC8
3E9CD173
3F1384EC
BF0B5916
BEE9065D
BF6815D7
3EC0BAA8
BF0D5A82
3E41F01B
3E5C13C5
BF9008D9
BDA66328
3F708AE2
3EFBB7D0
3CE3A938
BF4EFB97
3F4862F3
3D547DF7
3D97FAA5
BF5BE85E
3C9C862E
3F005BF7
3E604F24
3DBB4F50
3E08FCC0
3DCFBA4B
BFA10235
3DE19298
3F366E5E
BE8EC12F
BE5B82E9
BE939358
BE55C21D
C008F916
3EECDEBE
3F629BCB
3F021E9D
BCC42CDA
BF0943B7
BF7A8910
BEE37515
3EBC1A4A
3D8FBBB6
BFAB9E7C
3EB027EC
3F0D12EF
3D88ECED
3CB8713D
BEC83218
BE26FA73
3EA53C26
BD2824A4
BEB1CBF3
3DAA87B0
BFFB5A24
3DFC2AE8
3EF41F1C
3F582162
3EC39AE7
BE8AFBA1
BF0F0077
3BB72804
BEC25B05
3F1A05A7
BD959F04
3EAB9667
3F172269
3EA9C7BF
BEB4F637
BF634D57
3E090C0A
BE2C7F91
3E508990
3F5E74AB
BE2BBEBD
3E07DB10
3F8FF133
3EDC7242
BF033688
3E152336
3F10ADA4
BDD1D34C
3E95567D
BDF02D75
BE0503B8
3F42DFE4
BF82688F
BE860731
BE5B0EF5
3E703455
3E765E9C
3D12B53B
3FB8332A
3F53CA90
BEEC8A54
BE9CFED2
3D35B9EE
3F64FD41
3D9E864B
3F5D9FC0
BF424BA1
BE2E0695
3E55AE43
3CB8BD1F
BE52E4E1
BFBC06A7
3D1EF837
3EE513BC
3E8B6E97
BD7F9378
3E31E230
3E5E254B
3DBB0B99
3EA4CED1
BEA5E2FE
BCE87E01
3EA626D3
BD6B8AFF
BBA57772
3D43B2B9
3E721E2E
BE9E5430
3F12C837
BF4E8513
3E6AF0D9
BEF54FFD
3F4933FF
BFEAEDF2
BED9AB53
3EBAEBF1
BDCBAE0B
3D9ECDC9
3EB38FD6
3F754A93
3E827215
3F4129CC
BE43E4BC
3F07C3E4
BF8E9B82
BE46FB59
BF052E87
3EF83EFF
3DFBD043
3F5F73F0
3F18E405
3C35F5BB
BE73AA54
BE647F35
BCFA1537
BE17890C
3F662317
BD9396A9
BEEDDB1E
3C65EBC8
BEB40A52
3EA1F4DD
3F11F61E
BFB22297
BDF220E3
3D29F7C1
3F76012C
C00EC5B5
3EB50D79
3E9014D2
3F457B81
BE2718E1
3D87C393
BF8ACAF7
3EE68DC6
3F1C833C
BE488994
BFAF9FCC
BEADE1A2
3F0F42DE
BE8C9669
3E54D1D0
3F919604
3F2EAF90
3E03740F
BEBB83BA
BDA7D674
BD0BFED9
BF08F097
3F4C88A6
3F444968
3E205309
BCF06FF4
3E80C7E0
BDA765FE
3E1BA6FF
BF1F3A7F
3F021F17
BE6BA946
3D9E181D
3CEBEB17
BD5C2885
3E792C0E
3F342E3B
3E0A8C63
3EB1F9DF
BE813A17
BE1990C8
3EC1A039
BE09C9F7
BD2270B0
3CFD1BF1
BEA4F58A
BEDEC5B0
3EEF3F33
BE80BA93
3E32ADA3
3E913DC6
BD846E63
BE84A322
BED8039D
3ECAA5B9
3F24B6D9
BDD44DA6
3EE57C03
BE873AB3
3D6AAF37
3E8FF5A1
3EF5BEFD
3F1ED1D6
BDED6FF5
3F239D7C
BEA391B0
3E97283A
BFA4F7A4
3F158588
BE584AD2
3F431A1A
3EC12FF3
BF1D338F
3ECC65D9
3FA5E777
3E9525C5
3EED726E
3E7615C8
BE023F0B
3E98A943
BE895C2E
BF049893
3E19AD05
3EFE44D3
3EED1E03
3BC8D4D7
3E5DAB33
BF9D1177
3F6A2F2E
3DEA9EF6
BF9FC647
BE534FCA
BF5C15F2
3F432B4D
BDEA8185
3E5AB1E3
BE934B47
3F23E001
BF75B59A
BF822D4A
3EDA83F3
3F3B8823
BD7D1600
BDB00E61
3F862C30
BF33C49A
BD72FB18
3F2EF732
3F0C4BE1
BEA4AB21
BECC96C4
3F56C9C8
BE0655EE
3FA349D4
BEEA6A81
BD0AE396
3F09A34E
3F4C8495
BD404F6E
3F18DF60
3AD05429
BF48CFF8
3EBA21B1
3CDA8ADE
BF019551
3FA90E0A
3FB9292C
3F15BB11
BF43ADA1
3F6A897E
3F9A3F35
3F24C648
BF223BDE
3F79D8A2
BF5D608F
3F1DE5B8
3E19E715
BBF41E46
BF6568A3
3F18E787
3F01648C
3CB6A70C
3D656D7E
BEDFE96D
BDC154B7
3F69C927
BF88B27F
3E98D21C
3DE8D863
BC6F3BD5
BEA75D5E
3F872930
3EAD24B2
3EA05212
3FAC53A0
3F2FAEEE
3F87D56C
3F2F24B1
BEE571EC
3CE3998D
BE2AF41B
3F9F091D
3EEDA588
BF3F81AD
3F3FF204
BEBBC8D5
BE6B8296
3F0DA1C2
3D29C979
3E39040F
3AD0AA49
3E0A5906
3F294949
3F39E830
BD451172
BF20E871
3E6EF899
3F883869
BF8ABE23
BD157D43
3F42B963
3E8FD490
BD9E5E0D
BE2B25EC
BD8464DA
3EB06846
BE919750
BF8DA9F7
BE3F8D47
3F5D5C27
3FB7050A
3E2EE1CD
BEC38627
BE8979B1
BD8D86BC
BD49C3E9
BD10A819
3F7C36F3
3EE2974B
3F870325
3F8D1EA8
BED45E61
BE8DB09C
3E8FB489
3E819A1A
BF4B1FE7
3D0B02CA
3D147AC6
3E84E665
BF5AEE8B
3E50B8E0
3E259038
3E41E958
BDFF0FE1
BF3047A2
3F3A76D0
3F6DF81C
3EDEE269
BE45A83F
BF118C0C
BF55952F
BD069092
BEAE5535
BD4E19D0
3E03185A
3F42188D
BEA48761
BE8C21F4
BD80A6D7
3F1AF609
3DA34E9B
3ECA0FAE
3E6BFEE1
BE5A44EC
3E2B16F0
3F55ADCA
3D42B74C
BEC9AB2A
3E917582
BDB0FBA2
BF5E968F
3F36C108
3E66C3CF
BD61022C
3E809ECB
3EE54DD5
BF1776F5
BEE0FA9A
BCA07897
3E3C3907
3CBA0524
3EF71011
BEBEDF1E
3EA1062D
3EA8FEB7
BC3D4FA8
3E9DF580
BFBBEED2
3FD77B32
3E9666AC
3EA36D0F
3E9E080F
3EFEC47E
BE9A2C57
BFBE50D2
BCF9DDF9
3E263F9C
3E48DDC6
BE9E3269
3DFC0716
3E38E91C
3DF28218
3F1EB9C7
BE1E69EA
BE2286CD
3AE05F0C
3EAF6626
BD80FEA5
3DB994F6
3EC25502
3F5039B3
3E6495F4
3EF8CC8B
3EF7CE2E
3EAA49D1
BEC94DED
BEB94CCE
3DE38474
BCCC60C5
3ECF8D25
3EFD679D
BD94FB7F
3F65E80A
3E15BEA0
3EECE861
3F094EB2
3E6CE71F
3E04F3D5
3CC6579F
3F39CC19
BEFE6F5A
3E49220E
3DA1CA08
BD7BDD63
3EAFA6E6
3F45316E
3EE54969
3D7EEC0C
3F0BD53C
3F2E3733
BEF5E2F6
BE8C6A64
3E16BCB1
3D9F5C68
3B85A9F1
3DB9A468
BDE93E20
3F429DD7
3F9A4852
3EE4BBC0
BDC38CE6
BD3CA9F4
3F05A8F4
BF076BD4
BE712104
3F7C14AD
BE3C359F
3F5DC57A
3F1ABA6C
BEC5582E
BEADC02A
3D3D67F7
BF0FC82E
3E277BDB
BDF2DF30
3F28A6F6
3E6DC95F
3E8ECCD9
3D89F30E
BE82A83D
3DCF1EBF
BF5E628B
3E35E039
BF14E4DB
3E174778
3F17267A
BEDAC642
3E4B5743
3F1CC8E2
3F02BED2
3E05EE95
BF47DDEA
BF2ED083
3F1FB481
3F0AF3C8
3F8EDB0D
BEF40295
BE12E6D8
BD483D71
3E9538F6
3F506F36
BE0655F6
3ED66E65
3F4069A0
3EA900B4
3E1C4898
BEEF3B6A
3CEAE9E5
3ED8E61C
BEC2842A
3F10AAFA
3EDDEC84
BEB63FD3
BEC671DF
BE885906
3D96406D
3EBB5D85
3F18DED1
BE111343
BEE0B83B
BCC794B2
BF669CF0
3F12161F
3EAF7786
3E464E34
3CA973E8
3F38C7E1
3FA31810
BE41DDE3
3E5DB2AC
3E8DB81D
BE986B0F
3EDCD2A1
BE3AB40B
3E097DFD
BEAD21B1
BEECCF80
3F276859
BE50A4AB
3F7CC90D
3F49AC7F
BE212DDE
3ED52DE3
3E983AF9
BE74D790
BEEEE5B0
3F841BE8
3F7FB447
3F1C507F
BCCBE741
3F558ACC
3DF40F2C
3CCC75F0
3DB6B628
3EC6E4CF
3D1CA4BF
3E297878
3F71019E
3F71CD99
3EC75D69
3F60F55E
3EE0B392
BD8B21D7
3EED2D72
3E2F3C3B
3F20F59D
3CF2575F
3EF3DC97
BE362245
3E4B45E2
BE859F23
BDDBE263
BE0BD36A
3F6BB80C
BE59F0C0
3D15391E
3EC4031D
3F4E6C35
BE12825D
3E3F1747
3DEDDBFC
3F999CA8
BDE58F49
BE83A10E
3EB8F35A
3F5CE6C3
3FC48574
3F6496C1
BF22247C
BF3B566D
3F00658C
BEC4F0D6
3F03035B
3ED7246B
3EDEF13D
3F69C37E
BEDAAD5C
BDEB0113
3F4CECAF
3DB5D1A8
3E8CA234
BE17DD09
3D60C7D7
3F0530F6
BE9FCCFB
3F1525AC
BCAB66EC
BDA0DA07
3EF8E1B1
BEA5FC4C
BF04748B
BEA51199
BE136CF0
3E03B6C6
BEF490E0
BF89F410
BEC13371
3E4C6B3A
BE019D37
3EF83851
3E418B6C
BE2B3B9C
BF02F45F
3EB6E3AD
3C6BC10F
3E2CD53D
3EEE6F11
3EB6AC0D
3E0E0ABC
3D8464A2
BEB3C1D0
BEA7747F
3DF2E19F
BF317925
3E055DB5
BDDD3EF8
BE31FBE6
3F011863
BE94FE68
BDA6C29C
BF027A9F
BF6CB46D
3A0C377A
3EBA4BEF
BE9D6117
3E852BA4
3EAED409
BF060E4E
BB7FF386
BC4E1EB2
BE3BC27E
BD09DA6C
BE89A208
BF9AA25B
3F5B5A1C
3F093F2F
BD8460EF
BFB1F646
BF1E08C1
BC14FAD2
BF1C61A1
BD49E84E
3E01D49E
3E647EC1
3F3253F8
BE51D899
3DD73D46
BEA1BC47
BB253CC6
3D27E283
BE8465B5
BEE3B045
3E96CF7B
BF3DD2B8
BF289616
3E934D1D
3FFDEB08
BEB5911C
3EA64D8D
3F219BBD
3F3640CD
BF293FB8
3F42BA59
3D26F8D2
BF2C343A
40017416
3EE763C2
3F06956E
3F81D9CF
BF15A2A2
3F9B0369
3E6E0B42
3F68C26A
3F5F6DD8
BE8D85AA
3FE9ADAC
BF55FCF9
3D44BBF9
BF0147F9
BDB3D74A
BDC904A1
3F99E6E6
3EFA20E0
3E0A359C
3FEAB128
3E063EC3
BE8DA0E2
3F2FB678
BE74D57F
3E2C17A0
BF92522A
BD9C89C3
3F7B7080
3F87E2EF
40150568
3D1B388D
3F301383
3EB6D585
3F6995A1
BF9785E2
BE6BB071
3E631CAF
3F6DEE1D
3FC6D4F4
3EF1BAF4
BEC2AA76
BD1B091F
3D0BA14C
3E69CA30
3EA567E5
BE9EE449
3FA0F3FC
BFADC934
BE0F5EFE
3E85A09C
BDAEC9D3
BE26407D
BF81E373
BF5E32C9
BDB27A47
BE470B5C
3EF8AD72
BE867704
BEC18E52
BEA8F06A
3E8D0FCE
3F3B33FE
3DD987C5
BEFDB25D
3E44F822
BF305955
3EBD8E72
3F0BA27B
3F117680
BCC4BB2D
BED26F9D
BE453624
3E863158
BE1F0D55
BEEF5DAE
3F3DD7C8
BE836CC1
BEB15DBB
BF17176A
BE9FC7EA
3F097E81
3E08A159
3DDE66EE
3F2E3869
BF07E48A
3E11307E
BF060057
BE3C25D7
3E85F476
B92A6CAD
BECF67E1
3E411682
3E98968A
BF48C2C8
3E5D76FE
3E90B2E1
BF140C86
BF351E49
3F726C22
3DA04416
3E385B97
3DEA490A
3F48305F
BE5598F9
3DB4746D
3EC323E6
3F19F597
3E90F0A7
BF032D81
BF5CD1C1
BE96C15C
BF9849F8
BEE3AB1B
3E40B85D
BE9B1F4F
3E4179F7
BF1764D6
BF2C408E
BDE4C978
3F551494
3E847D5A
3F47AF2E
3F36DB64
3F2FC12B
BF4BCB42
3D817089
BF5C6A25
BED4FCBC
3F0948C4
3F21FB69
3EC9D742
3EE9FB10
BF32B90D
BF2AAFA9
3F7CA0A2
BFCFFDBE
3DE19BB8
3DA68F56
3E5073B0
3F548370
3F592D47
3EB51551
BF76E572
3EEBB8B4
3F10D1C0
3E2E9126
BDF938C3
BA5027C1
3F85FB5B
BDC1C943
BF14FCCD
3EAAAA63
BE4FC22E
BF2B4815
BEBB4ABA
BE15B4D3
BEC217A5
3E8EBCB0
BD89E7BE
BD45772A
3F6AA67D
3FAE4ADE
BF428911
BD08D961
BF4FA115
3CBE22F2
3F125EDE
3F341852
3C98B7F5
BD1A2078
3AE738E8
3EE90CB6
BECB233C
3E3A2C50
3F863500
3E811707
3F935374
3ED61015
3DF79525
BE442120
BF913E79
BE3B735C
BE381386
3F1F82AF
3E8288C3
BF542DB4
BBBFB759
BDA0F204
BE5F8A5C
3E2D3D9D
BED1F820
BE505529
3EBDFCB1
3C500CA2
BEA8F76F
3F020A77
BC32FC37
BE3F4032
3D420FF4
BF86B809
3D79D620
3F0F21AF
3D35D3D1
3F4445C9
BE98D54E
3E6258B7
BE8C44AA
BEA2CD45
3F03ABEA
3E26A77B
3EBF7661
BE4BCE88
BE518F00
3E0B512F
BF449A58
BE61FD1B
3D5A22BA
3E07720C
BF4EBCAC
3DB5B7D4
BEEE6DC0
3E933345
3DF07AB7
3E8ED0DD
3ED6E852
3F5A056B
3F95ED77
BE6EF69F
BE0A695C
3E47861F
3EC9B1A9
BF1C801F
BE8BCB54
BE57C7B5
3F135941
3F0FD600
BF47723F
3EE14A1F
3F1B7DFD
BE2E3D5F
BEA94385
BD8CDA34
3EA55ABD
3D699C7D
BF3CBAE1
BE876590
3EDBCEEE
3F66E14E
3E8E683D
BDAA389F
3EBC59F8
3CC0E4CD
BF84FC1D
3E8DDC8E
BE588064
3E729182
3FC173AD
BD919260
3F332BF0
3F816911
BD390B3C
3F06BC98
3F6C855D
BF03AC96
BC8371F3
3E9D27E7
3F293A75
3E2A3A09
BD6CF5BF
3ECDD414
3DF10A97
3DCF65EC
3F94EFE8
3ECEFBB1
3E8DC99D
3F93E307
3F2BCACE
3E09FA14
BDD5AB27
BE15DEBB
BE736A11
BE1C5585
BE9C611C
3E549836
3F7F2FE7
3FBAEE09
3D9E2850
3F4186DF
3F1D63FF
3F023967
BF4C026B
BDDE1675
3EEBE658
3D883F78
3F4B47BB
3B709519
BE6826F4
3DAEBCA2
3E3BF3B4
BC52C2BF
BF21EA29
3EB89F1E
3F138CF4
3E866C0D
3D9B4A6B
3D7A94AE
3EC8A6FF
3E7A4F2E
BF13A4F3
BE5B00EA
BEB219F0
BF001AE0
3F740CB3
BF04801A
BE1AAC40
BE581AC5
BE882F8F
BECC9158
BED84935
3CF42C5B
BF31A87A
BF0DA562
3EFA17DF
BDC62DD1
BF267938
BED8F660
BDA49F85
BF79FC0C
BEC1DD48
3E51942E
BDDE81A5
3F8C6ECA
BEBE9E81
3E356E76
BE2FAF88
BBDE6498
BED1E72F
3E3FF92A
BDB4B685
3F14AE67
BE33BF5A
3F38B0BA
BEA18733
BE4B67A7
BF148E67
3F2E1810
3EA40D6B
BD0A7F08
3EE8C052
3E2CE48E
BF16365A
BE329ED1
3E0932EA
3BFEF1D7
3F2FAC62
BE6D6029
3CE0C2AF
BE6ABFAC
3D9C3D14
BD4A56D1
BE6DA14E
BF120E3F
BF239383
3F84FF35
BEEFEDE6
BD802383
BE147D1E
3EF14761
BD5766A0
BDE7548E
3E7FC678
BDA23BFC
BF4FD571
3EFCA119
3E6A547E
3EBAEA26
BDDA10EB
BDC2C70C
3E885E55
3DF14EA0
BF57459C
3F379528
BD00499E
3E80EDC7
3F5CAD2E
3DA71932
3EE0C9C4
3F856BF1
3F11A393
BE3B63B4
3F7D948D
3E75EFD6
BEDB5680
BE594FD0
3E773041
3D5430A0
3DBCDB74
3E89EEA8
3E1D9AD0
3D58E208
3FA1FC31
3F204494
3D0DFC1C
3F6AE5E2
3F27E5A9
3E9DDFBE
3DA5E3E5
BDD25355
BE1CAF14
3E48E719
3D8499D7
3E8B5853
3F866992
3F9207B3
3EADDE09
3F1CF484
3FB4F52B
3E5ECF4B
BF15E32B
3EB9BCEE
3EAEF52F
BE2F4A18
3F5D9B2D
3E4FF7D0
3E61EBA2
BE878CC8
3EE0BB0C
3E4A795B
BEA7D9DF
BCE22821
3EE1B0B3
3E3FD03B
3E0520D5
3E1D2311
3D214C92
3F286FA6
BF1A5B2A
BE0B0634
BE366377
BE3E67B9
BF498F1F
BE3CBA1A
BEA3564D
BE9961B2
BEF9D68C
BE6D2A7B
3E916B5F
BC15B412
BE92255F
BED3562C
BE402EFD
BE097685
BE49F9E4
3F72AD2E
3F368706
BE8B67EC
BF8CADB0
3E33BECE
BE061FDD
3F09F14F
BE5267F5
3F0FEF86
3D884CDB
BCEC237D
BE8C3119
3E66B3FD
BD8244DC
BEEA11A7
BEEB8A1E
BD99E483
BE3AA366
BDFF2A50
BF3B6FA2
3F50B047
3F2DA324
BF0A1E6E
3DBC39F3
BE88B473
BF00683B
BE602698
BF05996A
3F48FC9A
3F3E602E
BEB6BFA8
BE7E7DB5
BF3B7B3F
BE872FB5
BE5EB725
BE9C21E0
BE95EC4A
BEB1F0AD
3F8CB44F
BE346931
3F22DF38
3CF9199F
3F9A1CA9
BE722C60
3E3530F9
3B886B87
BED24463
BF9D5A9C
BE902D06
BE44C929
BED9D793
BE9C90B9
3DB0BDFB
3F225091
3C0E2701
BF1D1D1C
3E90E710
BF13C502
3EC4F7FE
3F84EDE8
3E23F909
BE3CE9F4
3EAC6E2B
3F3F433A
3EAABCFF
3F24E119
BDE8931B
BF49BA1E
BF0C8FD8
BD9E037A
BF2C2BE5
3EC827FA
3EF5ADAB
BEF8A08E
3EC977BA
3F542464
3F4D7E74
BEF59F14
3F2B2BE0
3F01EA76
BF2F6D51
BF8BC8B7
3E615569
3C9394D2
BE0756FC
3E7456AD
BEB4BE19
3F2698C3
3F0C00D3
3E87CABB
3E89CD30
3FB1C2F7
BF992BF9
3E721C7B
3F0170D9
3EFD05F9
BEA016E5
3F625C15
3EA0007C
3F1E9205
3F15941D
BE9BFAE4
BE10160A
BD18F8D5
BDF3A950
3D687532
3DE1272B
3F3E6D86
3F13CF77
BE11E392
3F67D572
BF64B13C
3D166B6F
BDAC6B29
3EF94D7D
BE039D6D
3D893E43
3F43AF52
3D4C711B
BF7EA0AC
3F17620C
3E04DDD0
3E872645
3F8EB461
3ED1823B
3E57459D
3F4AF4F1
3F52EABD
3F1EFF7F
3EB05552
3F20839E
BF86B0C7
3E49DF38
3ED6DF9D
BDEF344A
3E640F22
3F0E6B4D
3EECEFAE
3EA87445
3F782F35
3F3861E6
3E101191
3F6D8EE4
3F44B76C
BCED016D
BD88DC1B
3EFE6028
BC83A04F
3D387A80
BB2D6183
BCA8DC01
3F559A4C
3F59729A
3D6D84D5
BF34DEF5
3FA655B6
3DDF4B75
BEEA195D
3E9B0AD0
3F2AA298
BE9A89E3
3F712127
3EDC1748
3F2FAC89
BE90AFF0
3F13FF2F
BE07514C
BF03593A
3D8B97F2
BD84AFE6
3E11C86C
3F2E5DD0
3ECF4D6D
3E1E0497
3E7AD17F
BF2EF983
3D48CAC4
BD7043AB
3F9925E2
BF0272FF
BE9CC83F
3E6A4DF6
BE76644B
BF4D1010
3F098A83
3DE6C126
3E3E2D70
3FC10D0D
BEE28AD0
3E8D3A02
3FAFB309
3EE9829A
3ECCC17E
3F7B90AE
BE9DEBFC
BF5B4FD6
3CC29CD2
3F58BAD6
3F893AC3
BE15BD91
3F32EF57
3E7817C5
3DDF9FDA
3FAF1D95
3F0860E1
3E24A768
3FAD1C15
3EF78371
3F8B8A27
3F4E2CFC
3C13DF0A
BEE40E04
3F12886D
BED90F91
BE9378D9
3F971FCB
3FC3DE1A
3EBE2683
3F17087A
3E304950
3F2F3819
BDA3514B
3E390BA7
3F2058D1
BEBF59B1
3F3377B3
BDFC8D1F
BDB82EA7
3C55D1A3
3E8A38BD
3F640157
3D8CD2D5
3D5AB44F
3EF87DEA
3ECDB925
BD08F9C1
3EA3E494
BE44C883
3F144241
BF71DCAD
BD4988AB
BE13C768
3E959336
BF052E20
3E40B266
3EB0CBFD
3E7162C3
3E7D080B
BE0014BC
BF193DF5
BE8E02C3
3F686F5E
3E637C51
3F1A05FD
3F8A66DA
3BA7ACF4
3F5B9227
3EFC5B20
BF4D6125
3EB3F454
3EEDCDBC
3F58B026
BF2A1DE7
3E6822A4
BDBD93F9
BF7C866C
BE117263
3F19546B
BE4DEE84
3E5C7101
3F77903B
3E2D2D1C
3D937A3C
3F29FC4A
BE17FF2D
3E98B1EF
BCB51BBD
BEF67360
3E1479B8
3F628D67
3FA24735
BCC8D816
3E29E1A0
3F1CDB02
BE875AE1
3DEC7722
3E0D1DCB
3F600B72
3E909637
3F750E66
3EA5A84A
3E37EE35
BD489E4C
BEB7A83D
3F2CA8BD
BE2E060F
BF7B5262
3EFFC886
BF804D92
3E73B5C2
BDB0B53A
3E999D81
3E87AFA6
BF579DB9
BF4C3ADD
3B22200B
3D09DEBB
BE36509E
3EE3384A
3F184830
3F37DCDB
3E7BC81E
3F1ABE1F
BF3CE86C
3DA5C87C
BDD667A6
3F026DF5
BAB7F283
BE0702F5
3EBAE297
BE96DFFB
BE3AB632
3D013B8C
3D8FBC14
BE255752
BD5E8718
3EC008D5
3F08E7FD
BF45C2BC
BE6B0A47
3ED1FBD2
3D4759B3
3ECB2D5A
BD0722AD
3DACBD82
3EFB365D
BF0993BF
BE746299
3F264636
3F141E83
BEA7CA0C
BEA76ABE
3EF53640
3DD58212
3E957A1B
3F1C690A
BDCF4FF3
3E19A7F1
BEFB4743
BE4A3580
3F31DD4A
3D69CB28
3EF73552
3E34EA27
3F28B677
3F1CE979
BCDA654A
BED4902E
BDAA60F0
BF1C378A
BEEA9711
3E931223
BF548BE2
3F093E89
3F03E7C9
BF1DBF18
3E7978F3
BF18B1F3
3E7E72A9
3D798397
3D566C2B
3E425EF9
3EF1A68C
3EC5CD88
3EA78A84
3D324E71
3F0F9EF7
BF55280C
BDD300D6
3F30343D
3E72D3EA
3F0D0E88
3F863343
3EA39105
3E7BB7CA
3F4562F0
BF94788C
3D2E4EE0
3F11471B
3F66FE40
3E91FC6A
BDA9A8DA
3D7F411E
BF8670C0
BE003728
3F24636D
BF1A8C93
3EE71B36
3F26CF79
3EAC0A25
3D5CEAC3
3E0CC638
BEAACBAA
3DB8808B
BE5DF180
3E9D4DB9
3D5EEA42
3F7EF568
3FA6F96A
BDF4BE98
BC7853D7
3EE25E32
BEDBF12B
3DD767E8
3E2A88FB
3F761A75
3E50ED4C
3F3B4CF1
3EA60B2F
3E87F4FC
BE208252
BEFE56C7
3F2CF90E
BF01DFB4
BF582BFE
3F54A275
BF50807A
3EA9F4AA
BE9005C6
BD5FE05A
BE515CC0
BF58151A
BF0C3E49
3E47866E
3EA34B9F
BEE3A646
3DE9B910
3F5A3520
3F636C90
3F6003F3
3C7EEF88
BEF415B1
BDBBF1DD
3E599D8E
3F0A96C3
3D2A5EC0
3E8B6237
3F3DB69B
3DFFB9B1
3E6D2779
BF2FB15F
3F8966A3
BEBE9F80
3D1F7DC3
3E9CFE37
3F26001E
BF3A8C50
BEBE3588
3EE65A5B
3ED9F043
3F084099
BE5FAA31
3D75283F
3EE76474
BE10FBE8
3BFAD837
3ED0045B
3F68F2D7
BEDFBE77
BE598B11
3F110A41
3EC6F17E
3F7B2DF9
3F262376
3DD1F455
3F5E6C02
BE95AD5A
3DDBA806
3F1DFA1B
3E22C34F
3F709B62
3EC5ACEB
3F84064D
3F6F15A3
3F034596
BF147F08
BD88B5C4
BF1B99D5
BF08655F
3EC85713
BF43CC6E
3EEE3112
3EDE947D
BF4693B8
3F385BC6
BF1377B1
BEE9FFCD
3EA9DA22
3E4E1CC5
BCA5A746
3F4017EF
3F03E05C
3EF29A50
3E938FD5
3ED45A61
BF026F72
3BE25498
3EBCA135
BDD50E14
3DE408D4
3E9B5E20
3EEE1E5F
3E8FE608
3E8A3815
BF63CAC9
3E884B8E
3E625CE4
3D834B7F
BDA5F6C2
3EA18C9A
BF503010
BF49A465
3E8C0446
3EA305CC
3E27EABB
BD6B64BE
BE3A787E
BDAF7D8D
B89F4F5A
3E94CDD0
3D281772
3CAF99AD
BD9FCB5C
BEB2389E
3E7E19A6
3E52264A
3EFDD5A5
3E8701CC
BE6E7CFB
3F085622
BF1776FF
BD58A8D4
3EC739F2
3EB55D64
3ECD08A8
3EA1F760
3EBA2CBA
3E699DB4
BE5578C3
BE5B551B
3DADED63
BF03984D
BF8AA97B
3EC7BBAF
BF4D9816
3EA30D48
3E4A3AAD
BE8DFBD2
3E42A8E2
BF275BBB
BF605AE1
3E68CBEB
3F318032
BD024876
3DE60929
3F148758
3F07B61C
3EF5FBEF
3E1F23CF
BF04D94E
BE8D1C9B
3F6C18E4
3E3EE4D3
BCFBD770
3F0F910C
3E4AD5F1
3E5D202F
3EDE4C1A
BEDE7CF6
3F729ADC
BD208C27
3F226CBB
3D0D45D9
3EB61265
BEF3A142
3AFDC9DE
3E36777C
3F281040
3E9D0A0D
BBCCA618
3F05BB53
3D04329B
3D2EE91B
3E36E43C
3E215DAB
3F0C8E04
BDBE7124
3D5CFF11
3ED33FD2
3F348EDF
3F7D1A6A
3DBFFCD2
3E96AD99
3F149FD2
3B08D4B4
BE1D3C09
3EE0F44D
3EE0F6F8
3E91C8B4
3F12AD9C
3F25DE05
3F0CBB4A
3E99A19B
BE16BB18
3D2045C5
BE8DBE96
BEFED3EA
3ECF6DCD
BF412335
3E8E1EFE
3EE96E57
BE7C7765
3EC1EDC0
BEF0C1F3
BF0D27F9
BD9489C2
3E350C73
BD84088D
BDA3F153
3F061897
3EDB23AD
3F431223
BEB796E1
BEBEAA98
3D8A3C97
3F0B0A4F
3E34A0C6
BDF97D54
3E6235AE
3E67C0C5
3E6280B8
3E7B5888
BEFA2135
BD1CDF15
3D02AC2C
BD0AD1F4
3DBC46A7
3EC9E225
BF573846
BEE5AE18
3E97A2E8
3EDD2298
3E950A17
BD282D87
3E6DF664
3E3EC77B
B9D63C59
3EAEBD0B
3DF8A564
3E2D4EE5
BD1B3AAD
BD1A1E4A
3E197527
3E1D1450
3F22ACBF
3EA5AB2D
BE39F5B2
3EC5CEEE
BE4C1C19
3E39A723
3EC99943
3E42130C
3EEAD19B
3ED4963C
3F1CA8C3
3E9FF1B6
BE51F3C1
BEB3CBC3
3D1D860F
BED33640
BF470CB6
3E97561C
BF1E3716
3E05A328
3E312CA7
BDFB7D9B
3E268B94
BF1C22CE
BF2FD404
3EBD74DB
3ED0A825
3E42EDCC
3EA5EC44
BDFC0D67
BCA42BBB
BBDBB8DF
3CE30565
BD6285A7
BE501C3B
3F4F8822
BED173FE
3DA79C97
3F15274E
BE02C518
3EFA4F41
3DDAC0B0
BEF46264
BD9B449B
BE4CCB0D
3E507089
3E3C3F66
BC548128
BEB429FB
BE300273
BD8ED00E
3ED634BB
3DABE9AE
3E363EDF
3ED635B4
BE4D4070
3E29D5C7
BD84BFAA
3D5E746A
BE8E91A9
3EA8DC8A
3E0B17B8
BE08D5B6
3F10BB0F
3F34B8BE
BE282390
BE1CEF6E
3E57E5FC
BE337096
BE248820
BCED287F
3F240D1C
3D8F34CE
3EBDE357
3E2E32E9
3DFC3E5F
BEAF53CC
3DDF4371
3E8A3837
3D108710
BEBBC53A
3E6B0376
BE19F238
3EAEE291
3CFD0A47
3B1F0711
3D4AD090
BE01AF24
BF003184
BE19ED16
3E644886
BE9AA767
BE556847
BBF1AF26
3DDE7A55
3E423811
BDA51492
BE0C36D2
BE0B149B
3EE935C2
BEB0DE37
BE1743A1
3EF7D92D
BF042266
3F51E714
3ED654E0
3B02F761
BD98FB77
3EA4D98A
BE4E5401
3D9F691B
BDA023BC
BF5D3F40
BDE9C7DF
BDC7F958
3EECFAFC
BCF595B2
3EA58751
3E15C8F5
BE84266E
3ED70162
3ECD2361
BCC95A4E
BE90C514
3EA4EACD
BE123A1A
BE6E37CA
3EB32844
3EEC47F5
BECD3E4C
BE702E5B
BE9D1DF9
BE0CCCA5
3E22D1F3
BE48C39B
3EC8D109
BDA78F28
3EAE18EB
3E3CBF9E
BE599289
BE7F4108
BE990803
3E52A89B
BEC3F0A7
BF2D67DF
3E20F9EB
BEA708E0
3E4FBEB5
3D712C72
3F15CC8A
BE30AF3D
BDD23404
BEF49DD9
3ED01AD5
3ED887B0
BE316C95
3E9078ED
3D4AAAF1
3E94042C
3E20E313
3DA74052
BE19F53C
BD39DAEB
3F495FCC
BE08DF2B
3A88EA1C
3E9EC365
BE126B89
3E0EE061
3E7D0B55
BEAC7F7D
3DF42561
3C6442C7
3D89BCF3
3E7DAF47
3D0F39E4
BE640EB2
BE80AEF0
3E109203
3ECB7892
BE58D420
3DA8C2F0
3EAD8281
BE3F2C4C
3DA38BE3
BDA02841
BD012982
3D5CEAB5
3EBCDC36
BC5B6297
3DCA3D54
3E87EA30
3EBF8353
BD0A1949
3E6415F9
3F198D66
BC66D012
BE1608F0
3DC3CDBD
3DBDEC4E
3E33F2ED
3CD8DB03
3E9F580B
3DBD5C7E
BE001ACB
BD88DA0A
3EA87F63
BE4435CB
BE82AA2A
3EB38E6D
BEA0DE31
BC5F0651
3DDAB5B6
3D93C290
3D5E9B9E
BE9412DB
BE80EF19
BD8FA84E
3EC4B86A
BE782E53
BDE7F656
BEA02310
BDFAF58C
BD3236FC
BEF043AA
BC92147D
BDE21356
3EDABA77
BEE688C6
BE0B7144
3EC2FAC4
BEBF55E8
3F0D0DBC
3E629A92
BDE10CE3
BE8FEB44
3E4456D0
BEA350EC
3E030F6A
BE23D7BE
BEAAC818
BE517936
BD9783BC
3E8FAF9C
BE2D8D6D
3E9F6F92
3E74B539
BEC20B7E
3EC38128
3D9F484A
BE3D57D5
BF2737D2
3EAB7C4E
3E445848
BDA8B80F
3E967DCE
3EC950FF
BEBA0759
BE341436
BEBE2B1C
BBE61E45
BE281ADD
3C6F7EDC
3EC2FB43
BE630014
3DBBD0EA
BE6DBD55
BE384CB6
BEA9780C
BE83BE5F
3E9D35DB
BD930C28
BE9C984D
3EAB07AD
3E00D1DD
BE080108
BDF1F3BF
3EF22E20
BE8708F0
BEF60DB3
BF3DF1BB
BD4EC959
3F12084C
BE21AF8E
3DD69DE1
3E0F9803
3E038450
3E0CECDD
BD28F942
3E048713
BDBA4A98
3F3A0386
BE22FF4C
BE085585
3EED5713
BE8CE94C
3EF9823A
3F0ADA71
BEC3CF56
3D8FC257
3E659300
BDBF5B20
3C9A6AD6
3E1B3158
3DD31284
BE8BF610
3E7C3754
3F33FE7B
BE4A5419
BD9ECAA9
3F0E9FA4
BE8A242F
3E06DB1C
BCB5F0D5
BD9C3F88
BE1B6B71
3DAFC360
3D3ADB70
BE12AD07
3E9EB579
3F24DD42
BE138E2F
3DFBF5F2
3D4B2CCD
BDB0BBF9
3D6E483C
3E440395
3E434059
3E004D81
3E6C79FE
3EC71814
3E357529
BDB8C999
BE2C8384
3E9E593F
BD5EC73A
BE6B5CA8
3EFD59A2
BD27E0F4
BBF48C96
BDDC2A2D
3E1F3AD1
3C159142
BE6DDC3F
BE798706
BE061BBD
3E1E6E95
3EBED3E9
3E1B6ECD
3C91704F
BDD6D2E1
BE9443A9
BE0EC790
BE36DEF7
BE183A10
3F0E1664
BEACE482
3D8BA239
3EE6C3DE
BEA0E283
3F24DEE4
3EEE8A45
3DB652FF
BE0BA59C
3EF8961D
3EB4355B
BD1B782C
BE42E33E
BF267A60
BE39E02A
BE35F8BE
3F330DD2
BE218765
3E184D71
3E981D4F
BE93B545
3E2D9E0A
3EFF280C
BE3A22F6
BEB499D1
3F4E2B68
3F247196
BF07E298
3EC98B8D
3F305A31
BD9785C5
BE42688A
BE6A4B8A
3E8B5145
BE58D06E
BE976CA0
3F218263
B94BC587
3E9F5B9F
BE805AE0
BE852E51
BEA3088D
BEBEAB80
3EA18224
BEC04E88
BF34A6E3
3F1EC479
BD8016D9
BE8E2289
BDA7205F
3EAAC768
BE6021E6
BF1F5AD2
BE8D5262
BB86F629
3F192FB1
BDB5F073
3C1EAB55
3C845A09
BCA2778C
BD9A94C7
3E7E0CB5
BE347D01
BE261D06
3F48F5BA
BE5DE22C
3CBE1952
3F10B7C1
BE4B09EC
3F450773
3F12C2FE
BE7BB1D3
3C8E86CE
3E7A467F
3E65AC06
3DAFAE54
BD49E4D8
3EE69EE7
BE189FDA
BDE93705
3F3803A8
BE91B3EB
3CB7A6FF
3F0583E7
3D2D4E58
3E84DE16
3ED44DAA
BE101BC5
BDDEC2EA
3EA47CCF
3DE4D5F0
BE471D70
3DC1276B
3ED672BF
BE7AE7CB
3E318FA3
3D425143
3E3FBB50
3DC03CD1
BE1BEF5B
3EB75469
3CEFDBE3
3D1E078A
3E02C819
BDB3B552
3DADE9CD
3DC6B540
3EE1E075
BE95E203
3EE3791B
3F0AF3B4
3E285657
BD482631
BD3DFA43
3EBC0403
BDAC4CAD
BE996477
BE4EC59E
3D2AECCC
3E392889
BE651C64
3E41B432
3DF46BD7
3D0CDEAE
BD8967D6
BDEE48CF
BE9AD082
3D49CB38
3E329FF6
BD8ED254
BE9416EB
BBC784B7
BE39A0F5
3F0EA2B0
3EC703BD
BEB04FD7
BA924356
3E008012
BF17444E
3E0036D0
3CD5DCB9
BF0630C4
BF6E61D6
BC89DC40
3ECBE50D
3AA496E8
BD7C9E30
3E0936D6
BD8CDE39
3D6D54B5
3E6ADD8E
BBCC7F0E
BE4A7A59
3E0AE304
3E630E43
BCB9DEF5
3D608B45
3E974FBD
BE1A7336
BD608559
BE188EA5
3E73626A
3D9C5569
BD80249C
3E12BDBF
3BBCEC95
BDDD3798
BD99FB2F
BE4BA4DC
BD8656A4
BF0C2618
3E51F596
BF1A578D
BF04EC39
3ECA9956
BC81B4CE
3C92A625
3C8F7BE5
BD79BD1A
BCB30A0D
BEEBA9EA
BF3BC3B2
BDCA7564
3EF44725
BE619ED3
3E3B28FD
BCB506B9
3DB61ED4
BE4A23B8
3E8D5387
3F0C378F
BE062798
BE0E139F
3C787B87
BD3F4FEF
3D5A9E78
3EA3026A
3C953884
3E83760A
3F2B992E
BE30D1B3
BEE0E8E6
BE842047
BE409E46
BD9B9888
3B7FACAC
BBC3DA4A
BDE13084
3E912C68
BD45A44E
BECCAF2E
3F278140
3DAA0160
BE966080
3EA75FE1
BE0C891B
3D758F19
BC9D788D
3F308A67
3DC95785
3F513BDD
3DC16DE6
BDE825F5
BDDF1A27
BD1C346C
3F4B257B
BE0F0A4C
BD8F20AB
3EDBFF64
3D923EFE
BD2F0FF0
3DB67354
3E202A01
3CE312C4
BD45483C
BD6B7BAB
3EC89ACD
BDA6D869
3BBF0613
3F2FEA29
BE4CAA99
BE1AC6BA
BE1A508D
BEC677F0
BED06044
BEB13F7B
BCCF710A
3E69DA8B
3E32BE7E
BE10B689
3E8568D1
3DB51070
BD43A0E1
3E184296
3E2F1834
BD52A348
3EDA0B02
3E20CB54
3DE12504
3D03B964
BE1DAF48
3F026BF8
3EAC2A4F
3EA44B49
3DE1A527
3E09791A
3F2F40FD
BEC0C6ED
BCE4FA31
3C24B0F2
BF4C714D
3D18E7DC
BE324FED
BCB538EC
BD7EB84B
BE0A0B8A
BD9379B1
BE5CC415
3E2FE181
BE402CCA
3E2E5BC3
3EA3F4E7
BC0C362B
BCBBA3DE
3DDDA443
3F18382A
BE4B5D77
BD4D2786
BE21F919
3D938B6F
3E9B95FE
BDA4AF14
3F003396
3DABAB40
3DCF73EA
3C36FD05
BD8A3F3D
3D886051
BF01C465
3EB3657C
BED7F92F
3DF0015A
3E732BEE
3E8FBAB8
BDFFFE44
BC8C6F18
3E2D2AAC
3D389523
BED84232
3E1BAB7B
3DF3811D
3E4B7970
BE5D9D48
BBDF23B6
BE1C15D7
3D80A7BC
BCC4CF24
3E6B9E25
BDEAFC72
BE278CFD
3EDD465A
3CC7A75E
BD7C5934
3D7BCAC9
3D332347
3EA48402
BE7A56E5
BD323568
3E04C127
BDE39FF1
3E928A07
3E2FE5C8
BDB48F87
3BE4B7CF
BD03A514
BD38E532
BE1CA6DA
BD581C56
3E8CEB13
3EF7711A
BD34DEEA
3DD15B7F
BE1F9C58
BDE5BEA9
3E202D07
3E479421
BA8BD605
3E970296
3E48E819
3DC4CF9B
BE1A44CF
3E00CD4C
3D911B2D
3E2FAAC8
BE0890F0
BE1CC5AC
BD8A85E6
3CB27361
3E89A0B9
3DBB59B7
BC51A439
BD3ED91D
BEBE26CD
3E0366CF
BE74C889
BE264B44
BE5315F6
BD10DA5F
BDFEC5D6
BDB21D5E
3E267E41
BDF02A36
BE93D899
BE99B603
3D0077FC
3E709C02
BE911969
3E5D9017
3CB06C42
3C18DC83
3D8CCB90
BCCC1F93
BEB390CF
3DA488AB
BE162AF3
BD64D463
BE8B299E
BE385446
BD220973
3E3B6A6A
3B1C3CDD
BD20DBB4
3E1C28B1
3DD3B595
BF1BC275
3DD5475F
3CC1E5A6
BF1482F3
BF36B264
3D2DBB15
3D0A7305
3D00D4D7
3DB12B55
3E0359F4
BE10AA3B
BD77C1F4
BDB7D612
3DC4AC69
3E5CD044
BD50C3C7
BE601673
3E1E8644
3E31E16A
3D535093
BDA98218
BE072328
BE5C9C39
3EACE8E4
BC1D4008
3D86463B
BE74BC3A
3E8127B2
BE1B546D
3D849658
BD3538A0
BD0B8B03
BF005C09
BE0D18EB
BEF61739
BF0106B3
BB3B3E6B
BD1E825B
BD442E6B
3D19D848
BD146315
BD86D360
BF44FA84
BF51C927
3DE2CFEF
3E89FFF8
BDD6243B
3E63829D
3E225A9F
3E088CCB
3E79A3F7
3F0F9264
3EAC37F1
BE07A20A
BEA17EBC
BA337800
3DC89956
3D174FF8
3DFB690F
BE9DC828
BDA1389C
BE089326
3F35A8C6
BE24DD1B
BC15142B
3D3380C5
3D9654A8
3D8ADE1D
BDE321BC
3D0E8ABA
3D6DF5ED
BBF761C1
BE40BC88
3D9A6552
BD23DE98
BE59CD00
BF155F85
3D1EEB9D
3EC9C2B0
BED0642A
BED4B632
3EE99755
3E9A7ACC
3E0D97BC
BDBB8390
3F1E8C57
3EF811DC
3D96B8BC
3EB493A4
3D55EFB1
BE554B4F
3ECF4128
3BA03EED
3D8BDCD1
3E1E1B6B
3F000373
3B9239AF
BEA7B376
BD429BA1
BD9570E6
3B678211
3EA936B4
3D2F20C2
3E0B33AB
BDFD4FBB
3E458670
BE89EEC0
BCD5723B
3E0B4C22
3E35135D
BEB542A9
BD82F52D
3D9E6954
3CDB5434
BD97E67D
3D7D9EBE
BE676EE7
BDCAD0B5
BE012BA1
3D277EAE
BDDD0940
3EBD3B11
BD957D8C
3E69CCDD
3E9730E9
3EE1D326
BE0E93D2
3DAA6422
BEB11467
3D8D71F9
3CE071CB
BF29623F
3E4BECDF
BCB18505
3EBFBE69
3CB030FF
BDDA1A0B
3E1E4F90
BDC9736C
BD84889F
BE4CA51B
BE1D1363
3C7F3185
3E60704B
3ED7310A
BD1BB14C
3E2D0BBF
3E222123
BC02EAA5
BDCA0C22
BE8EA278
3E8E1CEF
BE1EDC15
BCDC47B1
3EBBF4A0
BDE1B897
BC38C0B7
3D2729C4
BC800643
BD96B5E0
BF117838
BB811C29
BE4C208B
3E0B01A0
BD6EF5FD
BE499A89
BD7125DA
3D9BAC03
3E212457
BE5C816F
BF3C3A9A
BF440E25
3E9F7F28
3E2BAA1F
BE126FE9
3E46C7CB
BDE63F97
3E1C40DD
3D78AB75
3E906CA1
BEA83141
BD0E9FC6
3E8E6556
3DAB7DA9
BE030351
3D276FA5
3B47FCF6
3DCF7585
BE5DB2B0
BDD88B74
3F0B9467
3E3B88EC
BCDF6B04
3E24EC74
3E0B08DA
BDB41577
BEC5D89E
3DA7F47C
BD5131C1
3D3A1736
3DF60FA2
3E7ED952
3D647985
3E2E3212
BE037337
3DBA94BE
3DAB9855
3D9477A1
BE25F73F
3EC63544
3E6271BE
3D6DA10D
BA83A01D
3E3F0FB4
3E49F3E3
3E733A99
3C0C1F09
3E0777B6
BEA0962A
3EDC7676
3DD700E3
3DFD9B76
BCF98BAC
3EA23952
BEA2B3E2
3DEAF9B5
BEA968C2
BE4DD62D
BD33ACDC
BD96C132
BD25F18E
3E67C2EF
3D913553
BDFE0A30
BE8EA56C
BDD66497
3E3373CC
3EE04AFB
3DB169A4
3ED3694E
3EBEA9D1
3E945EE6
3E6EFCD3
3F0A8538
3D41A5FD
3E160BEA
3E84EA6A
3DE28E46
3E990001
BD4E27A3
3D42E2B4
BECA2E6A
3E176569
BB2D8CB9
3ECE9BCD
BE864D73
3EAE36C7
BEB1FAE1
3E2C6E6A
BF12AECD
BE005F05
3DCB2FBC
3E925253
3C093372
BEAE6C56
3ECD60B0
3D006161
BE89F2E0
BDC1EC92
3E2D951B
3EA93A90
BF1C8E59
BEC419A4
3E879C94
3F0252E5
3F267796
BDB8BB76
3E376AB2
3E826A00
3E873653
3E883B56
3D326D53
3E1672F7
3E9CF958
3EA180A1
3E68FFB4
3E592173
3EE084B1
BEFFC7F6
BF18731D
BEDA8309
BEE1715B
3EBC8A40
3D01BA94
3E0D57F2
3E629257
BE9C4EB1
3E98559C
BDDA5963
BED98333
BDA408CB
3DDED533
BE9E0D96
3D5A4297
BE1B42BC
BBC74F29
3D482138
3D9D740F
3E14B947
3D39D928
BDF55A35
BE48C654
BE87F1ED
3DF879FA
BDACCBAB
3EEDD401
3E612328
3E4E3C0C
3E8C68D6
3E081CF6
BECFD021
3E858A26
BCFAD739
BD7D4AEE
3E2AD41B
BDA78385
3C2EA18E
BDD75F76
3DE1DB58
3E33D2E7
BD3F4ADD
3DC5676B
BEAD2416
BD0BD810
BD576A6B
3DA997F8
BE79B7BB
BE172292
3E3C3E7B
BD663582
BE3EF281
3E2F488F
3D306312
3DBDC25B
BCDB91C6
BE339819
3C8BA16D
3E3FC188
3C915A67
3DA62505
BE2F8E9A
3C767F1C
BE908757
BCE2DCA7
BEAE2DEC
BE66EF9C
BA84744B
3D827270
BE3D6343
3C1C006B
3E3812B8
BE07C065
3E07B8BA
BEB70A1A
BCBC99CF
3E29061A
3EC833CD
BD98A94C
3EA661DB
3DBDCC0B
3E37B557
3DC4AD5E
BEBCF824
BBC599F7
BA4D92C0
3E8753FC
BE2F9EFA
BC9FD352
BE957021
3D727B54
BE1585C8
BE87238F
3E9F0080
3BC7092B
3EA181A4
BE108201
3BEA71F8
BF140B6F
BF201015
3CD93352
BD754F39
3E90C0C9
3D8A6130
3D9FD37E
3E313E0A
BE5EA1CB
BE0026E1
3D85F462
3E0FFA8E
3D5AFEBF
3EC94761
3DD47DF9
3E21C94C
3EDD8742
BE3B0369
3E8AB8AA
BE1B992C
3E0AD646
3D95F912
BDEB76F0
3CAC51D0
3E6C1752
3E3DDF55
3E2B2ECC
3DD2857D
3E8EFC84
BF306C5C
BEE45833
BEEDCE49
BF291ADA
3EC66A15
BE3C79C9
3E9EDBB5
BD063CB3
BE89C665
3D1F5315
BF0C71C6
BEDAEDEB
3B7CC472
3F29E937
BD65391A
3DB18080
BDA94314
BE51F03F
BE5A3101
3DF05684
3ECCE2C3
BE30B401
3F684AFC
BDE9C3F5
3F322DDB
BD089C93
BD9AF5C1
3ECC5CD3
3ED7F8E6
3F3E3F30
BD86C8A9
BEDDFD12
3F405803
BE0E67FF
BE414025
3E3DB68C
3F3409B4
BD1AD977
3F15D9CF
BE001623
BE0FB02D
3F5B185F
BE88BD0C
3E5E9911
3F12B786
BC0E3B35
3DD90457
3E233FEC
3F00ACAD
3D90F037
3E1FD25B
BE0ACCC8
BE24CB1F
BDE590C2
3E0096A2
3F0100AE
BE07D508
BE1A1F53
3F111403
3D1871E5
BE01E5F0
BD9870B3
3A82323F
3DC9A869
3F003463
3EDACCEE
3EA5A08E
3E1AD772
3CE88AA4
3C933EB9
BDF16FA0
3D8F603A
3DB379DE
BEA0710C
BE60593B
BD988336
BD914CFF
3E435CE7
BE593E3F
3D0F2058
BCB3357F
BDC421D5
3D652460
B9BC7FAD
BE92A371
BC761AC4
BDB9D908
3D2C2B07
BE8EBD4B
BD57AD3F
BDA770DC
3EEAC147
BE1A978B
3D301888
3D1F82DF
3AD77DE4
BF09854B
3D9CA03A
3BEF76A6
BF1A4154
BEF00904
3B909E86
BE38F6DD
BA38F88F
3EBC3619
3E6BA042
BD0A07DD
3D9C2C45
3BD09AE1
BCE8C5CB
3CDE59E4
BB68BC96
38664954
3E529FFC
BC9C3DE0
3BFDCC64
BE1685A0
3D0BCD96
BE852886
3E3D3EFE
BDAFB0DB
BE046CA0
BEAB1B76
BDA5726E
BDA748BA
BDE11291
BDB13D89
BDA5CE2D
BF2C2BD4
BD6AE916
BF033756
BEDB365C
BD81AE4C
BE624F01
3C8FCAD7
BD65CF9B
3E559C5C
BDA9C0EB
BF2A0E54
BF4DF379
3DC10DDB
3E434604
BE08350E
BD9BF593
3D005421
3D0A7A43
3E870542
3E4D62FC
3E13DF38
BD9BA509
3E387091
BDFA9B8C
BDDD1BBB
BD6613E2
BD9AE1CB
3E9AB192
BE01CC28
BE38F558
3E9C617D
BE11929F
BDD36A61
3DF8ED67
BDB7C474
BE51A19D
3CC09B5A
3D1182B2
BC73B906
BE15C316
3BBE2E3F
3EE25C45
BD4FB53C
BCD2EE51
BDFE3BDA
BDEBA0FD
3DE3FC48
BDBBC0F4
3AF1302A
3DAAA439
3EAF7737
3DEA5E35
BD646A9A
3E41925B
3DDDBAC9
3E436FF3
3EBC8AE9
BE35AAD0
BDA29971
3D5E1F93
3E7DDAE7
3DCADC77
3D9C240C
3D8C2FC7
BE4283CA
3CD9E33F
BE1F5D65
BDA2A5A3
3DC78275
BCDE8179
BC97E15D
3D5D47C3
3DD7D815
BD79D626
BEC8632E
BEB26A71
3C26AFC7
3E1EF407
BD06DAE6
3EDB6F81
3E3199CD
BD28EDD2
3CB378B3
3E3BF276
BD0952D6
3C33A4FF
BE1DCD35
BD81D44C
BE30FA7E
3F04B47B
3DDC21AC
BD2DB51F
3EF2923E
3EB3850C
3E4F8016
BCB0600E
BE07D655
3D10D37A
BBE48EF1
BEEEDE3C
3E95DD02
3C2293AC
3F025122
3D231B64
BD3E540F
3D965B75
3C48B08C
BE0CE240
BE4C1351
3D66F78D
3E055FA0
BDBF5ABE
3ECAC71A
3D1F5EF0
3E2ECBA3
3DC33067
BD60035D
3EBEFDCD
3ED163A5
3E82015B
3E274684
BD845A0C
3EA2F1F5
3E2BD34C
BC9EC0CE
BDC12CED
BD245F5C
3E947C85
BE9201C6
BEA34B45
BE2700A1
3E7A98B1
BC3316F6
BC68689D
BCF4B652
BDB2CDDD
3DD68C90
3E2CE942
BEFE3CAB
BEE782E9
3E823D49
3E849C15
BD2D0DA9
3DCD056B
3DEADB22
3E88B8F2
3EA4CE00
3EB25E2B
BE0A0AFE
3DEB8B8E
3E74183F
3D124D8E
BD6B58D7
BC85BE57
BDB7A51F
BDF143EC
BD95C236
BE7A7DE7
3EFB398C
BC8575B9
BC1DA930
3E2579F5
3E79C24E
BD57A5C3
BECD20AF
3D83C9EC
BC71AA85
3C15F070
BE30C2A8
3E83D897
3DF96F65
BDC6A529
BDB61E54
3DDFC4AE
3E9D54B9
BDFD42F7
BEB5416C
3F031530
3DE90D23
3E33CDBB
3D21E0A4
3EC6F5C5
3F0BE662
3E32E6D2
3ECD90D7
3E63182A
BF043397
3ED57D7A
BD8C43BF
3E0AB9FD
3E1F3718
3E851A1D
BEA8948A
BDE12E82
BE6B39DB
BE3D32EA
3DAE50EE
BDCDE9D6
3E5DB135
3EA86830
BDFE2B12
3E0859AE
BE41BEAB
BE322375
3E70FF48
3E8F58C2
BE75E8CD
3E17BE6A
BE067F67
BCF356C9
3D75A9D5
3E275A3D
BED3AFAF
3C54B317
BE3967C1
3C28E018
BEB07329
BDFFC8C3
BE287D2C
3EAA6DDB
BE85BE7B
BDA2A896
3E3F8386
3E4CC3CB
BEC289A1
3E739B82
3E296744
BF1D1033
BF1890EE
3DEE9493
BD9E6460
3E42B5A2
3E493787
3DEF3E66
BD05A6AE
3D66CD92
BE5DA2C6
3E3E4249
BD9ACF46
BE2EA4B4
BD32DA29
3E3DB6B5
3E5664EC
3BF7A1A4
3CBCDB85
3E05A82E
BDA622D5
3EBCD757
3D6E4E65
BD24F1C2
BEB1F18B
3E31E2EE
BD4C64E1
BE1B4589
3D474C92
BB9348AF
BF02CC76
BE824E96
BF102440
BF366337
3DDDA9B0
BE3368F1
3B55E476
3DF99450
3DF8BFCA
BE408927
BF2DDAB5
BF3736B3
3D8BDCA9
3E244F2D
3C99D24E
3E72E39F
3E410EBD
3B399C0D
3E684BF7
3EDC9829
3E870623
BDE3D3A3
BDACD82B
3D7EC927
BD40C984
3DA15EB8
BD29C5BF
BE52399C
BD96779F
BE850D72
3EC0B332
BE04597F
BC8C12F9
BCCBA23E
BB17D9FF
3C23E9BA
BD8D9328
3D2EEBD5
3BB04675
BE239100
BE721500
3E280FA3
BD810A64
BE8CD21B
BEA4122D
3D6289D4
3E51F786
BEF857FE
BEA9B82F
3EC1F6BB
3E89FFAC
3E20F1CC
BD58FC03
3EE6BE1C
3EE1E273
3D836837
3EBC6FB6
3E201B66
BE1095FC
3EBF283F
3D968B38
BD92DF99
3E79E5BB
3EFCCA3B
BD401F33
BEE7EBA7
BE38F0A8
BE0FE2E8
BCEE4909
3EC89373
3DA7FE4B
3E090163
BE876804
3E460EF6
BDA97B21
BDA979FF
3E2C7172
3E010155
BEAF63F3
3DBEEE2F
3D8ACEAE
3DCFA7D4
3E63C0AD
3BCE431A
BEA464E7
3BD9FDA3
BE3EFD67
3C52DA59
BE89397D
BE141E98
BD8CDF4B
3E5DAE1B
BDA1F8C6
BEAC7D5D
3E94222C
BC6F2CCC
BEFBA4C1
3D0D277F
3E0C408E
BEF53402
BF73AFA0
3E2F2182
BE379B3B
3DCB6EB8
3D3CBCBC
BD951532
3DD3C7FD
BE11C124
BEAB4E23
3E736E72
3E72C849
BEAC73B7
BE5C2F37
3EC33CBE
3D1F0A35
3D89E68D
BD6F9F27
3E260C21
3DBEE7C1
3E09234A
3D96FC58
3D85F5F0
BEFAC8FB
3EC23ED2
BE3DACE2
3C6701BE
3D986EC8
3E907F00
BF33A5C1
BE39F1A7
BF06E322
BF2DEAE0
3C35FFA6
BE81B6AA
3D751E15
3C92D846
BDE34E56
BD01C2AE
BF31E9B8
BF2605B1
BDA57FB3
3DE0254C
BDE7D958
3E05DA00
BB08545A
BD12CA87
3D1B2B6D
3DA951E2
BED424C7
BDA2FB00
3F10CC5A
3A521D02
3E8AF922
3CEE23EF
BE889C47
3F1C35E7
3E3485B3
3EC7A6B4
BD963238
BD1B962D
BE687241
3E46CAF2
3D537199
3CAEA8EE
3E502785
3CCA520D
3E55D235
BDBCE69A
BE28FBFB
3F01D559
BD8B4178
BDAA16D3
3E84ED60
3AA29EC1
3E7505BB
3DC3724A
3E3EFA6E
BE0E6584
BD4556B5
BD649A99
BD7FFFD3
3C8E8F26
3CEFFCAC
3E0EA10A
3E86F311
BE280F32
3DED1A7C
BCF52EDA
BBEB7B1C
3E144919
BD86CE0C
3D452550
BE8D60FD
3E86A41F
BEAF97FC
BE59E1A1
BE5358E1
BDCF56EC
3D3F430E
BD3E2BFA
3DC3F52C
BDCC7E93
3DF52CD0
BDC4B570
3EAD8D5D
3E9B15F8
3F057E18
3F11B8EA
3E3FD4FA
3E163F54
BD3111B2
3DA29CB1
BD99C3B2
3E36BA8F
BEA8E7AB
3E0D46BA
BD23C257
BCDA21BE
3E211F64
BE011C65
BE781492
BF022F0C
3EDA4F30
3E21015B
3EA20188
3D77FA34
3D6FD42E
BF02F6A8
BF37E99F
BDF1AF16
BD718705
BC0DE97C
BD4D091A
BDF990A0
3CDE3932
BE9A2154
BEED998E
3DBBE754
3E8564FF
BDE3D1CA
3DFF9956
3E9063AF
3E88600A
3F3C322C
BD7648F9
3F377890
3E18CA81
BC73249C
BB3E4230
3DA2DBBC
3E7627F4
3ECA8FBD
BD852A67
3C84B07E
3E481EC7
3EE6B00D
BEE63616
BF25E52B
BEC240C5
BF092BAB
3EC63C9B
3C69B8DD
3D488169
3D31B34C
BEAD83C6
3E5F3CAF
BEF6A8FA
BF0717B0
3E85316C
3E0E1E9D
BDFA25EE
3D5DA73E
BA0E10D6
BC74049D
3E476918
3D98DECB
3E054488
3DD27284
BD99B073
BD338725
BE8C6CBA
3C9B94BE
BD0EE96A
3E401189
BE5FEEA1
BE1BA990
3DAC981D
3DDD8620
BEAC1573
3E0A4A85
3D732A8F
BD78E563
BE2AEAB0
3D300201
BE33CF4A
3DC8479A
3E2DA52A
3E4017E1
BE2150FC
BD2A0C59
BEE100A5
3B60DCF0
BD047011
3C6E5CB7
BEA50DB1
BD016412
3E6CEE94
3D683279
BDD8B452
BDFC4D91
3B608299
3E3B370E
BD253D55
3D32AD53
BE93746E
BC71F1E6
BE09C8A7
3CACB551
BD9BA4D3
3D94D5E8
BE82AC79
3E14046B
BEB047DC
BDCF8FED
BDC94943
3AF6BA5C
BDC1369B
BDCE8826
BCAFB13D
BE515EBB
BE8AC21F
BE88F558
3E30A013
3E171E0D
BE069594
3E55789D
3EC99482
3F0A226A
3EC49EA3
3EF08C2B
BE9101DD
B7101B23
3DA1F157
3EA367BA
BDA8C230
BDBAC779
BD9F0751
BDE97415
BD8F7747
BF0C08EF
3F222D0A
BCA77692
BEEE0338
BEAE7008
3E454DA5
BF334C82
BF486C1F
3EE0EE53
BC813011
3E7F9F6F
BD71ED0B
3D282F73
3E40463D
BEFB9473
BE416782
3ED8F35C
3F14618A
BF18D697
BE8C4B9A
3F155F26
3E7A327D
3E5104A1
BD21DB0F
3EF48A37
3E9F9C01
3E78DD10
3EEA7678
3EF00967
BF0D0EBC
3EE85739
3D687419
3EF4ADAF
3EA8B7D5
3EE3E6A4
BF2F2DED
BF3BFCA4
BF17C999
BF564A96
3E78A21C
BE8C3524
3EF6AF81
3E778024
BEDDD643
3EA4D7A6
BF07D77C
BF0EDFB6
3D0C7590
3E1E533B
BD1DB92E
3D542DFF
BD22F466
BD019AEC
BDF5C09F
3DAC057D
3EA5537C
BDAF2A8D
3F19FADF
3BD3D1CC
BDBF048B
BD8B5C13
BDF57AA9
3EBECC94
3EBAB2B0
3EB0FDBD
BCBD69D3
BD27658F
3F0AB090
3E30F4BC
BDC388B5
3EEA3CC3
BE408B60
BC5493A9
BE81790F
BDA38E78
3D448C90
3E60CA4B
BE37C8DC
BD33F833
BE298A63
BD92AE42
3DD526DD
3E899FFB
BE70A2D0
BC656F30
3E20C98B
BE198FA0
BE296C2B
3E3C926E
3E2B19BB
3E43B7CE
BE2F19D0
BCE29410
3E5A6825
3D8016B4
BE42A96B
BE214F49
3CC6821A
3E314B99
BD82E828
3EEBF14B
BE1A3497
3EA408B6
BE2E3084
3E9830C9
BE140BF7
3B78B9C5
3E8E58EE
BD018C4E
BE0D43FD
3E9791F2
BE6C504F
3D60F190
3E0B9E5B
BD98E92F
3CA46FED
BD4782F8
BDC646F5
BE3153B8
BE257716
3BDCA69F
3E25D014
3CE178CC
3E1AEF7D
BDCC1D95
BE4F168A
3F209E66
3DD77AF6
3EABEFBF
BE51FCED
3E4F9856
BDB46B19
3D823089
BDA0FCEC
BEF27898
BDCC1B27
BD9EC4EF
3E20C413
BD4738D7
3DF1EA4A
3E9656D2
BC60BF97
3E0A6A6D
3E13B902
BDDD5106
BE12C8AD
3E80B397
3EFAE0EF
BE4DF3A6
3DCE689D
3EC9156B
BE545BC6
BE3A922A
BEADAFBB
3E84360F
BE78C297
BE351B45
3E8F04BA
BE714AFA
BDC58192
BE0422B2
BE57B05B
BD77FDE1
BED9BD57
3E3F7452
BE9B38A1
BF20953E
3D93593E
BE7657EF
BD33F3BB
3C50B5F1
3E9B96E0
BE8BE953
BF44472E
BF19AE4D
3D543D92
3DE0A0F3
BDFC9C15
BC54DB94
3E09CF90
3BAEE0D7
3CFA8329
3E01CDA5
3EFB790B
BE0E32CB
3EB5BD69
BE067D57
BE813E6D
BD1ED33C
BD9F1EDC
3F13AE6C
3E571535
3ECC0F46
BC7E73FB
BD82F18F
3E67EF65
3D24AAFA
BD98D06C
3E803120
BE8BBC58
3D7B27B1
BD9AEE29
BD801F06
3D94E4BE
3DE937CF
3CB92FCC
BDA7B4ED
BE23666F
BDCE684B
3D8FD3F3
3E852D46
BE6A41C6
BE11CF82
3E095EF1
3D0F3571
BE225443
3DB7A055
3D20CDEC
3E45EA91
3E1E8095
BBD1C5FB
3E2708BA
BCBA977A
BDA0C1AB
3DD3929B
BB8A44E4
BD0D79E2
BE05777A
3EBD7EA6
BE3EA9DF
3E34A6AA
BCA8D742
3E6AA7BE
BD98BA04
3D866E3D
3E534ED9
BDE5994E
BE78E285
3E577F3F
3E1806F8
3E79A0BF
BE40DE2A
3EE3458B
3E363D64
BD31E461
BD2CE2CA
3E98C6D0
3E747A2E
3D341CF1
3E6842F1
BE06BE8D
3D0766AA
BD822021
3E6AD760
3EDE0C2D
3EBF09E7
3EBF2117
3CEAD614
BE1CBDA3
3E9C2C93
3D00A118
3D1F238F
BC38C1E7
BF0556FD
3D159BBF
BE1B92F5
BDC6B9BE
BDF7CCEB
3D411E7F
BDB40A26
BE8188C3
BE60FD10
3DA6D420
3DC7253A
BDD4C74B
BED6745E
3C959BA2
3D924C08
3DDB1D55
3DA337AE
3D679A24
3E196C65
3E87C499
BBBA4F90
3C98217B
3E749A22
3D816040
BD07E252
3D873649
3DDD7080
3E69F678
BEB7AB03
3E52D8CA
BE9C2CA1
3CC797AF
3D2731F3
3E271455
3DB9F9B5
3DC5328B
3D8593B3
3DF63D73
BF052DEB
BCC5D45D
3E3A0B4B
3D5BB722
BD88DE38
3E15502A
3D248D27
3E0A71B2
3EE4F951
3E321441
BE768123
BDC78EFF
3E42BC8B
3D423D8A
BD478A66
BD8A0F38
BD3A72E2
3CAEBCA5
BE5890C7
BE567BC9
3E4E9B65
BE10DE26
BD9BFB95
3D933AEA
3E1D0451
BDAAAE63
BE62F291
3DF24D62
BE70DCAA
BDADF684
BDF47C4B
3E8DA15A
3DAD2D2F
BDD61D2E
3D1DC057
3E5273AF
3E80682A
BE6DCCD7
BEBA8D04
3E0346D6
3E0C8EBA
3E0CBAF4
BCB82AD9
3E2CCCDD
3EEB354D
3E3C0C33
3E778FCA
3E0F72EC
BF0F4761
3E899CC0
3D4EE4C9
3EA261A3
3E3B8D23
3E86E494
BE33759A
BE01698B
BE6FD599
BE143F31
BD553966
BE165893
3E396BB5
3E2AB6EE
BE62B2EB
3C34AD86
BE00E813
3DA91FBA
3D8B8A78
3C438D1E
BE4EF8A1
3E16F60F
3C0C785B
3C135AEF
BCA4EB93
3D72495C
BE979F6A
3B93EE3D
BE53DEBA
BC8B8BA7
3F59637C
BE839238
3C9FCD65
3FA4FD20
3F5798EB
3F81C259
3D138AA3
3E20EAB8
BF1D2C46
BC0BE765
BD1E4190
3EF30DA3
BF44838C
3C6A7F05
BE158240
3C52BC10
3E7FE7CF
BD869A1D
BE0C81CC
3F376DE5
BEE22495
BB8465B3
BB9CCDBB
3EB8FAC3
BEA265B7
BD1216EE
3DCE141A
BD11C2A2
BD7EE6A2
BDBBAB2D
3DE59FCA
3E67D645
3B56B961
BD71ACEA
BF011895
3C37D1AA
3F422D6E
BD816BAB
BC93711C
3C91B2BA
BF24603E
3F3AAF2A
3EFC5F46
BF38F8CD
BDECDFAB
BDA6ECE6
3D46BA08
BD057667
3F0A4A32
BE230EFB
3F12F50A
3E681BF5
3DE18C6F
3E1E35E8
BB5585E0
3E3409A5
3DAD301B
BBA7AB3F
3D87C986
3E4F6409
3ECC014A
BDF7C3EA
3E800C92
BD8E48D7
3BB46860
BE1DC61D
3E048CC6
3EA6E56F
3ECAA993
3EB35D23
BC9EDA29
BDFE4277
3E51CC9E
3DB2168C
3DCBF174
3EA1B6F6
BEF31809
BD44877D
3CA189ED
3D45EA43
BC05197F
3DF58A69
3D8289CB
BECE7E2A
BE915F80
3E1481BA
BD65B29D
3DA14A67
BF1268AE
3E156C1A
3E6604AE
3DA008E5
BD9D9539
3E731E55
3E6A9DFE
BD8EF506
BD2D2901
BD9AC006
3EAD80AF
BCAF4C6B
3DBC239B
BE27628C
3E041A85
3D763FCE
BDA86450
3D5EC421
BD1A348E
3E64085D
BD94B974
3EB2D8D3
3D84EBE1
3BC05325
3E3A4964
3E2BA3C9
BE8D5855
3E7EDB1A
BE5DB87E
3EB7AB53
BE8C3955
3D164C01
3DF4F7BD
3DA37F53
BC59DC65
BCA9AA39
BE35AFF9
BC275501
BBA22497
3D95BAFC
3D27C288
BE8677F0
BD9F3ADF
3E67E13E
3E830FA4
3DC614B1
BDE83C2B
3CBFC2BC
BE2EFC23
3D014A84
BD1C3BEF
BEA6735A
BEAD06B1
3D9A7039
BBD676C3
BCC636D3
BDBCCE7F
3E89CD46
BD10FFE7
BD4A6D1D
3D684349
3DE8E29F
3DE24D8E
BDA65799
BE9825D1
BE17AC23
3E745980
3E5E2B49
BDCD2E2E
BE897BDC
BE6FDE98
3E7B30F7
3D89ED9B
3D21C769
BD910A6C
BE3654C7
3E5EE129
BD98E793
3D46BBC9
3D8B1789
BF01B82D
BE27F22A
BED10A08
BF250B61
BCF548FD
BE0C40A7
3AE786D6
3DFE90F8
BDDB13C9
BE1CEFAD
BEAD9D6E
BED69C1C
3EA8082D
3DE1E64A
BE8A489F
3DEDB1CA
3E2B9DD0
3DBA7E6D
3E3EE6C2
BC7E3CFF
BEB600FF
3D4B4187
3EEB6E7F
3E49C692
3E89DB3D
BD5A4964
BDE53691
3D156FB7
3E255866
BD0BF038
3C47B303
BE0A4E33
3E2557A4
3D2E6DAC
3E959B80
BE3FAF4E
BC735218
3E2D6508
3E3FA3FD
3E57238E
3DBC8389
3E8C259F
3BD4E142
3E1A4265
3E3F04E8
3E1FD10D
3DDEA33B
3D3DA88F
BE396D52
BCD86A03
3D949354
3EA6CA68
3E440C22
BE90DE42
3EFAFDAC
3E667F6C
BD1CFAA7
3E08EE25
BB4FFA7D
BDAAB6BC
3E8772CE
3DF25AD2
3DAC13C3
3D2DA08D
BD881050
3D296005
BE63BB75
BEB54F1D
BC17A425
BE84252C
BBBE86F7
BCAAE8C8
BD50FB76
BC2805B9
3EADB830
3E2D8087
3E54F8DD
3DAB1A49
3EB0EA6D
3ECC7150
3E72761E
3EA28200
BDF39AF1
3E678DE2
BEEEA4E3
3EA59C2B
BE9D58F7
3E536BE3
3C4E6C33
BDFCFFD0
3EA21471
BEB4C289
BE1F94D6
BED789E5
3EC8EE14
3E5C67BD
3E5BBEE8
BE9B22DF
BC26D71C
BF16D889
BF3D7B46
3E510774
BD37D624
3E94AF82
BDFB18EB
BEAD753B
BD053689
BEEF22E7
BEE8B8BB
3DF25661
3EAC14A4
3D06F505
3E3B4274
3EB96B0B
3E716318
3F47D74C
3E9B15E1
3F2EA8E4
3E07B185
BD8EA8D9
BD87A2D7
3D56B3EE
3D82558B
3EB543D4
3DAEA54D
BD07A6E5
3DDDDE5C
3EFA8B29
BEE54373
BF2A402B
BF0BE2EF
BF32234C
3EB98493
BE96D143
3CDEAF6C
3C8B3BFA
BF012368
3ECCDF9D
BED2FFDF
BEAE8880
3EEFE82A
3D216CD5
3D03D002
3EA41ABD
3DD9200A
3DD85ABF
3E52AF7A
3DA8B2C4
3D6173D9
3DE19159
BEA163EC
3E49DF62
3D0E1FF0
BE6E0BAF
3E36E7E8
BECF94E9
BDB5D871
BE7DB7FC
3E9D8471
3C5C7774
BE3F81CA
3D060A8A
3E52EE08
BED61641
BF136D60
3E41FD75
BBDE8E0E
3D079CD3
3DA93509
BDDBD63B
3D959069
BE3D92AB
BED7EE8B
3E9B90EE
3E8D71A2
BEC23AF5
BEFCE132
3ED9B4A6
3E8123D8
3E1185AD
3E367A84
3E3D5EAD
3F6AD28D
3CA74880
3C9888A2
3EA71554
BEAC0568
3E9E79BE
3E15DDCA
3E4235D8
3E17824A
3EACDC52
BE8AB2C4
BEEF0030
BEB48A5C
BF028BD6
3D3F1C2D
3C6687C5
3D87AD7B
3D4E4CA9
BE04EE1A
3E2D4F69
BE89DCEE
BD8BE15D
3EB73766
3D319A32
3D896B9D
3EFEDD86
3EC34193
3E70F8C5
BD578CBE
3E632A58
BE4EE0AD
3E2580A0
3C46B93D
BD24C26E
3E90B566
BE51F95E
3EA4359F
3ECE3090
3E88F422
3EB91D97
3E908041
3D57FEA1
BEB05CE6
BE92F124
3E7F2AC0
BEE5DB6B
3DF33195
BD145921
3E715417
3DA13464
BDB02144
3E48C40D
3DBA8F95
BE9A20F2
3DB7A167
3CA1B3DD
3E37D1B3
BDF9CA4B
3C9D52FF
3E231443
3D9DE4A9
3E82F0FF
3E951EE8
3EFEA89B
3E240353
BE178230
BDF3B554
3C7C2E69
3EB0BF50
3E609880
3EB229B8
3C63C1F1
3E2C13E0
3E0F3E4D
BEA3B1C8
BEB94556
BD92424A
BF3BAABA
3D25FF99
BE03CD1E
3D68D7C3
3E6C3E25
3E272D52
3ECD43C4
3CAFA0F9
BE8F8CE4
3F2925C4
3D8D11CA
BD5FF66E
3DBEF871
3DFD5D6D
3E972354
3E685D58
3DF18F96
BD9B333C
3D79A813
3E17EC41
3D411AB1
3CA3E2DB
BE02628D
3E05C210
BE9A8703
BE85723B
BEE40CA4
3E84767B
BB6797D2
3D3AC413
BC13AB6D
3EAF1441
BCEF1F1E
BEA3CF29
3E3560FC
BE9FE56C
3E06809D
BD427432
3D2909AA
3D1D9613
BCA39853
BDBA235B
3E5F2EA8
3DBD6211
BE908CC2
BEEC0E45
3ECBAD83
BDC7BACE
BCB97BDB
3E6EF720
3E0AA76A
3F6E1457
BD8E462B
3E35EFB2
3E25BAE7
BE918174
3E01A163
3DD77576
3DDB129C
3E1E46F9
3EBCE14E
BD9010B8
BE2562D5
BDB47B01
BEB67CB4
BDA50EC3
BD19585F
3DDF2AD3
BBC0214F
BDADADF9
3E81F9A5
3E7DB5A8
3E74199D
3D41A5C4
BD6E9C83
BE02D024
3D972486
BD1B61AF
3DBC7C8D
BDA4E5CC
3D0E2AA9
BE7DA58E
3D0EF2F3
3E33BF22
BDCF1A79
3E58FBEA
BE88D683
3E260700
3E9AE56A
3E40C320
3DAF5B00
BD450E53
3D7C231C
BF0322F2
BE12E42A
3DC8FF69
BE9EE1D1
BEB741D0
3DB61E8B
3E102959
BC6004AB
BD623E84
3E14B1B3
3C59A98A
BDF72B1E
BAA551C9
3D26954A
3C6C5A75
BE644609
3DBE0B35
3DEF2ACF
3D95525C
3D1E3508
BD8E2E9E
3D523D71
BBEB27F9
3E13BC5A
BE10B522
3D7B0FAF
3D23133B
3E585441
3CBCED63
3C828370
BC259E36
3DCCEB31
BEC8ECD4
3DABE773
BEB356C4
BEDB4C63
3DA0EE12
BE5642AF
3D7144F8
BBA47ED7
3D7C7B37
BAD3A97D
BEF139F5
BECDEA2C
3ECF11B7
BCA04777
BC4D3D1C
3E393819
BCB6E1D2
3E077720
3EB1FAE7
3E624860
3DBD78F0
3E1AC7CA
BE8BF0CD
3E32C484
3C4167E7
BE156719
3CC8BECE
BE39E276
BBBC5796
BE6904EE
3E24D7A9
3DA158E1
BEB8E48B
3D1F204B
3D81DC20
BE52ED4C
BF1D440D
3DA4BFCD
BDDEC48E
3D8F9DE3
BD610BC3
3DCA744B
3C3CC480
BE939023
BEA82BB2
3E706051
3DD1DBDE
BEC36A06
BED60BC0
3EC89291
3E8D1AAF
3E3F7E28
3D7978B0
3E50EAF5
3F66DE88
3D929CAE
3DA40D00
3E6F1230
BEAC4792
3E82F953
3E104D8C
BCAE8BF2
3E610659
3E3E5A8C
BE223AAD
BEB38749
BE7DE8A2
BEFB2F33
3CD1B65A
BD10972E
BB9D2160
3CAEFF2D
BE14945D
3E47E1B9
BE4E8E0D
BDD91FEE
3E5A745A
3DC16D2A
BE27690C
3E37A0CE
BC0F4841
3D072940
3E3A0AD5
3E3201E8
BEB4F4CE
3D9B435A
BE9FE59A
BC40CF2F
BDBD455B
BE34DFCF
3DF49671
3E2CD83B
BD8360F8
BE8D00AB
3E9293D1
BDE00671
BF1899DC
BD85DC45
3E000F22
BEECF5AF
BF539AE9
3E183978
BE32899C
3DB93F36
3DF1E5CC
BE433E2D
3D736665
BE0DFF35
BE9629F1
3D9053DE
3E58A6E3
BE98BF0F
BE9BA945
3E88173F
BE1B6699
BE09D946
3E17C299
3D0DC479
3E1C3BEB
3D92285E
BC82FED3
3E63A1D2
BEE23C47
3EB195CB
3D49F336
BBFCBE91
3D254556
3E0C4592
BEF24286
BE9E5201
BEEB3078
BF2BEC7A
BD77B30F
BDC6C545
B937EA35
3D22336B
BE6A15AE
3DFAAD88
BEB8F967
BE9358BA
3EFF2CC6
3E66703A
BD900526
3E227B49
BA8397BB
3D2C2A1A
3DC8C6CE
3D142F7B
BE88D530
3DE68822
3DCD7CC5
3E18542E
3C85634B
BE1C3B65
BDAC0A83
BD2D8E90
BD4C7030
BDE5EF05
3E71E81D
BD57B518
BD9CC246
BE5AF31B
3E733DBA
BE2B5ADF
BE840A2E
3B682145
BE2A849E
3E31D478
3DECD371
BC57315E
3DBB16FC
BC845239
BC507C91
3CFF9AEA
3DAC1A89
BDB588E0
BEB0295A
3EA3EA48
3E14CDD7
3DEDF4FA
3E36112C
3E41C468
3F18D335
3D31076B
BDAD39D2
3E4CA6FB
BE99E023
3E6EC1A3
3DCBA0BC
3E0D5DFD
3D513B75
3E0E8CCB
BE1E00A2
BE664C12
BE85E117
BEB2C57B
3C4090A8
BD8C2D02
3D89417B
3E2F37FD
BDEE386E
3E9B7827
3E778806
3E86390A
3E877C9C
3CD1B932
BE48EE69
3DDF57FD
BDC99618
3E60C5CB
3E8E6FB6
BCF3B965
BD997489
3DFA970E
BEF76587
BDAA4CBE
BDAD8653
BE6D4A6B
3DE5D2F0
BDDA47A9
BE0963D9
BEADA544
3E95B57D
3BEA8DB3
BF2A40C6
BD62790C
3E67A073
BEA2680B
BF326791
3D6D4692
BE5BE70E
3DFDEA97
BD284BEA
BE10025A
3CE6BA43
BE4AF73A
BEBA1900
3E50DFAC
3E24D9DF
BE9F00B9
BEC4F141
3E88F061
BC80E5C2
BD44EF5D
3D694CC2
3CD809F2
3E34313E
3D4D0D52
3D7F06D8
3E92B6D9
BEE304A8
3E8E1D9E
BD0012C7
3DFE6871
3DBDE890
3E9B59EB
BEA9677C
BEB78E10
BEF58824
BEFBF5A2
3D28D7E4
3DEF94DE
BD3C5E6E
3D4E765A
BE82063E
3C9484C2
BE8CFEF5
BEDFEC6E
3ECAAE56
3D7B74E7
BD2EEC29
3E93D60F
3DE375DC
3D9A08C4
3EB0DD03
3E369D07
BC3727F7
BA830973
BED8F5F7
3DA7832D
3D8C5EB2
BD918158
3E22DB1F
BEAC2136
BCB8EC27
BEA046B8
3E0D0D60
BC391616
BE90857F
3C294E9B
3DFF4EC4
BEBF7EF3
BEE47CF9
3BC4EAC8
BE22BE74
BCE6F928
BD7F7322
BD71816F
3E6A523E
BE991A96
BEB50B7E
3DBFCF4F
3E562D5E
BE84A178
BEFEF8F4
3E755E4B
3DACDBE5
BD3D1E75
3E13FA8F
3E953380
3F50CD22
BE1A4C81
3E38740F
3E1ABA6C
BE362915
3E21FF09
3D3F2148
3E345A7A
3D9353C9
3E324EDD
BE63CEA5
BE95090F
BEBDAB5F
BF0699B4
3DB6A102
BDFE03FF
3D66CD71
3DBC4DF7
BE8EAD18
3E6BDFB4
BDABB965
BDA6291D
BD3D6844
BD0E20A9
3E549F38
3CDDA38F
3E129AAE
3DC84082
3D97E878
BBB69583
BE46AD96
BD82AD1A
BEBB46DC
BD4EA048
BD5A34DA
BC3626EF
BD099AEA
BE3DE7FF
BD333ED0
BDE00468
3D154FB4
3E53A667
3C0FF1AF
3CECB21E
3D75DB94
BF043C5B
BF379480
3CEF5015
BD91CDBA
3E05699E
BDDE09F4
BD0EA7A0
BD7515DF
BEBDD4F4
BE9F3275
3E2C51DA
3D8B3A5B
BD32C9D8
3EA6E4D0
3DC1DBA8
BE6EF87B
3DC57FBF
3D592759
3CBAB914
3D042BA7
BCBFDE94
3C791288
3D9E4633
BA8277DB
BD07DD91
3C501E03
BCEDEB5F
3C2F8D0D
3CAE6810
BEC072F0
BEB63B41
BECEA94B
BF0EC7C7
3E2E863A
BDE8CEC7
BDC0D9B2
3DCB19D1
BEC4D36D
BE09789F
BEDA1DE3
BEA7EABF
3F0906CB
BCCCBADB
BD7DF94C
3E05CFF2
3DF11C88
3E265204
3D570635
3E2EE9C1
BE12F1B7
BD2BF0C4
3DE22B49
3E02F534
3D3D43A2
BD01B2DB
3E0422FD
BEA05AAF
3E0D1315
BE79A08B
3DAA23E2
BBCDD073
3D009632
3CC6B556
3E977648
BE1CD498
BE2D0208
3D1D6A3B
3DD873AE
3E3BB9CE
BC8B8E4D
BDA75509
BB3813F1
3C6EE932
3DBD047D
3D719FBD
3E5AB7CC
BE5391FE
BE229961
3E286B3A
3DC29E83
BD32F8C3
3DB07D96
3E5EC709
3F65CD4B
3D4607A8
BD7F90E2
3DD1A4E5
BE5A25A6
3DF9AAD3
3D926DA3
3D804909
3D5B13A5
3E892C30
BDBC4699
BE420997
BE2CA60B
BC30A987
BDEF1C86
BDCE46C8
BB4F07E8
3E23805E
BE361C02
3E8D35A0
3DE1E0ED
3E64366E
3DB6254A
BE17E421
3E984F64
BE0E4ADB
3D0920A2
3D878A7F
3E0AFBC7
BE18109E
BE8768FB
BD5B2A74
BEFD7B74
BC8E2D49
3D5F3DD3
BDFC7153
3CEEEAD5
BE686B53
BD9E22D5
BDD8FAE4
3D1CACC1
3DB0C6DF
3E099956
3C5D2F44
BCB1F5B9
BEFD87B8
BF2DC914
3D0BD266
BE3E50FA
3E10BECE
BD78D28C
BE225460
BD0341AF
BE48C90D
BE3AE0FC
3DFE64D2
3D96DD29
3DA1D873
3EA31DF5
3D87298D
BE242E5A
3E517854
BD89EFCB
3D60D8F3
BE16D935
3DC4258F
3BBE89CE
BCFA946E
3D62B084
3D02EF79
BDDB3253
3CBADE91
BCDD6DAA
3D86361F
BEE321E2
BF04BE98
BF0EB2E4
BEF7CE52
3DDE56F3
BDDF5A2B
BD770BE3
3DAB169C
BED21DC7
BCCD04E8
BEDF768B
BEB06B2A
3EAF34FC
3D8F5F73
BD4F127A
3DEC89F2
3DF7FC4A
BCCFD619
3E1FB0E3
3CC461A2
3E896C2A
3BA5B577
BDFBEBA3
3D25BA88
3D9FBE85
3D0F0EEB
BD27AA1D
BC953953
3D6803B4
BDD07A03
3D298D0C
BD16DD20
BDA412C6
BCB18960
3D27F99B
BE494056
BCEB9D26
3CB5615A
3D6E1C1E
3D42E9B8
3C3B6FAB
3E53B51E
BD0602BD
3CC5FC9D
BEB5A0EE
3D822D4E
3DF04B52
BE80BE39
3C0D793F
3E08BD93
3E40B1E5
3DE19E03
BC2E2DB2
3D587C6E
3F00E60E
BD476DEA
3DBE3AF1
3E4A789D
3E263E20
3D97A19D
3E1BB9E3
3DE101BF
BD8015B6
BB2BDC34
BDF46B3C
BE2F8137
BD4EAFD8
BDF4FF98
3D298B69
BC88DED4
3BBF694D
BC8CB572
BD0DCD6A
3E551E05
BE509F50
BDF9FDD1
3E96E593
BC7E7BB5
BD227CBC
3E0A394C
BD237B70
3D0A7B13
3E9A9EDD
BCD1361D
BEA0EB4E
BBEAD4D9
BED18392
BD3A57D7
BDC7B96A
BCA81545
3D039B6E
BE0F4CC3
BD2E8A10
BE2E50D1
3D950837
BC5B4C85
BF121CE4
BDBDC455
3E89CF3F
BEC5BFCF
BF1E9CFC
3DF5024D
BE78D308
3D8E2717
3D60FFAF
3D274749
3E09692B
BE288F40
BE50F670
3E4E74E5
3DD3CE19
BEA61EF7
BD95FCB9
3DFC1525
BE3238F5
BE895C10
3E1574D9
3DC44260
3E94AFB1
3D993B20
3DBC1FAB
3E9564DE
BEA4FDCF
3E6DF6A5
BD2BB261
3D59BDA7
3E505E44
3E197DCE
BF014C55
BF0A8924
BEDAB334
BF01C6AB
BE08E148
BE001832
3D018F06
3C84866C
BEAFF2F2
3CDD044A
BEFF5263
BEA51EDC
3EEA5F2B
3D8E6997
BE2647FD
3C2FF849
3E17F571
3CF72017
3D5019FF
3D952569
BE0F55E2
3D8723BB
3DF50A49
3E35934C
3D8C7663
3DB1FBBB
3D3D60F0
BDC4DC74
BD9C488A
BDD92A29
3DBA5B87
BDEF7053
3D4C4BA7
3CDEC711
3E2402D5
BE003A86
BE0B6372
3E065807
BDCA47A8
3E2D0F34
BE32510B
3BECE9A2
3DE14F53
3D933C1F
3D125327
3E0B8B69
3E57B3E3
BE52A61C
BD99DBE5
3DF04B73
3D7B5E8C
3C2B1D3A
3E4B5A47
3DF90E12
3F0F1852
BBA41F2F
3C5DB43C
3E15112E
BE2799E4
3E1A8DA9
3D11A180
3E1BB0CC
3DB042AA
3D8B6397
3ACBEE1C
BE46073E
BD843025
BE16A43C
BDD0F298
BE2C1395
3C85C31F
3D36C4EA
BE029BCE
3D841DD7
3E80F39E
3E437A0B
3E62B448
3D181544
BD68B790
3E447229
BD3F5960
3E1BB80D
3E99F6BE
3E24E5F4
BE8202EB
3DC8B376
BF05E14B
3CDA1F88
BC5F6E64
BBC800F8
3E696538
BE5D353F
BDA0BF6A
BE3395F9
3D472C2A
BCB7FF3B
BF0070C9
3E03F500
3E1F7698
BEEFB03A
BF07A9AE
3DA84705
BDE3432C
3E1888BC
BD2DFAB5
BE1B540B
3D89F1F8
BE78D3DF
BEBAAD4F
3E67DA65
3E4C2F96
BEFDEE7C
BE17616A
3E9C6693
BE87E842
BE1F7A23
3E37EA74
3D2CE90A
3EB04F09
3CC61F1E
BB5E42BE
3E43C7B2
BE617463
3E8BB721
BD8392D1
3A5075EF
3E0077EC
3E0347E3
BEFF773A
BED26AAF
BEE38CB5
BF0C9E7C
BE302334
BE37346D
3DDEFCAF
BAE99DBB
BECB792B
3CF605C3
BEFEDCA1
BEE45EDD
3E54EF01
3D8E0B21
BCE78EED
BD8E0BFD
3D535FB8
3D278B24
3D8A4299
3DF40067
3B925152
BD44B58C
BE7A8C17
3DCF6F45
3DA3EB90
3E19DD3E
3DE55A5F
3DDFF15A
3EC10C84
3EA7653E
3E44C35E
3D6AA813
BE870B56
BD9419B2
3B7C1066
BEB326BC
3D6EFD57
BCFCE052
3E7C0A37
3D37B4FC
BE45B60D
3D0B8FC5
BD3357A4
BE9D4AA8
BE91A718
BCB8B17E
3DD5F8D3
BE485116
BEA3349B
3DEF8AC1
3D43997C
BE2D7831
3DC2F19F
3E280A0F
3EAD4B5F
BC9B8DAD
3CB0DFF5
3CADF62F
3D9D75A8
BC776E27
BD8FE50B
BD8A9727
BC97E5B9
BD70CE72
BE40B409
BE506429
BE1ACCA0
BEB246AE
BB3D3C3C
BBEADE09
BD44C89D
3CC88214
3BDB8974
3E07A0A9
3D5915B5
BDC25AC3
3E78438C
3C458FDF
BDF84070
3E0BB3AF
3DD1CA43
3DE7CA5C
3E2ABFB9
3D93FF24
BE4A843E
3E031F71
BF09AB62
BD92F02B
3C9B1DBF
BE1B1FC9
3E075B01
BDCE121E
BC1140DE
BE1ED39B
3E7744FA
BD5A16E8
BF0E65FF
3C5047F4
3E153F18
BE9B6630
BED55C0F
3E17A627
BE2A29ED
3D5086BC
3A170B45
BE14182C
3E14CF12
BDEF1589
BEC688E2
3E0B93D3
3D66F516
BEC02091
BD832D49
3E3ABFEF
BDDD6C38
BD8442E4
3E136758
3D34D2E0
3E183645
3DCD3366
3D930645
3E47964A
BE603991
3E5C96D6
BC55C089
3DBE9260
3DA8EEE9
3DD137C3
BED0DEB2
BED7A312
BEA40658
BEDD56C5
BE02CDFA
BDA8919D
3C1817AD
3D248897
BEB644F7
3DDA811F
BEB1FEB9
BE9784BC
3DA76274
3DC9AA93
BDE6E948
3DA68E30
BCF86A74
3C43B6C7
BD0902F6
3D0E2D97
3F289939
BC1BB16A
3DA62226
BC9B5E74
BD173D34
BD907537
3D28C93D
BE7BF3AE
3F405F36
3F51D3BE
B894652C
3ED8BB38
3F4D52A2
BCB69B27
3D54789C
3F1BB861
3F2AA27C
3C8CAE8D
3F34B0F1
BC977CFB
3E9E2D50
3CFED771
BD6AEC55
BE28962F
3B81FDC6
3CD8E3B4
3CE03CC6
3F3D31C0
BE86A116
3AF5280D
3F431603
3E1C78A5
BC261888
3CE7F140
3E47CEDA
BD4FB16F
BD6A19BF
BD141DE6
3F25F84B
3C4CC9ED
3CBD5EC7
3DB04E57
3C9B0236
3D1A35E9
3F2EE44E
3F2BE232
3F16903F
3F40BEE8
3F30A6D6
BDEBE6C9
3DBB6EA3
39E46E95
3EFAA2C2
3CC5C62D
3F4564A5
3F50C8BD
3DE898DF
3DC81212
BCA32BED
BBCA3E4C
BD9C031C
3C6B181D
BD181642
3D333B74
BDD2A9BF
BC46F670
3F68469F
3CA47101
BD03757F
BE487EB3
3D05B2D4
BE201567
BDB2A418
BDCE8800
3AC9A391
BDF338DA
3F501E39
BD92BE57
BAB3B608
3F4EF1AD
3F4DDA47
3D3CDE30
BDA30799
BC2221B9
BE40B990
BE1BA7C5
BCA7C00E
3F40E918
3F12AD83
3CBDFDB4
3D104272
3F1E04D2
BE6FD710
3CBEEB5C
3DD9ABB6
BE4F2464
B989BAE7
3D104A0D
3E35A8AA
BD0016EF
3D9014E3
BCDAA214
BE647A09
3C20A082
BC7ACC7B
3D1F2405
3C80F17E
3CBC669A
3F505110
3F65ACC8
3F5B076F
3F6DC12C
BDEAE165
BDF52107
BDC99CE6
BCD94E71
3F45EBA3
3C840931
3F5742C6
3F50E610
3E692C51
3CAE0050
3EC1BBA4
3D24F044
3DC7F2AF
3C9A7A6E
BD84C7F9
BCCF5D3D
BE3B3374
BD6B6929
BEA28047
3E46C30F
BD2310D8
BD2F849D
BDF2D31D
BE7BEE37
3C1D9EF2
BE2B21E6
BD0351BE
3DE0FA2B
3EB32317
BE248824
3DA536B9
BE936A9A
BECBD47B
BD9C87F4
3C9CCEAD
3D42D321
BE0313AD
3DE1AB01
BD87CBF2
BE93ECBC
BE748C7C
3E331C3E
3E041F42
3E0AD3E7
3E683F38
3D10A251
3CD92F43
3E9E2DEF
BD3DFCE3
3D3725E1
3F6E50E9
3D06E569
BE064228
BD65F277
3EB3BF40
3BB37177
3E05F625
3D537B99
BD611016
BD750028
BE99E467
BEF6F7C7
BE9D3F58
BEC8EDF8
3DD3748B
BD44DF6A
BD574397
3E00D60F
BE7B164A
3DF7C448
BE076C3C
BE7FB140
3E31F468
3B35AA36
BE87A343
3D08E421
3D19E8F2
3E531FE7
3E627CC4
3DD9CA5A
BDE0C200
BD706304
BD946A49
BDBDC893
BD172AB8
BD32029A
3E2B498E
BD73A663
3B3F5012
BD9EB86A
3DB23969
BE0EAFEF
BE420DD8
3DD38888
3E28DFE2
BCA7C193
BE9BCB6A
3DDB5EAA
3DCBF207
3DC2AC38
BDB617AF
BDC89E0B
3E11B405
BD109200
3BBE01EC
3C785F91
3D094E6E
BE0B04E9
BE39F39A
3E0C871A
3D830734
BE4AD9FF
3E0A65F9
BD96E222
3E0F0345
BB69F24E
3DC70D21
3E27B8BD
BE80F352
3B400889
BE1D15E8
BD752F7D
3D3DC977
3E3CEEDA
BD5C0E68
BE2224C8
BC08C98B
BDF3CAB2
3D5B8471
BDCB70AA
3D939F59
3E074880
BCD673CD
3D751182
BE30762A
3D85C36E
3ECD50E2
3DC98AAF
BD3B5DFC
3DD35A6D
3E09B155
BD304520
3D5712C4
3D80A2F1
3E3A4F68
BD892C2A
3DFC19A4
3DB28C32
3DCED53E
3D18EC48
3CB5FF0E
3D27769B
BDB9CDFC
3CBD196C
3E09693C
BE57272E
3DF0608A
BE58689C
BD581FD2
BDBAA185
BB811DF4
3DBE43E5
BCF87056
BCB64969
3D4AEE07
3E7296FC
3DB1A741
BCAC3F89
BC976C9D
3E022840
BBECC936
BD3C542E
3D7C61D1
3E0E5CC0
3D0F6CE5
3D66BDA4
3DA1B706
3C5ED011
3F58CEA3
BDC071FA
BD4B62C9
BCED91F9
3DBD4071
3D1903E6
3E5CF86D
BDB2CC78
3DE3468A
3DF55373
3C34EEDE
3D6FDF33
3E077B27
BDB7C94D
BDC18BF5
BD8B2515
BC8BDBF2
3D815AD0
3D17B418
3DC11CDD
3CF110C1
3E2EFB49
3E3555A5
BC7828A9
BE14BC48
3DD0A39C
BDA97CB8
3BB86E22
3C31B94F
BC17A51D
BE47BD8E
3CC36837
3D60571A
BC2E4609
BDA31C17
BBF2D15E
3BDF6592
BCE7DD66
3D95F4B5
BD187CA9
3D4F9F67
BDA7D342
BE76A453
BD8F5D09
3E1EBC08
BE3E8E3C
BE4ABBF7
3C3F5E78
BCB9AF40
BC0D8E0F
3D988AE7
BE0542DE
BCCD3CB7
BD0B752C
3C8F9038
3E1EB994
BCA34D4A
BC590FC8
BD7F7582
3CD1BCEA
BC4840C1
BBA4B875
BD03C9BF
3BA6D3DF
3E092B6F
BBB0E5AC
3E197F29
3BE1057C
BD5F74A4
3D459748
3CFEF5E5
3D57D074
3D714C25
BD341256
BE32C854
BDF7739D
BD399F29
BE16654D
BDAD8201
BDE868DD
3C5FC9B0
BDAE625F
BDAB21F3
3DBC171F
BD84DB0B
BE042E9B
3F0657EB
3D91DB7E
BE31D9A0
3E633239
3DD1AA8B
3CB1965A
BCC37399
3E21478A
38F7A966
3DA0FD30
3D7C8FAE
3E23AED7
3D5C6E91
BD01D096
3D898A2D
3D46F1CF
3DB7CB83
3CE63472
3E3C43E2
BE3786B4
BE204EB0
BD8D6664
3E17C2F8
BD16CC65
BD721792
3D337F20
3DF726FB
3DC026A9
3D59C892
3C6F43B3
3DAB9FBF
3CBDCF4A
BD8CF78D
3DDE539E
3E0D5C27
BE131C2C
BE88D281
3E86C041
3C07BAD3
BCD833EB
3C7B87EB
3E1FEA1B
3F5FFEA5
3D8ED9BC
3E13138F
3D940719
BD26F237
3D7A6688
3D5D92D8
3CE54FC2
3E437FF9
3D3A5FBA
BD5CD22F
3B7D681A
BDC4C216
BDD86B26
BD8BA0C0
BD1252F3
3D559B18
3DF6E3AA
BB1FFE49
3D219536
3DC670E7
3D4A7B28
3DF48E03
3DD418BD
BE640C53
BCDB4D9E
BCB5A446
3C14455F
3D37A6DC
3E22ACFD
BDA9031B
3D8A1F7E
BE19A318
BCF4AFF8
BDCE668A
BD3873F0
3D057745
BDDD7C56
3DDC9F93
3C62397A
3E103F4F
BDB5E765
BE10FC19
3D943156
3E4467D5
BE3A6328
BE434D31
3E1C9FF5
BCE16DB2
3DC86926
BE24F41C
BDF2E906
3E2582C4
BE5102C6
BC987225
3DDFA33C
3E0A5975
BE04211A
BE4D6130
3D2E0922
3D9B2CF2
BD0BD190
3E3392C7
3DD1D34D
3DD3067A
BD6667BA
3E0A2191
3E25C639
BE7E0951
3DE4D9A7
BDF3EBD3
3D663BFB
3CC34C9B
3D86D967
BE1A728C
BE2B519F
BE5D6248
BD782BD5
BDC122C4
BE0CC371
BD5FDA76
3E0E4CFC
BE466304
BA909D01
BE30576E
3D90CB0B
3EEF13A1
3D149D21
BC69B20B
3E3220C3
3C5354F7
3DF6C73E
3E539238
3D086CF5
BD97E7CE
3CF5610B
BD5CB8C3
3C338930
BD89ED7F
3DEFC97F
3E0B4605
BE388BA7
3C8C7C85
3B3DE597
3DC3C97D
BE0EDAC5
BD805E0D
BC1B0A02
3E5B4F30
BDFDB775
BE51AEAD
3E3B1685
3DFAB99E
3D524BF3
BDA63242
BD8F0CB3
3E41A2F8
BB8E7EB2
BDFBCD3F
3E3100E6
3D48A34C
BDAF41FB
BE9446C8
3E1FF646
BD097319
3D681DD2
3DB13704
3D90CACF
3F7C9F58
BDDE8CA2
3DBFA8FA
3E96D04A
BE129E79
3E35219F
BC64755A
3D6F2CFC
3E556414
3DE3CB0B
BE1D1E48
BE1F96F9
BDE711A9
BE3AA819
3DB6F4EE
BD71096B
3DBF378C
3E31C07F
BE580E6F
3E364C38
3E29A9C1
3E2973A3
3DB3D299
BCB44486
BE01A551
3D7CFE85
3D52ECDC
3DB7A6FF
3D619503
3D3BE728
3DACA2C0
3DCBAB25
BDC88F2A
3D80282C
3D7CCBD1
BE48D90D
3DE62E6E
BE22A5ED
3E052D17
3D894E4E
3DD2B4A0
3D14EB60
BDF447D6
3CC9068E
3E1D51A7
BDD1507F
BD30CDE1
BBA14BAF
3B7159F9
3A52F8B6
BDF654A8
BE198E9F
3E0982F0
3C05DB34
BD3AA1AE
3DB5721F
3DF8062F
BDAF16DD
BE5F735C
3CF4AA76
3D61199E
BE1896E8
3D17D1A5
BC438D87
3E8A8305
3DCF528E
3C8A4907
3E5DC69C
BDB83C95
3BC80068
BDDACFCE
3DDDA06A
3DF5CD77
3DA01B62
BD875E49
3C2D7CB9
BD19E3F6
BC51F7EA
BAA93074
3CE9345C
3DA5D23B
BBA3F4ED
BD5F895D
3E384218
BD3991F7
3D8CCAE9
3F0023C5
3D76BF92
3CF83142
3C449951
3D8BA761
3C7BB646
3E2174CA
3DCB3D5A
BDBA58B8
3DD2EFA5
BD3BF3F3
3CF1C6ED
3D9B1368
3DAA9320
3D522DE1
BD7774BD
3E285574
BDAA1DA4
3CFBA84D
BD93DF81
BE0F0FA0
BD442EF7
3D50193C
BDF9D4DE
BDAFD6D6
3C1B2C33
3D8F8713
BC450BC2
BD890A8D
3CD40F3D
3E1D7483
3BE81E0B
3D62DAF2
3DA32555
3E6D8643
BE3BB6C3
BE23DD39
3E21DE87
3E336CC4
BE00D975
3D3B1B4F
3C0B1AA0
3F3D8075
3D742B50
3D232B84
3E6A7335
BD9F6AB1
3E551B93
3D16ACAE
3D76F3F9
3C81675C
3D988C26
BCC04419
BDE7F1DE
BDE6ABF2
BD88BCD7
3C7DC192
BDC5A06B
3DCE7BED
3E3CD147
BDD417C5
3E380885
BCA34C4F
3D210947
3D9FE124
3C94FCAE
BE220AAE
3E431BE3
BBD10626
3E23C255
3E6C331C
3E209A17
BDB44B90
3CFE3FAB
BE170D4E
3B553843
3D46FDE2
BE01AD7A
3E4C367E
BE555A2F
3DF3FB54
BD987AEA
3D3F1AAA
BE0971CD
BE70F6BF
3D1FEA4D
3DFB3FBB
BD8BE266
BE813ACE
3BA67433
3CD4D240
BC25E057
BDBF3AAD
BDCF672E
3D1FD437
BE5662EE
BCC86073
3DC92DEA
3E26C208
BE8565CD
BE28E500
3E5DD85A
BB356D10
BE3E39F2
3BB80C33
BD1ABB1A
3DA2C95E
BD8C4E99
3C27967E
3DB4F260
BE5EE7C0
3D8DB251
BD83D2D2
3DD8EB56
3DCD08C7
BC179B9C
BBF6C4A7
BE22918F
BE0351DE
BE1026AC
BD862F76
BE57619A
3CA259F9
3B87744B
BE3BCD4D
3DB17A42
BD9790B7
BDAF81DD
3E3028A5
3DBF1A11
3E616462
3C0F8314
3BBE2479
3D6699EB
BE12E929
BDCF5A94
BE71FF7A
BD6685DF
BDCEE1C2
BD25C51D
3D19F7F0
3DA83DDF
BC86061B
3E2B16EB
3DB46E2C
3E869B84
BDCBA9B5
3E0B8E79
3E73D93E
BD2F7601
BDA7D6E8
BD47DB63
3DE311B8
BD30584E
3E3F1FEC
BD50679F
BE2C818E
3E2381CB
BDD59166
BE0C063E
BDFCF4B4
BE1DA191
BD1D36A1
3EAC828C
3E6D55A6
BE28F242
BD7C1B1C
3EA3C1B7
BD829817
BD91C6A3
3E60C4CB
BDCC0939
3C6222F8
BD62D03D
3EFBF648
BC1A53D0
BD3F89D9
BDC0589D
3DB73CDC
3D4EA1A2
BD9C3150
BD83057F
BE318C19
BD49DE25
3E895168
BCAEAF1F
3CDEC052
BD18F481
3DAAB4A5
BD984F2B
3EB706D5
3E2D398C
3E7D2D97
3D37F2AE
BDCEE74B
3DA49505
BDB7C13E
3DFC2D5E
3D8C16EA
BD39FB67
BD65E6D9
BC6E64C7
BC2CD43C
3E053D47
BD625336
BE338340
3DEB7D44
BE4ADBDB
3CB6805D
3CBAF90E
3CF73971
BDE11693
BDB6C63F
3D1A618C
3E143A22
BE0D17B1
BE9441CE
BBCF5C21
3AD2FFEA
3DCAC5D6
BD6AFC3D
BE42DA8A
3DB3D6D6
BE19513A
BE21915D
3BB4AFF6
3DE604A8
BE2C7476
BE959D60
3E30461D
3D260C23
BDEC6E46
BBACB8A9
3D256C29
3DA8E52A
3DF7106B
3D86FF99
3DFC0AF5
BDB19187
3E32A4F8
3CA87B53
3DE133C5
3DA62099
3DD969CF
BCEF3AB7
BCD67BAD
BE05C9F1
BD982CC4
BDDF748C
BDE90353
3D9CB904
BBB20F5E
BE54CBD5
3E1BF9B5
BDF42E82
BDE3CDCC
3ED6DF95
3E0EB4D4
BDA19AB9
3D9576E0
3CF58931
3D05C832
3D7B42DC
3DFEF9A5
BD878049
3DA7F582
3E1257A1
BB66F080
3D98E5DD
3D75E613
3E1E200A
BE0FAA7B
3D9A9915
BE18E4CA
3CF472ED
BC74055E
BD9809D0
BD980323
3E755AE1
3D4C717D
BB1B6FD4
3E401082
3CCFF2C6
3E0AE370
BE2924C1
3D48B372
3D980F31
BDE15EBA
BD2A45D6
3D2A8035
3E58F990
BE78CDAC
BDDC24ED
3DC380C0
3DDBE4C1
BD61CE79
3DDB5712
3E101D31
3F3D2C62
BD9342AC
3D940D79
3E93C222
3CFC90E2
3E18A8C3
BBE8F7F9
3DCA3C6C
3E187B27
3E356652
BD0DBB88
BD415964
BE0AF392
3DB473ED
3DF3759E
3DA1C12B
3E25020C
3D06C1F5
BE37773E
3DCEE9BA
3CB27F23
3D8A6D48
3D26D3BD
3D87F7AE
B8233420
3C293902
3B4042ED
BCF7C9C0
BD2F3A23
3E099779
3D217450
3CCA8224
3DB15AF6
BDC476CA
BC932DD7
BC039253
BD44FA65
3DB5B9CF
BD2FA8A8
BE12A002
BD3A54B7
BD8C2381
BDA5CB73
BBC2BA2F
3DDFAA48
BD15C617
BDA118E9
BBDD1D72
BD1EB5EB
BDE7F2BA
3E0EB85A
3C7B055F
BD3991D1
3AB5C057
BDF0B3F4
3CB4D369
3BD24E14
3CD27C9B
BD3810C7
3DA5E10A
BD981800
BBB2B18B
BCBF3975
BC2CD2AF
3DC92E78
3E072B2E
3DD9397D
3DE2CCDE
BD828D0B
3D43AB68
3D07E559
BB3D530A
3D3DEC2F
3D6388B0
BCCBAC21
BD7A7432
3D55D9ED
BE36E457
BE3AE3AD
BE4F78BC
3D7E277F
3BAE991C
3D98D2F0
3DC6DD89
BD37F0D7
3CD61D5B
3E11928D
BCE8EF51
3E8C7557
3DB58C69
BA0ADDC5
3E0245C0
BD096F5A
3DA54F54
BE29F8D8
BD33CA71
3E215C34
3E21AC55
BD669434
3D7445DF
BBCEBFC3
BD601CB3
3D8112EE
BA1EADDE
3CE052FC
3E1F2D92
3E3FD3F3
BA9A2BD5
3DB9004B
BE3DFF66
BD989A20
BC1A5ED7
3E0CC0B4
3D3F82C6
BDC3FC47
3DB7670E
3CE5FEB1
BE279E53
BCD770A6
3D325B1F
3DD04B75
3E56705D
3E7E765A
BC71F2F4
3D724F64
3E916F0D
BD13710C
BD5D3F3A
3EA67C5A
3CECB20C
BE333258
BD3FC3A8
3E3E1BDB
3CCD8385
3DB3AF18
3DAA7BBC
BD70D8A6
BD75E02A
BD06ACCE
BD6FEC66
3CF5F18A
BD51821F
3E0B3E71
BD036AD4
BD23EEC3
3DE0A121
BCD9820F
3DD7D4BE
BD8C5857
3E1A50EF
3E8272A8
3D3FA3F5
BDD928C8
3E371270
3C951D6D
3DC872E9
3D99D1FB
3E0E4799
BD48DE5B
3DDD7EA3
BC808425
3DB0E5A4
BDC5CF92
BD419422
3E5F459B
BD981A47
BD391AF0
BE073878
3DDCFAD6
3DA39284
BD6B513F
BDA1C2A1
3BCC641D
BE1ECE24
BE5C10C1
3D8A4AAA
3DD2AB67
3D4AC736
BD488A18
3C4986FF
BD31958A
BC1BE123
3CEE27BD
3C46AF0E
3E4CBE8E
BE8B9C42
BE91B116
3DD2327E
3C3F2148
BDC7D5E4
3E10E067
3DF07F78
3DB72A3A
BD5A8FEB
BBF57EB6
3E6F072C
BDD08F4B
3D52F168
BD962EA0
BD3B0604
3D1ECBA1
3CE80A9D
BE177A10
BC2F12C3
BE372D30
BE01EC99
3C8E50FE
BDC75971
3C67E1A7
3DBFD55B
BDEF7225
3E33EB1F
BE287A02
BD0E4AA3
3EE9EC02
3D767819
BE2B11C5
3D0F7EC0
3C6B3182
3DC5D432
3DCACF23
3D4787B4
BE58F91C
3DAE5649
3D38BABC
3E16D2E1
3DC4B76D
BD74D6C7
3E03FC14
BD95B0B0
3DD823B7
BE1E3A66
3E15F42E
3C5E8B07
BB9810DB
3BBBD151
3DFDEA4B
BD2B5A1F
BE9839CA
3DE8A6EC
3DD9FB3D
3D42B267
BDC8FF46
BD2BA95A
3DF6C3DF
BE495DCC
BDD41BF9
3E156834
3E5153AB
BE8D0537
BE8B2500
3E642945
3DEA4CBF
BD6E70AF
3E3212D0
3DC1DE7C
3F3424CF
BDAF8DA5
3E05F278
3E892C5D
BB483269
3E05092B
3DFC2391
3DD2FB77
3E6343BD
3E3ADF5B
BDF71149
BDFE0078
BE5110C8
BDC1336D
BD813231
BE056D69
3E2B68D8
3D91EAC6
BDE0F7F1
3E73BD6C
3E0A82CD
3E21BE97
3E4DCBFE
3DB8234A
BDBBE76B
3E2DD750
3C3EC396
3E5BF6A8
3E26B9B2
3E00ED06
3DCBA78C
3CA573A7
3D368E85
3E07B489
BDE78954
3B1727F8
3E5E1DA4
BDB2F454
BD8E963C
3D54CEF9
BCF0C00B
BD2610FE
BE7A94FE
BD9771BE
3DBE1660
3D2970D1
BD1CC130
3E19BD6F
BC9B89CC
3D20C1C1
BDA33503
BC0C9550
BCD4059B
BDEF3261
BD52B874
3D8A0E4A
3E4B20CC
BE8C5311
BE5AC2E6
3DAB4C36
BD7E98B1
BE51485B
3DCED317
3CC880B9
3E0BB76A
3CDF42CB
3D33F2BC
3D482C1A
BCE19325
3E44CD6A
BE10AABF
3D93E2F4
3D50FE55
3E302997
BCABA5FB
BDD8B04E
BDE3F67B
3D89EE63
3D18494E
BDB52369
BCC66C80
3D96A6A3
BE014367
3D917A7C
BDDBCFAE
3CD445E4
3EF45455
3E0DEB27
BDA66973
3CF1D661
3DE9442B
3E083B62
3D01EA5A
3DE58275
BD871B28
3E0B8D00
BCF30A83
BC807571
BADAA4A2
3D95C736
3DF9FF57
BE090C30
3CBC5DB1
BE31DFCC
3D9A006C
BE1BCCAB
BD15AEBD
BC583A1D
3E42E502
BD051601
BE8960F6
3E21D7DF
3C8264AE
3C92D426
BD64F9EB
BC5A22EC
BC476609
BE2EF384
BDC70688
3CBA969F
3E13200C
BDD7109D
BEA511E8
3DE7916E
BC59C2F0
BD9525BD
3C5500F8
3CAF1086
3F1E64CE
BDD3A921
3E1B76CC
3E9D202C
BDCBA71D
3E610C5F
BB1DC517
3E038474
3E2CD033
3DEB204A
3C39974F
BC2A4707
BD38562F
BE15A602
BBAC590B
3B127AE2
3CEEF479
3E5102EA
BDC156C1
3E8CA9F9
3ACF0585
3E08319B
3E351BE8
3CD94BF9
BD1C1DA9
3D923FAA
BC7B0E8E
3E2E6E99
3DB02E1A
3DD832D6
BE38E508
BCD883B6
BDAB6965
3DD9E5C5
BE01A948
BD25FCBF
3E30E656
BE62625B
BD9DE7B0
3B86F56C
3D8A818F
3D1F00D0
BD973112
3CE99D46
3BE01E6B
BE38C741
BE69F7ED
3DDA4217
3D9D6833
3DA725C1
BC0D180E
BD628A45
3DA61096
BE11B32D
BDDC43E8
3CD9D2C3
3E2D6C6F
BE332957
BE8EFC29
3E4ABD73
3D034A5B
BE47D394
BC989985
BDA3949C
3E902BC3
3D081FF7
3D9DBAA7
3DD64759
BE49C688
3DB949BB
BD0CE44F
3E194C90
BB1C58C4
3E44B951
BE29CCA2
BB88FC3D
BD99867F
BD99FA6E
BDE9D793
BE441DA7
3D9F7786
3CFBC9D7
BE5C0AB6
3D950782
BD90C529
3D8D454E
3E97CE00
3D22EA59
BDA0F419
3E37F29E
3E048517
3DE66E6E
3E43E2C4
3E36DD04
BE5AD30A
3DF63320
3E035890
3DF41376
3D56BA9D
BD0769CB
3E213336
BDC7A80C
3E278D29
BDD85463
3E25706B
3C290909
3C8D3C22
3DA2AF40
3E7A58CB
BC80143D
BE3AB1BF
3E49B286
3E30FC4C
3DA0AB55
3B215573
BD3EB297
3E067E89
BA15DC20
3C773525
3DE2673F
3E5E5F41
BE1881BA
BE94D0C9
3DD249E6
3D4C2773
BC9B3388
3E4E5517
3D07B40D
3F3836CA
BDA6CD05
BC2DA3D4
3DEFD1E0
BDF5B34D
3DD14525
BD8AB0E5
3ADA526C
3E33E1E7
3E11379A
BE27EAD2
3D33C2A4
BD388A06
BD9EA9EF
3D0F1CA7
3BB98AFC
3D26313E
3E1A0A97
BD336663
3E313A42
3D8ED6CE
3E320B54
3DDE9697
BDBC7AC2
BD9FD11A
BD03D2BF
BDD5CB9C
BC69CCA8
3E252736
BCD18ECA
BDDC1278
BBCFDDCA
BDABED92
3D5B0C82
3D25FE33
BD8F2352
3DC5FE85
3E42D096
3E28CF0C
3E9A1454
3C37E3C6
3DBF64B1
BDCE2048
3DB622BD
BD7CB984
BE3C8808
3DBF3ACC
3D902AEC
3D72B219
3D1B3C51
BE247D19
3D3B580C
BBB70B90
BE350830
BDCD5236
3BE0AE2E
3D372E38
BE114FD9
BE4F3A30
3DAFDA72
3BA5AA5C
BD7563FF
BCA7059F
BD3293AD
BDE79489
BD82B54F
3DDC45CA
3E0514F2
3CA0B021
3D65076A
BCEAEAB5
BD885494
BDC95328
3DA2D2A7
BE461792
3C6C0189
BDD892C0
BDDD45DA
BC520219
BE0B6477
3D5DB785
BD8CD048
3D909BCE
3AF81191
3E14960D
BDAD977B
3DF0F5BF
BD3C13DD
3E7EE201
BDE549F5
3D3720D4
BD9A3B54
BDFEFE15
BD46D746
3C962F55
BCDD1C61
3D08E325
BB545937
3E0EF4DC
3DA8FB2E
BD9E45E5
BD1F2BB0
3DBC24D7
BD21FC0D
BD16D9EE
3E16700A
3EDD630B
BD53E497
3CAA9B22
BD97F5F0
BD3B86DC
3DFC2A0E
3E06EE7C
3E2F1E42
BD707499
BD43B0F0
3D08525C
BDD9E355
BE06F106
3DFA0D40
BBB91997
3E8B34EE
3E2A4E55
BD53AE23
BBEBA8B5
3ED60325
BD1FE390
3C822744
3EC2C55E
BD21C16A
BD0F21B1
BD441E9D
3E734EA1
3CD8B095
3BE10242
BC4FA1DB
3CBE341F
BD834DF4
3C879A94
BDC6E218
3CEB5E12
BD1D0F33
3EA1C5E5
3D2BCF5E
3DAB1D10
3BC61311
BE41036C
BB2C583F
BC161AE3
3E0014AB
3D3B0A01
BD09B6D3
BE711F7B
3D64EDFB
3D6ADB54
3E157F84
3E29A11E
3BE1D833
BE8359EA
3DC76E60
BD222A99
BD640960
BDCD9276
3CF249F5
3E36059F
BE599239
3CD23EC5
BC10ED9B
3DF9F4B2
BD110A61
BDF225C4
3D5A5387
3DAD8C6C
BCCE2F67
BE90A440
3E05780F
3BA4058E
BC596703
BD65387F
BE3041BB
3CB6C65E
BC0138EC
BCFF5EE4
3B1F45DC
3CEE51D4
BD95F3F5
BE31D51E
3E0F0D45
BD7F7235
BD51AAA7
3E34330E
BC0CBC50
3DBC48D8
BD8E9828
3C9A5EB1
3E53C4DE
BE0EFDBD
BB9DB8C2
BDE94AFB
3CD0F604
3E2C92D5
3E3771D6
BE0F186B
BE235145
BE5D028D
BD281E73
BE13E2AB
BE1E7658
3DF9CD02
3E05C9A7
BE54492F
BB93B549
BE07BB5C
3D1DC595
3EA4C115
3D92EA11
BE225FD4
3E1553B2
3C7D4015
3D4D9BE7
3D0B05AE
3E4F65BE
BE1859A0
3CD799A5
3C229ED1
BCAF0D9E
BD43FDA0
BC9D5B3E
BC1D4679
BE0DA990
3DBF36BF
BCDFFD1C
3E5611B0
BE2C925D
BE0B0B56
BDBC7207
3E28BE2A
BD6456B5
BE1BA3E9
BBE9DD01
3E10B9A8
3E08CC78
BDFDA66A
3D2F6860
3E01E3FD
BE5650E8
3D4CE09C
3CFB8ADF
3DA1EFF8
BE41ED86
BE9649AA
3E55B476
3E25FE1E
BB3ECF3B
3D94AF78
3C0B28C1
3F0666B9
BDCF7FF6
3DD87FF6
3E1879D9
3CB5A697
3DBA7C51
3CCFCA58
3D695AEF
3E6B5636
3DC793B2
3CBA1A41
BD0D4BCF
BE669E8E
BDD19102
3D325D6A
BC97B494
3E30CC2C
BC858B11
BDFBFCCB
3E257304
3DE192B3
3DB73CC0
3D4CEF59
BD695774
BE7490F3
3D750B1D
BD608036
3D2904B1
3DDEF013
3DA53A75
BE4F1362
3D7E16F9
BE24A4FF
3DFB4524
3D913726
BE3C6D2C
3C010D69
BDC3BFC0
BCC2AF05
BDC4C0EA
3DE279CC
3D038BCF
BE2BACFA
3D2F12D9
3E5FB7BA
BDAE45CF
BDC7EED7
BD0A0E1B
3DCE24C3
3DDA4CC5
3C24DF88
BDC9BAA8
3DC428F2
BE55BAAB
BE0330C2
3CF4892B
3D94437F
BE889270
BE68E8AA
3E12F7F4
BD218BAD
BDAE533A
3C93EBDD
3D01B7D8
3E705FD6
3DAC995E
3D20BA96
3DCE3257
BE78A73E
3E37D97F
BCD2A8BF
3D342E03
3C81EC8D
3DEDC6B3
BDC8FEB9
BE07CCD1
BE62D994
BE1ADA02
BD802978
BC9C27A8
3CE94603
3E1C8E20
BE629A19
3C39D2D3
BD867EE2
BD06D2D5
3D5B01E6
BD23655D
BD55E8E1
3D45DC52
3CE65398
BDFD1026
BD8361CC
3DF734EB
3E20A6B2
BD29C567
3DBD29AE
BDB46335
BCD2E7FF
3E38A0C0
BE31FAC0
3ED9143D
3E39E8BA
3E4E2BE0
BC1BF06D
3D2776DD
BA2BF2A3
3DA0BDA1
3D89D485
BD749D72
3E9890A5
3D883180
3D9ADBB1
3CFE66CC
BAB4383F
3E833856
BDA20B82
3DFDFC99
3D3B6B65
BD63C69E
BD93DE8E
3DD94E67
3DAFED04
BCA62C8D
3C1FBC05
BD8D6C3E
BCB60ACB
3D78D2AE
3E0869F2
3C596763
BD561070
3D452A33
3E97A450
BE0310FF
BC935AD6
3D04CEDE
3D8050A1
BD085015
BD499A4A
BB2409E8
BC2EED25
BCBED5C5
BE2BF243
BD799669
3D47988F
BD2635A7
3E7C40A5
3D8EC34C
3E60D73D
3DCDC794
3B3ABCB1
3DD6BC39
BE5F34BA
3D8FFBE0
BB3E2267
BB2F676D
3E1F66DC
3DE8C670
BDC7FAFD
3D66DEDE
BDA7EB35
BD8B7ED4
BD871B55
BD466202
3C8C5709
BD0B417F
BDA9E1EF
BDA1616F
3E022FE8
BE08759E
BDC7BAC6
BD2ED661
3D598688
BD28B424
BDD62931
3D644268
3CD886BC
3DB797B3
BDE54FD3
BDBF3F1B
BBCC03CB
3D9F3455
BD74FE03
3E3E01E2
BBE9CAD5
BDC2FF1E
BE272E9B
3E45B845
3D603D9D
BD26860C
3D80AFD5
3DB43A9D
3C2D3EE3
BD0D1240
3DDCC49B
3CDA7DC2
BD0B6C51
3C07F9AB
3CD90B76
3D838BC0
3D337425
BD5E5BCE
BD734844
BD8653E4
BD6F6ABE
BDFF208A
BDCF6978
BDA04A8F
3D2F46FB
BD81DC99
BD361611
3C8358C3
B9A947A3
3C4B5169
3DEACD4B
3E1B382B
3C4983AC
3D1C91BC
BD55B308
3CCEEA86
3DAEDC66
3C915DD0
3CA9DE3A
3D3D6131
3DB75129
BCB8334A
3DF78028
BC945E21
BD37BF52
BD2C3B08
BDAE4B3E
BD4F9E0E
BCE72BB4
BE3860FF
BC73056D
3BA904CB
3E466D61
BD61F296
BDC1CD47
3DDE6714
3D59694B
3DFD40FC
BE02AF68
3CD0D22E
3E09C6B5
BDB39E7E
3D9B1A8B
3E219CF0
3DE690D2
BDC5D15F
BDE8CB56
3E589F24
3E0B2CFB
3D26A6F3
BD0996DC
3DC5957F
3E818F7C
3DC97DD5
3DF1C51A
3E2169BD
BE04E03A
3CCE5FEA
3CAC0773
3D570FD0
3E4797A8
3DA3E8FF
3DA7E474
BDE16B39
3D98C139
BE09ED6D
BD8C153B
BD80C5EF
3D849EFC
BCEDB7D2
BD09FA27
3CFA3C52
3C40E370
3E1502D5
3E13F7C3
BD6B87E2
BD914F89
3DBC7A9F
BDEF5E8A
3E15E240
3E67EFCC
3DAF2E8E
BE14BB59
3DB7D38F
3D167D14
3C11439C
BD82BFC2
BD1BD445
3DF3C3D6
BDB6DF72
BB8EA204
BDC79A10
3E4D1D49
BD77AC7C
BE27AE55
BCFC2633
3E6D0C20
BDE2959D
BE769A3D
3E04147D
BDD42E83
3E13FFF4
BD769973
BD8D09DC
3D556FB9
BD2F0A13
BD777125
3DAA79A8
3DA7104A
BD6DC8B6
BE857B57
3E789719
3E0023E3
BE0A5DBF
3E35A83F
BD940C92
3E427C8A
3DC4C6D5
3DFF47E1
3D534F93
BE24E1BA
3D85F6BD
3DB52E77
BB57546D
3DDFC1F7
3CEAC687
BDEE7B26
3C02C8CA
3C12DC01
3CFF6AEC
3D904816
BCA20B87
3D324BF8
BC907597
BDD752E6
3C9DE1F8
BDCBAC49
3CD0AF67
3EB2E122
BB82AB99
3CC88ABD
3D7C25D9
3D8B1A3B
3D61C7B7
3D8A1D8A
3D48A45F
BD6A8674
3D624864
3CEC5495
3E069A5E
3DD364C3
BC5A8FC9
BC4BC0C0
BDB156CA
3CAC6C9D
BDFECD24
3DC07C0D
BDF4E523
BD5D36D8
BCF298C8
3E5669A9
3B3CBC12
BE2565CB
3D27BAE0
3DECCD16
3DD11727
BC00E9D9
BCB1F028
3E43CF88
BBDEA3B9
BDB44A14
3E68F11E
3D58E4D0
BE6EBBCA
BE8E3625
3E3D701B
BC3E40D9
BDFC2772
3E49648F
3D8F3B8C
3EE415DF
3C7E3901
3E1C6D35
3E48B254
BE02C1AC
3E769831
3E141DF1
3E095103
3DD65F1B
3CD3CBDD
3D45EA57
BE0010AB
BD22FCBF
BDED73D3
3DA13855
3DA9C708
3D07B3A2
3E0C017A
BE45DEC6
3D8F4C6C
3DA87009
3DD66893
BDB920CA
BCCF6592
BDD7DA4F
BD1250FB
BD67308F
BBFFB3FF
3E37DE4C
BC868980
3CCC4B4A
BD7A493D
BDD5F6BA
3D80A965
BD8E00C5
BDAF8C85
BDAA3050
3E94A73B
3E35D80C
3EA6EE47
3C58BC47
3CC1444D
BE84529E
3D8CB776
3D8A3949
BDC4E569
3E618335
3D161A6C
3DA1CD03
BDC1EB32
BE31FB11
BD9F9B52
BD7CAF76
BE00288F
BD0FE151
3D3E8C48
BD896694
3CD670E5
BE6179D2
3CA77015
BB192995
BE71CDA7
3C9EDB04
BD234634
BE04523D
BC46AB81
3C866239
3DAE82DE
3DEA7DAC
BAA4A823
BCE59148
BD32E31C
3CF631CB
BDC28385
BD3C80FF
BD2D5C08
BD8F3768
BD292899
BE1B6046
BDD44475
BD1E28C7
BD879104
3C3A1776
3DC4FA36
3E6B99FE
BDA1D30F
3E033667
3BFC86FC
BDD95334
3D783EB5
BDE14FD6
3D00F6E0
3D93AB4C
3D912E0C
BDCBFB59
3DBFE785
3C08E4D1
3E0797EB
BB96D4F5
3C84F60C
3DEAA3CC
BCE78208
3C9D24A7
3CEAAB1B
3D77B0AE
BDAE2013
BE11B2F8
BD401299
3DD893BD
BCC663B4
BE4D4087
3E216CC4
3D1F17C0
3DA39F24
BD8C7FA6
3D7FFEAA
3E1059F1
BD1682A5
3E0B0414
3D8979D6
3DAAEE05
BE47CC9C
BE2B2F46
3E91AE24
3DBA7AEB
3A40EFF0
3E08FF81
3C8761CB
3E9DC59F
3C257B45
3E074A34
3E61EFF9
3C045111
3E3351F6
3DA4B6F2
3D813A1F
3E19C7C8
3D7346DD
3DA44650
BD8A4617
BDEA7EC9
3DCD1FD5
BDB5D75E
3DBAE161
3D9112EF
BCE64636
BCE2E8B9
3E81B08C
BDA4CAA5
3E5EFBE7
3E86A67E
3D5836E4
BE13DDBF
BC1031E4
BB52566A
3D9D636A
3E44FA2E
39CC6FAF
BDE17A82
3D1BB7B7
3D35B427
3C6B2255
3DACF1C6
BD72F06F
3D5CD62E
BDC260AE
BD44787E
BD205BBE
3AC100E3
BD3241E0
BE08C103
3DE75A57
3D16BDB7
BDE5A25D
BDD0B4E7
BD093CE5
3AE62220
3DF1855A
BE2F73BD
BB05022B
3E1B2918
BD8BDA4D
BCADDE87
3E0E459C
3DE8FC6E
BD93E1B4
BDBBC9AB
3E44523F
BDAFAFDD
BE1D06C8
3D83A45B
3DE19DAE
3E3F7503
3DD5D5C5
3BEA337D
3E369AD8
BE1E4893
3DA8580F
BDC5718C
BD054A97
3DD694E9
3DF92AFF
BDCCAE6C
3DA684B8
3CB373A7
BDF3DD1D
BCD9A5BD
BC5678BC
3D02BF14
3D61DC73
3BDE80D4
3DE71AB6
BD543782
3D62FA6C
3DED5EED
BD1164D9
BC005250
3C96379B
BD10CE64
3DB18E26
3E1C47D4
3E05BAB2
BE371294
3D25F339
3C60CF1F
3E21FC36
3DE70CC3
3B2296D4
3D1895E8
BE773BAD
3DFABCD2
3C9721A2
3E6C5F0A
BE09A585
BE068ADD
3DFC97BA
3D7AFB25
BE0D3BB5
BE044B34
BC8897A2
3D8E0EEF
3D8A0D14
BE103F16
3D749A72
3E262C8D
BD40F666
3D4C9A4B
3CF42D63
3E1E2401
BE3EF1F6
BE7C0870
3E28C3EB
BCC89E96
BC1A8A54
3E516116
3DB354F3
3ECB9121
BD8B74D2
3E281EFF
3DA7430A
BE1D9949
3E0C9E07
BD6EE6EF
3DD7747B
3E0D60F5
3E6E4DA6
3D1E31EC
BE06642D
BE07FC86
BE04173A
BD7D79CE
3C06AF34
3C01B60B
3DD8EEAD
BD247BA1
3E45449D
B8E9DE8F
3E49BEA1
3E1B6992
3E063E7B
BE150BAC
3DFED4D3
3DAF1E8E
3E1732C2
3DB43AA9
3E26AFA8
BD892D37
BD4AF630
BD128976
3D6AC0BA
BB7E1B87
BE256C01
3E2C1D91
BE6F04F5
3E0B3EB1
BDEF7894
3E2B448C
BDE00BAD
BE5F26D2
3C2E1C03
3D883081
BD8E2BC0
BE45E27B
3E10CC79
3DA9A8AD
3C8AC87B
3CA4B38A
BD7CD07E
3DB6FD84
BDA3A09A
3D351051
3D95A190
3E21D653
BE858DFB
BE5FF82A
3E7EF43E
3C8F7A10
BCA9E54B
3E3C9D0D
3DB1C679
3DF80A3E
BDD32654
3DF9C426
3E55A831
BDBF16BD
3E0B0CFB
BDC0AF19
BD000F57
3E116B76
3E2B6843
3CC90D3A
BCD04711
BE02AF12
3D6F9154
BDA7CE7D
3D4C31B9
3DC7A0EC
3CAFF411
3BFAF6CF
3CCE6F58
BD14A193
3D7EB5CE
3E323623
BCDA69A9
3C93E991
3E4FB4AB
BD882BC5
3D2A3FCC
3DE298E5
3DC9A23E
BE3481FD
3E1CE182
BC86156B
BC318F75
3CBBB465
3B813E64
3D8108C3
BD56F62B
BD389DEB
BD56BD9E
3E494199
BDF1601D
BDCF6948
3DAB4564
3D5259F8
BD41A9F8
BDF13DBF
3D6AB5CD
3E0E264F
3D332B5B
BDEDF42B
3DA5E130
BC46114A
BDF6F1EC
BBEC64C5
3CA0C9AF
3DB399E5
BE0CC47A
BE927F92
3E77BBE5
BC8D80C3
BDAA9E20
3D4AD953
3D3551AC
3E826CB5
BDC12514
3E21167B
3DAD2335
3C26E041
3E13B2A3
BD5F2023
3E06610B
3E023CC7
3DAC6544
BDE4366C
3D135A8F
BD6A0033
BDE96E36
3DEEFCD0
BCE3F864
3E387984
3E32C45B
BCF56967
3E0AD4F3
BD837315
3D412610
BE9A8930
3B0ED830
3E13030F
BD84BE63
BDCFC689
BE40BA54
BCC998F3
BDD0FFF1
BC0EFACA
BD854DD1
3D1CAD95
BDB61B30
BDABF60D
3D3A9FB5
BE208AC4
3EE86421
3B9212AE
3E5F22F5
BDB69555
3DB79883
3ED20A85
3D8E3298
BDECFBA2
BDE44037
3E895ECE
BE14CDDD
BD8C4003
3AE886FB
BBF52B69
3DD9C46E
BCD8FE0C
BD4F16BF
BC5FD9CB
BDCC4E9F
BE25C416
3EC2D04D
3E4C3492
BE615B04
3BDDA86B
3E957AAF
BB5F0837
3D919519
BEC2D822
BC6EBD60
BE2B2DEF
BE224231
3EC8EB9E
BDBAB615
3DE80EEA
BE2C6698
BDB2AFF4
BDDEA23A
BDFE8D98
BC612A83
BD8AFFBD
BD941F9E
BB20FB51
BD88C1F7
BD3E7AC8
BDD42F7C
3E2D6537
BDB91349
3E4AF95A
BE26AFD2
3D4A3B13
3C9F7048
3E84F253
BD25D0B1
BDB0FEA7
3CC27A12
BD2F98F9
BE21F955
3E6A33A9
3BF76B54
3E3254BD
3DC5B0F8
BD24747F
3E0089D8
BDF48AE8
3E12D923
BCB2D40F
3AC9B56C
3D044330
3C19072B
3EB30381
BD93D87C
BE30CF93
3C9CE509
3E2D7DDE
BBA2B37F
BD2399BE
BDAFBC49
3D2EB8A4
3E829E60
BD9AC395
3E3EE68C
3CA95DC3
3DB92A13
BDFBE601
3E622EEB
3EBE4F13
BCFFDD14
3D68D9A7
3ED0C93B
BDFA66CF
BDD1D2D6
BDC1B950
BDAE7370
BD1CF82D
BD5DFCE9
3EB74475
BE0872FC
3BD1C150
BCB8ECFB
BD4C3B3E
BDEB527B
BD27E589
BD5F6519
3D3FE200
3D8B09F5
3E471E1E
BD67DBDD
BDB09347
3DA80FE0
3DE8991D
BAAEFBB6
3DB4FC1A
3DBDDBE7
BE290374
3DD7ED36
3E83B6C0
BE1A9557
3C0D96B2
BD80946A
3B9D671F
BCBA470C
BC32D2F4
3B79920F
BB745B22
3D838AD7
BDA22D6F
BDF9A586
BE21AF5D
BE1AAB58
BE0CF4B1
3C8CB9F5
BD19ADEF
3E5111FD
3E5E9B6E
3D2E3039
BCD1F1BD
3DA1B43F
BD6C334D
BD2CAB17
BDDC0827
BD1284CA
BD773103
BD9ED548
3C73D2DF
BDC0ACDC
BDDF4883
BD70E8DE
3D869FEC
3E1EEC7D
3E84F064
BD893865
BD75FB67
3E8DBF5D
3DC6033F
BD4B1715
BE1A24CC
3CBC8394
BDDFAE26
BD5DF2FD
3E64E1CD
3D4E53F1
3D317CE1
BD59292C
BD509C40
BD8D78F9
BD96106C
3D98E958
BE135042
BDE9B3F5
3D903F57
BCEFCFE0
3B5ED0F9
3DAFC4B3
BD898381
BDA46B43
BDF342AE
BC09F46F
3DD6D3CF
3DC59297
BE0EE971
3DD12217
BD8981B7
3DFEDC86
3E0459FE
3E167E20
BD7BA9C8
3E23C9FD
BD5FCD3D
BD26C0B6
BD03812A
BD82BB6A
3BDE7C61
BCFB0D9E
3E18666A
BBEF5D66
3E4117E1
BE0E2E5C
B7E52D91
BDC3D436
3E04C762
BDE270BD
BDD1BD85
3D417614
3E1A122B
3E2F3CDA
3BBC77FB
3D972E11
3C31392C
3CF485D5
BDFC5F0F
3E3EB3EE
3E226C4E
BDA03441
BE798B93
3E00854C
BCEC41E2
3CF25019
3DD4B590
3A53AC47
3E96FEF9
3D43B7CB
BC053333
3E8E72E5
BDAAC31B
3E1EEC22
BD52C6B8
3E107879
3D896E35
3E066849
3D7F0F35
3CDDFDB1
BDB01649
3D5E59AE
3C431D8B
BDFA0734
3E03BA53
3E143323
BDD7E025
3D011ED2
BDC4194F
BC359CA3
BCD5D459
BCF7201D
3E9AB58A
BCBB9CD6
3C169AEA
BDC9826E
BE06EC7C
3C7C9A8C
BE3FF2F3
BD912A2E
BDEDE5AA
3D4EE0F0
BD6117D0
3BB04570
BDBD3DE1
BDD02E2E
BDEC4DD7
3CD47AC6
3D66960F
3E29B302
3E46A4E9
BDA76E2F
3D9A4CAB
BD057A76
BD7B464A
3CF16F32
BDE40C21
3D994E77
BE4FAE6C
3CC8E27A
3DCF7378
BCA2C741
BDDF49BC
3DE57509
3D730D44
3EA968D1
3EA5DE68
BDD5071A
BD87025E
3E883F73
3C431B91
3BAE9CC3
BE738ABA
3DE604EF
BC6737A2
3D1987BC
3EA9E6BD
BD4A0861
BC11EC9F
3DADC812
BD323D0D
3DD3E941
3D75592E
BC0F2E74
BE390DB3
BE023041
3E5E9364
3D0EB2DF
BD3825E8
3C7BDC5D
BD30F726
BB5F69C9
3D34BA6A
BDB386E7
3E8D2960
3D0FCDE1
BC808191
3B1803BA
3D9B07E1
3DFBE686
3CBAAFE1
3BBFF837
BDACA11C
BD206A71
BDC5D98F
3D649D2F
3D7B4879
BDF7375A
3DDA14C8
BD388DA5
BC106646
BE1A02F4
3D3C2F7C
BE2FB60D
BDE44A5E
3DF40CBA
3E0FD0F5
3CEB4780
BE3BD98F
3DA77DC8
BCF6E6E4
3DF03323
BC921F55
3C42FEEF
3D09DE76
BDD14200
BCE0748F
3DB08E43
3E10AE27
BE2B271B
BE017B88
3E7B6CD6
3E102DF5
BDAE9F18
3D6F484A
3D99C8E6
3EA656D1
BD4ED67C
3DC322D7
3E3DF90A
BE3C6E41
3DEC7385
BD939419
BCA3675E
3DFC3D56
3E0266A0
3C350A8B
BDB607AE
BDF4DD57
3CBCF331
3D35A574
BCC16CF8
3D800146
3DE6F520
BE474342
3E537A38
BD2E6758
3D9A8C89
3DDB8C7F
B881B1C6
BE48FBCA
BC84E3C0
3CC767A7
3E57EB8E
3E73CB5E
3D294812
3CFDD29D
BD85D8AE
BDC0F0D4
BD50B63A
3DA731F6
BE2C4037
3D81592C
BE3D9811
3C8B4A73
BDB3E14C
3E0C8D1C
3C3389D9
BE812885
3DBC3BD5
3E1F8F26
BDCF0CCD
BE2C2583
3DEE9C8F
BBDFBEFA
3E2F7DF0
BE08E2BF
BDEC7959
3D0B7AC1
BD007544
3CD7DE87
3D7155B4
3E6844C4
BE2A0D77
BE665E1D
3E86BA3D
3DD02726
3BAD0E46
3DD96BC1
3E0083D6
3E9547B1
BD5BA471
3C572ACC
3E7E5B97
BD278F6B
3D0832D6
BD1FA561
BC2A2E9A
3D0059BA
3D79E324
BD53D0BA
BDA11429
BD80B349
BDE54054
BDF2BF52
3DA8BFF3
BC69AF00
3D61E40C
BDA9840C
3D015666
BE2F7A5F
BCBFFA20
3DA80D84
3E0012ED
BE4A53A9
3A9ECE7F
3D7720A4
3CBEA97A
3E1D6DCE
3C949D17
BDDC3565
BDBD5F8A
BD3243D0
3DAA0232
3CC6BA2B
3D0DAA65
3D0C413D
BE2D6C26
BCEDC827
BDF40693
3DF8E9CA
3C41E9B5
BDFBB1D8
3D3C6ED9
3D826864
3DDC9B39
BD7A9CB0
3CF4A965
3DB76A5F
3E07AF58
BE10EFB7
BD11C960
BD606B43
3DC7E77C
3D4753C3
3CB65987
BC086C55
BE1D9072
BE275B8D
3E84C96C
3D88DDD9
BDF59B23
3D402A8E
BD46482C
3E232C15
BC6B9A48
3D935414
3D52E764
BDB34E71
3D0DB16E
3C8FFD7B
3C0B55D2
3D8405A6
3CCC552B
BD37630F
BCBC7301
3D1F4E79
3D9E15AD
BD229658
BCA48C2F
3D923EFB
3E09430E
BD4E84AB
3E078D19
BE009A9A
3DD11B0A
3E3BF7D4
BD2850BB
BE5E03E0
3D9A0C86
BDD2FE0E
3DEF058D
3E31D7FC
3E27D1B3
BCD7662A
3C231E7D
BDBC696F
3E140F58
3CE2CF2F
BC97EDCA
3DDCA9A9
BE2C1F28
BC647806
BDBD895A
3E503E24
BE2BAC34
BE06AF8B
BD8168DE
3D713501
3CC33915
BE2D3F5C
3DA20406
BD6326C2
3E1E4276
BC3DCEF1
BCDE5876
3BFF1553
BDD51104
BD5DCB85
3E4B6E2E
3DA4192E
BE82B378
BEA04F51
3E0133B2
3D8A62B2
BE35DD97
BC22D40C
3D253A48
3E29395E
3DE2B041
3E07B363
3E02BE05
BE5F4FA3
3D24CAE0
3DC5861A
3E2C5957
3D13F14C
3DDE7085
BE046805
BDE1EB26
BE2780CC
3DA84FD6
3C780731
BD1DF223
3D87DA3C
3D278E11
3C816DA3
3D8565E8
BDC2C5D9
3D62BDE4
3DD8C90D
3C3F2246
BE445B3F
3D87136C
BD868624
3E570B05
3DC039D5
3DC74860
BDFBEA68
BD4D55E4
BDD9523B
BC6CE894
BD895346
BD980B0D
3D97E2D9
BDAD1626
3D42C272
BCEA87D9
3E05D27C
BE10AFDA
BD01930A
3DEC287C
3DF86EB4
BD955D78
BE809320
3C6B6F45
3D1C3810
3DA952D9
BBB3C903
3CFB8590
3DED387D
BD87BCBB
BD5530BD
3C17C692
3E7346C2
BE76B4AA
BDBE8700
3E8A4E37
3DAA4892
BCE7B24D
3DBE1FC0
3BEB73D1
3E9CD791
3D0B951E
3B186E78
3E1A29BF
BE131483
3E15BAF0
3DE735E5
3C9E8AFE
3E6A3636
3E1EF21C
BCF24F8B
BDB68804
3C03439F
BDEB6ADF
BB74A408
3D2B49A8
3E032344
3DE32C53
BE00D3A7
3DFDC9C4
BD93BFE3
BD5925FB
3E6D9554
3D2E86EE
BE47D829
3DCC88F0
3DDFA9E0
3D192930
3E71DBA2
3E454CCE
BD9D65D5
3DFB8A75
3D15D6C0
3C8C6B6B
BD57FDFC
BE0E0AB6
3D157E86
BD7EC083
BD00CF93
BD0D970B
3DD1B475
3D0D692E
BE1AABB6
BB419DEA
3D27B19B
BCE33FFF
BD3994AA
3E01E4F8
BD1AEC90
3CED72AE
BD892B59
BD5919A0
BBE42B15
BDE56FFE
3D961C91
3E5AD97C
3E039408
BDD21ED3
BE4172A1
3E83E204
3E04472E
BBE80EA0
3D9FA1C4
3CA7CB3A
3E73C7BD
BDDE7FFD
3CEB2179
3D9496B8
BCFB7F52
3D948EC4
3D958036
3D4F5123
BB9F9B64
3E56088F
3D4552D9
BE048C5B
BDEE39CA
BDC06E62
3D689198
BDB179DD
3DF8AB92
3D66124E
BE0ED594
3D84E741
BCE5AF93
3D04ED37
BAF2BB9C
BC0B04AA
BD11D431
3D419C31
3CE4CE53
3D6F68CD
3DA9E239
BCDC4DC2
BDCB59CD
3DA89656
BE426EA5
BDE1202A
BD162CC6
3D0C6B67
BCC3FE6E
3E85E126
3DEFF90B
3E126E20
BD2F8EB9
3C3D7D43
BB06351F
3D9B1612
BCDC3C58
BDF2571E
3C494EF3
3D18CACF
3E359083
BDD3C8EC
BE2871AC
BD9831AA
BD500C15
BDB0891E
BDE6697E
3D86C35F
3D953AC3
BCE57EC7
BE286750
3D2ECE48
BBDC3EDE
3D5E9F8B
3DE0E0C3
BD847B83
BE79922A
BD9479D0
BC3DD4A0
BD0B099B
3E4ABC22
BCA8CB20
3C03DD30
BDC7792A
3D5501C1
3DDA7F64
BDEACF32
3DA0E82C
BCC6159D
BD5621F2
BD99F38B
BE08B994
BB839C95
3E0154B2
3D9F54B3
BC79C6CD
3E429F63
BC8E2C7C
3B7FD230
BDB1FBD9
3971F462
3DC51159
3DC808CC
BDD1F5E5
BDC99488
BCED64DB
3E398877
BC61C121
3D54892E
BC41A829
3BD2B417
3E364A2B
BDB7AE89
3DAD6282
BD087719
BE0B9017
BDFC3BDE
BBB48F78
3E3CE610
3D823AFA
3D71FA49
3D9BDC45
3E09A778
3BCD1782
BD2EA72E
BD09B144
3E0F2546
3D235E8F
BDF7CF9C
3E3228DE
3DE6B5DF
BD4E364C
BC8DF093
3D166E3E
3E06B53A
3E0B5CDE
BDF96E5A
3E00035C
BCA7483A
3D890204
BDC38672
3D52EECA
3D64CDD6
BD8C20F8
BAA6A462
3C2F02B3
3E09991A
3DCAB2A8
BE0262C0
BE07D80C
BDC2F1A5
BD7C6F78
3E2219C8
BB186509
BDBD5244
3D636CDA
BD5FCB17
BDD41846
3D76CE18
BDD01DB5
BD7CFD14
BD37E227
3D996AA9
3D7C099C
3DB1B6A0
BD4E9E46
BD95C135
3E1E4B8E
BD84314A
BDAD25D4
BCAB2EE8
BD8A8EB7
BD09DD54
BD066C29
3D0EDCA2
BD7C5D67
BD9CA704
BE0A9BB2
BD721E6C
BC2BAAA8
BD4B85DD
3D9E3A55
3DD1E989
3DB68656
3DC60CA3
BCAB18D4
BD4753EA
BD6889B3
BD796949
3C26E855
3CAA8344
3DC0B3BF
BCBD4D92
BD9955C0
BC5DD068
3DB36A5B
BC5E2AC9
BCC71EC8
3CBA837B
3E296294
BD6B0F8E
3DF79D4A
BD9B79D8
3D0F1500
3E11E2B3
BC885D54
BDC3E3A8
3D963E1E
BD82A166
BC0D6B20
3C927F6D
BD90C6F4
BC9B916D
3D9A6F5C
BD769D5F
BDE0BF39
BD77A1A0
BDBFD0E6
3DF1AEF7
BCECBE98
3AE8CBF3
3DD55CEC
BCA747DB
3D0C6687
BDFCE342
3DBDB00C
3E01B217
3D8DB0F1
3DE72159
BCBF2006
BD36F696
3E118B28
3CC8DC12
BD7FA1BB
3E09D871
BC8DEF97
3D10371F
3DFCB15D
3C9BCA55
BD43BA40
3D940614
BE1A8C5B
3D8E3338
BC530D00
BD808A7F
3DB53559
BD91BBBD
BD855A54
3D38ADBA
BDBA90FC
BC8BCC55
BD3B735E
BD1A28A8
BBAAF7A7
3DA6081E
BD0FA7FC
BDA26CF5
3DCC28A1
BC8B9660
3D663576
3E0130D0
BC4B0C8C
3E10B243
3D4FD6FB
3DB42A77
3D319A6E
BD7F3ACD
BD2D5FDD
3D271CE1
3D348466
BDAE7070
BCDDABCE
3DBC7C4D
BD5039B7
3D671377
BCB7267D
3D052DC3
3DFE7360
3D9FAC0C
3D66BF36
BD4D634A
3DDB5740
BD239AF4
3D4E128E
3CDCB5E3
3DE2764E
BC117B51
BD9F2598
BD57911A
BCC10750
3DD7A764
3C7BB6FC
3CB7DD5A
3DA56882
BB54AFFA
3D38BF36
3E13143B
3CB10E65
BE02B0D3
3DEFDFDA
BCC3282D
3DB72A98
3D9CC395
BDC4BDE8
BCDE0CD3
BDF16882
BD546A2A
BE067A21
3D875A06
BD752742
3C4F6C2A
BD7492B9
3D84C6E4
B8F98800
BD8A741B
BC4BED90
3DE6F1E0
3D82F868
BDFC03F9
BD9DA181
BD7D8513
3D6BBE1A
3DC08005
3BEEDE8C
3E28155D
BDB049FA
BB11AB20
3E18FCE4
3DFB79DF
BCC3131E
3E15F620
BC078C80
3E3131E5
3CC025E4
3CC8209C
3E0016DA
BE097034
3DF0ADC6
3DEF51B4
3DF07358
3D8CB25C
3E0F0BD3
BDC99BAA
BD98F91E
BD7AF476
3C8999DC
3D639C73
3D60FC4E
3DD1BD76
3D058600
BE294A48
BD1E487C
BC9523AF
BD745CFD
3E2D0254
3D6510A0
3D6D19F8
3DC5978C
3CCBD59C
3D0150B7
3DBD341A
3E07BC73
BDD08B4A
3D0F118B
BCC33D79
BD9F260A
BDE5EB73
BDE0844D
3D4B5DF3
BCBBE6AD
BD8B8F11
BD85063E
3D49B435
BC2D8CA5
BDB499E9
BCE19042
3E0F7D0A
3DE4BF25
BDFBEC95
BD31F012
BD946D62
BD44BC23
3CD47266
BD07D575
BDAD00BE
3C62A6F3
BD3EA124
3D879D49
3E11E6C9
BCDDE498
BDE7D653
3E3ECD75
3E049034
3DE19121
BD7BDB3B
3D9961E6
3E08013B
BD52F7DF
BBB45F30
3E0F2DE3
BD039F31
3DE5AF88
3C8B8C20
BB872564
BC8594F1
3D5D1A7F
3CB84D01
BCF68C18
BE084FAA
BD11C1E1
3D52420A
BDAA7A30
BDD132AA
3D8625F1
BD7DB4DC
BBF78F39
BDB36831
3DD06B80
3E0560BD
BDCB12B6
BC3EE0C4
BCD65B74
3C132F0E
3D91A232
3DAAC0D2
3D834ED9
3C2D9E44
3DC7C724
BD1B9070
BC49E372
BDD1C23C
BCF7A16B
BD954843
3BA436F6
3DAF9BDF
3D8AF2F7
BDA5E20E
BB433EE0
3D9DC9ED
BB002BE6
3C03CCAA
BDCB8494
BDBC66A6
3C180C58
BD37C4C7
3DE1D7DA
BC4715DD
BCA636D3
3D6F5A3E
BDFE0C9E
3DA1C6FD
3DC306E6
BCB6F0F8
3DA320A2
3D078A16
3D1DB9D4
3DF6BA1C
3D97FD64
3E0BABDB
3DA086EE
BCFD9F38
BC1FCC68
BD9A4EC2
BD4D912F
BCC0F068
3E1706BD
BD7DC41F
BDC7164C
BCCB9FC5
3DA6B4C7
BDA53EBC
3DAC2AA5
BD542D8C
3A9E03B0
3D343852
BDB66F7E
3BD57EF5
3DC7EE10
BCDE05EE
BD84D23F
3DB32ADF
3DDF9F96
3D61D12F
BDDB02ED
3CC59F0B
BCF74480
BD99981E
3D3EA0FA
3E09AB01
BC68A1A2
3D4D09B9
3D8379CA
BDD6C106
3C66D144
3CD30AAD
BDBCE3C0
3DCE3A45
BDC2A392
BD856D6B
BDBCB153
BD83DF32
BBDDEAD0
BD863551
3B14BB99
3D8AB3DC
BCA611E8
BE194A12
BD04E2ED
3D96B57D
3CA6D3E0
BDA1365E
BE06586D
BDA08C3E
3BE9B940
3D83116B
3D529C80
BCC1A12C
BCB2EEAC
BC7D0622
BDC0C0DE
3CA5D05A
3D9A6A8D
BCC3DADF
3DC6B7FE
3D0A55AB
BA2AB100
3DC79039
3D1FE46B
3CF59F2C
BC62694C
BDCA3FA9
BDCC2C1B
3E03D548
3D705962
BDDD01FF
BD0B9F98
3AC396F3
BD5E4A0C
BC3CC856
BDDF4C5B
3DF77DF2
3D41A697
BE09A5DA
BDAC42BB
3CF49BC3
BDDF7AC2
BD807DE6
BDA447C8
BD3B7843
3C5AC7F0
BD381E54
3C91F52E
3BE350A3
BD3B3325
BD9E5085
BC6B8C81
BDCF432B
3DD217E4
3C958D1B
3D758157
3D62AF3B
3BBEDE96
3C7AE007
3D525566
3DF34620
3D3C61A2
3DB9A03D
3D01BA1D
BD105E49
BD500A14
BE063294
3AE442D0
3DB033BC
3BB70CBC
BD8DB90B
3D401A48
3C3F6213
BDF106C6
BD4E0A62
3B86B514
3CDF9B41
BE029258
BD895C0B
BD8B336D
BC0BC862
BDBC6FBD
3E0829D0
3C3CB403
BC68F9F2
3DB08595
3CA2A594
3D4E026F
3D9DBC21
3B9D4811
BBE75DE3
3DE5A037
3E099429
3D32A266
3D515504
3CDA3824
BCD5B658
BD68A27B
3D9B7350
BBB50BC0
BD04F14D
3C157653
3D2A1EED
BD31E99A
BD43A0AE
BCEE0E01
3C63FFF5
3D3AACA9
3D64A0E4
BD031D59
BDC64C51
3D1C8689
3D326481
3D9165A0
BE19D437
3DE7315F
3CF771C8
3D9C32D8
BD8BB793
BD7F6912
3DDCA35F
BD691DC6
3DFD53E9
3D270539
BCD3FCA9
BD9B850A
BD8CC191
3DAEE17F
3DDB531D
BDE165D3
BD9E3824
BC0E5C4A
3D10DE80
BD21751D
BE03A951
3BE8D0D8
BDC982D0
3DA42B0B
BDCB9838
BD1501BB
3E051AA1
BDECBC28
3D1B6348
BD69B633
BDBEF52E
3D22A5FA
3D9B4090
393DC0FB
3CE9A1FB
BCA50144
BD7EC507
3ACEC268
3D903EF9
3D792F9C
BCF6BF3B
3C5DC187
BD4DCD38
3DF8797F
3CAE3B12
BD8032A7
BD34754E
3DB7AEAA
BD1914C1
BD421B0A
3D23EB8C
3DB4A1DD
BE14C030
BD5DC7C6
BDAB2000
3D7607D2
3D71A016
3CF913C4
3D6C639A
BCA2FE10
3D42CC54
BD4921D2
3DB76F46
3D950272
3D61D9DC
BD7D1661
BD4F5DC7
3D5E08BB
3D9CBA05
BDA99613
3E041C10
3D110E72
3CE703E6
BD82A6CD
3DB8E292
3DA0E3A3
3D88FD4F
BD2B89CD
3DABF56F
BD27B030
BDDEFC3E
3E02B6D1
3D10CF0A
3D00DDBE
BDA991A1
B94E2384
BCFA7601
3D62DB3D
BD944378
3DCFE5A9
3DFB932D
BD428902
3D58E3AE
BD1C4758
BD691A36
BD5F1FCD
BCFF24EC
BCB81909
BD8C325E
3D1F5EFA
3BFB99B0
BCAEC39F
3CAD6EF8
3D3EFAED
BD9994D4
BD59B079
3D97DF99
BCF860A3
BC9A0C5A
3D302A76
3C5E97B0
BCF7533B
3D4DDF4B
BDE79CC2
3D63AC9F
3C11ECDA
3D7B8B85
BD3A634A
3BD80632
BDB1C623
3CE1B652
BC244688
3CD996D1
3D64DFFB
BCD0E8C3
BD88D0CA
3E0733CD
3D64BF2A
BD25C237
3C982CFB
3CB0BBF9
3D2C92B9
3DCC54AF
3D9DE595
3C89CC5A
BD3D8922
3D8CA2F8
3DB00709
3DD78268
3D67CB56
BD6FA531
BDB0D146
3CF6EBCA
3D1F2EFE
BDF7DAE7
3DB2427A
3DB9AECC
3D6DD71C
BD6A7A88
BD4D7D99
BD2C8C87
BDE37CC0
BDA3646A
BDABE44B
3D59C145
3DAC4FC4
3D64BC7E
3BE49B67
3C038866
3CB1FE68
3D99E438
BCEE36FD
3D710FD3
BC3F4350
3DDA4165
BCE25028
3CC10D4E
3D97633E
BE0CE339
3DBB1CB9
BD94E21E
3D133CEC
3D0343E5
3CF31124
BE04290C
3DD5DCC2
3D03BB93
BAD36740
3DC917FD
BD963874
BDB05911
3E08448F
BC9F117B
BCC83D3A
3C037B37
BDDD5651
3DE72508
3D405E76
BD729EC1
3DA10579
BDCBDBEF
3DD33B89
3DC1FE88
BDA6959C
3D4A6B7E
BA82DFF7
3DC0BA8F
3D32CCCE
BE11A597
3D42326C
BD3C817F
BD7101D1
3CABBB47
BC83BE64
3DB91DEA
BC0D1EF9
3DA2C896
3D579142
3D4F92AF
3D955F99
BD9F98AF
BDA31009
3E2C8962
3E310EEE
BE087E24
BD05B5F1
3C2F7D80
BD85432E
3C3B85FF
3DA53983
3DEBF4F1
3CF7F738
BDE074FC
3BF74298
3C1700F2
BC599248
BB322214
3C97072C
3D8A6A27
BE13DFC5
3DD442D1
3C9134A9
3DA0117F
BD532F6F
3D3DD214
BD05751F
3DD9BE9F
BDB176B8
3E158991
BD425DEC
BDA25E69
BD5024F2
BDAA344B
3D193C14
3CC953BB
BD989A8B
BD915102
3BAD0F00
3D27FE5B
BD56527D
3C8005C4
BCEBB052
3DBA8A1E
BD0EAC45
3DD2F408
3C53E978
3CA47D94
3CD7D49E
BDB24924
3DB0D690
BD999EB6
BD98E75A
3DD06611
3D11436E
3D9806F9
3CEBC03C
3E02345A
3DAC5A75
BCDD60DA
BD995608
3E0AD507
3C77FB28
BD42D218
3DDA381D
3D6031F3
3DA2F352
BD8D374F
BDA278FB
3CA72BCA
3C9C7632
BDBEEAD3
BBDC5680
BBE6C063
3CBF30EA
BD886456
BD3197AD
BCEF3546
BDF3C76A
BD9D31E1
3B911A80
3E0AE4A9
3C3CC168
BD2550FA
3D03BA29
3CA1EB28
3C2A9FD4
3C919AD1
3D933422
3DD9314B
3DA42214
BD9353F4
3DCF1DC1
BE11B032
3DB514F5
BD031453
3BD06BA0
BD98BB2E
BD44D9FE
BBFDA552
3E088F2B
3C43E0F8
3DAD5EF1
3D528442
3DA86425
BD95EAF7
BD3FBC73
3D153AF9
BD2586EB
3DEDC966
3D8F309F
BC46C742
3D924D2B
BDFA969C
BD30DDA9
BCC2077C
BDC05D13
BC0339F7
BDC19710
3DF14AD3
3D776E0E
3DE0395E
3D4BFCBE
BDA87BAC
3CBCA576
3D8D096A
3D90C02D
BE025597
BD7024B7
3D38EF1E
3D885919
BD836429
3D63D240
3DB3A22E
BDCB9D5C
3DDC45DD
BDB7801C
3DC33EA0
BDC1C6DB
BDE2F392
BC2740CA
3DDDBB80
BDC83072
BD3FF484
BD805942
3C96BD93
BDA4C65E
3D7543FA
BD68FAAB
3D8D6D26
BD6202B8
3C3055BB
3B3ABA62
BCDCE48B
3D9080B3
3DDFB08B
3D4FB736
BE197BB1
3D9432C7
BC1C7DC4
3D82CCDB
3DB656A2
3E04EC59
BD00CB7E
3D2F14FE
BD63292D
3DBA5D8B
3C818941
BD3A7E5E
3DA6C6EE
3D004799
3DA42844
BB0A9DA5
3D69803D
3DB31A77
BDA19095
3C141B66
BD909D66
3D9E79F6
BD30B2E0
BDF31213
3D2D5A8D
3CE6AA6F
3E0465A2
BDD2C310
BCAC9C83
3CE9406C
BDF865CC
BC8F1605
3DB76D7C
BD9F840A
BD05EE64
BD522905
3CC6D6C4
3DD8765D
3DA5EEC7
BD9E2035
3C976D7E
BE04DFA6
3D8DDD4B
BD612E07
3DA10040
BDD893BB
3C336410
BD960655
BD864A12
BDC23AC8
3DD0213E
BD8D7BB8
3DEE6C40
3D9AD521
3D82C5F9
3DD74514
3D9964F4
3C9B5F92
BD110FC9
BD6A1A21
BCC10B08
3D4162A9
BD9AD25B
BDB0CDE2
3D8D40EA
3D01F1C6
3D89C46A
BDC837C7
3D8E24C0
BD4DC543
BDEAFBE2
3CF27B54
3DBAEDEF
3DABF8DD
BAB5EF8A
3B114B40
BD6C8C2C
3C0F793F
BDCF89E0
3D1AC15B
3DFE971A
3DDB2013
3CA6680C
3CC2EDFA
BE135279
3C665E96
BD32AB6E
3DBE8C7A
3E090562
BDA45872
BBBABBC3
BD2ABAC6
3D908142
BC8D95BC
3DA50AFB
BCE444B9
3DE26542
3B4F75C0
3B9C3A09
BD539EB1
BD5F9800
BCA77BD9
3CEEA985
BD9FC156
BDC63C70
3CA1BC21
BCE0BB1C
BD0111AF
3DC99738
3D806740
BB23AE8F
BD9905FF
BDA84176
3D99B6EF
BDA7931A
BD66B4B0
3D39234E
BDDC4C6C
3C3DD188
3DE645F4
BD3F9F1F
BD0BA960
BCD0BF87
3DA12809
3DCCE5D9
3DF12E97
3D9498B3
3CF8669C
BCB49200
BC9AF46C
BD993BA9
BDC09AB6
3CBDB97F
BD06C24D
3D6BF620
3DDAE0A7
BD97E568
BD73E41C
BBDA24A0
BD041202
3E3815C1
BD8F2D8D
BD81DE02
BDC44D1E
3D0C246A
BC271960
3E37038D
BDCBF5E0
3E0EE88A
BD89C5AB
BC6FC0B8
3E4EA871
BAAAD84E
3E350796
BD6C1DE3
BD840A5D
BC2136D2
BD875BAA
3C2B161D
BE129FFD
3D4ECF76
BBC03050
BBC5A300
BD4C23CD
BDC8F926
BAF72059
3CF270D0
3DF0F7E8
3C8BC7F9
3D5C9B12
BC07AF00
BD1BAF9E
3CA98C91
BC78AA7F
3E566792
BCDAAD42
BDBAA0FC
3E33FF9C
3D42D7A7
BCE80DD8
BCFDAA65
3C9E71EC
3D1317A2
BD5353E2
3DB93B7F
3D70143F
3E3A7D4B
BC49E5BD
3D862DB1
BDCBBBC9
BDCF0441
3D367F6E
3D9A9CC3
3CD97BDC
BCA2FDAC
BC7DDC18
3D1BD1A4
3CEB1E1F
BBB3903B
BD6D8282
BDBD2D40
3CB8DE54
3E0F4F64
3DDEBFC1
BDE241A4
BDBBFA27
3DE29570
3CF8DBDA
BD6F476A
BDB934C1
3D301F0B
3DA5B125
BCD0690E
BD50E731
BD919808
BD6478C9
BC438D01
3D301658
3DB8CEC7
BDC75EBC
3CC80D67
BDD87354
BD5D5974
3DA08EAB
BDA2DFFC
3A6DE480
BD4DE8CF
3D81683F
3E088D2F
BD7B9193
BD529483
3CA04FEC
3D78D051
BD0D6E85
3D67E0E6
3DB9B580
BDB5C3D1
B9AC1161
3AAD3300
3C76911E
3DB63860
BD55AB16
BD12147A
BC144FF8
3D4436E1
3DCB33AF
BD9B9F94
3D803197
BCFE3E3C
3C4C65CB
3D5C1DA6
3D9CCA5C
3DFEFF15
3D857353
BDE23D29
BC976724
3D3E4448
BCFAD030
BDCCD2AB
3CC7AD9C
BDAFA3CD
BDABFB86
BD39F3AB
3CA49AB4
3DA25801
BC3843F8
3D467A8A
BDE32003
BDA262C9
BD35C6B7
3C9AD236
3D777DEF
BD9D802E
BDB0D404
3D0604BC
3DBFFFBB
BE0DB7DF
BD832387
3D21F686
3CC7555C
BD8A216A
BC522414
3D4591BC
3DAB9831
3E0549D3
3C84826C
3DB154F9
BC47739C
BDA0F0D2
3D235EB6
3CCC0F6C
3DEEB023
3C204DE9
3DB34FD9
3D042227
BD5C4C7A
3DFB6092
BAB80ED2
3B6299C0
3DED3F3E
3D8D9B89
3D143087
3D3B7630
3CD567EA
3D12BF14
BD8A228E
3D3ABADA
3DE700C3
BD442CAF
BD98506D
3DAF9B49
3D4000E8
BD8DAF3E
BD85F20D
BC2FCD0B
BC86665F
3B8AB5F2
3D11EEDE
BC5FA840
3D2C0EDE
BDE3433C
BCAC4144
3C3CD4DC
BD1AB8C6
3D1B3972
BDAD270B
BD5C8B6D
3DC17F97
3D47041E
BCAE33B4
3D756B62
3CB56474
3BEEEF65
3DAAB770
3DBE3B8A
3DC5F874
BD8E603E
BDB297CE
BCC3E1DB
BCFE6916
BBAC4F68
3DC607F2
3DB51339
BD4E2AFD
BD946DE4
BDFA67BC
3DC08A8D
BDC285F2
3D6D1D25
3DD213C5
BD995159
3DE0C86B
BCB7F824
BDD041B8
3C88FA90
3D12BEB5
BD33A14E
BD698E50
BDD17E98
BD963AF5
BD6F1557
3CE5D1F9
BDCD3307
BD18DC13
BDAF4675
BD0B6C8A
BDBA06BE
3DAAE32E
BD83E39A
BD8C4F8C
BD08CDA8
BDC47A64
3C80A654
BD9BEFBC
3DDCA1AB
BCCF7BF5
BC3E2906
3C37EFCC
BD2F0B7A
3DB54B39
3DAD4DDD
BDA207BD
BC9482EC
3CE6B664
BD21A93F
3DE71FFB
3DB9C956
3D10BB2E
BD271F3D
3CFE9218
3A44EFEE
BD43C847
3D5548E6
BCD346C8
3B8C7ABE
3BBBACE0
3D03B31A
BD0D93EC
BD9C2F29
BDE28DD6
BDE0B726
BDDA8F46
3E1F37EC
3D71051D
3D7F6322
3DAA715C
BDAB1B5A
3C680C78
BDD4F912
3C8A0645
BCC1C30F
BDD6BB81
BDDD1414
BDE2C4CC
BD8C8623
3DA1547D
BCA55840
BD558CC1
BCFEA87D
3D577927
3D18F019
BD92E601
3D5857D9
BD397580
BD51C29B
BD3CEB3D
BDD81F34
3DCE817E
BD806AC4
BC3FF0B8
3DCAA943
BDE0FBA1
BDA7CFFA
3D0ABF6B
3D351D86
3D811901
BD985754
3DE299C5
3D3D8602
BDE25134
BDA35BC1
3C006A66
3DC3A822
BDDE48F9
BE01F2B1
BB090AFA
3D293A86
39FFAA00
3E0736E9
3CC9413C
BBBBA8D2
BCB9571C
3DAEEF18
BE0418C1
3D4B2D8F
BD903DAB
3C397AF8
BCCA5290
3DF09D80
3C756CD8
3D26C928
3DE69882
3CC73DE4
3DB91476
BD7FC582
3D01503E
BDB1A7D2
3DFE5441
BDE2BA48
3D391A63
3CBF6634
3D68F059
3DC82A4D
BD6899F0
BCBBF2DF
BD9DD3DE
3BF60173
3D6EB072
BD301C0E
BCA26DE6
BCCA7C8B
BD94D67D
BE1532FA
BB85A2FE
3DBB9377
BCC29208
3C95ED5F
BDA58832
BCCAD08B
BC522B41
BDBDD42E
BD4D95B9
3DA47466
BDD3559D
BDE9BDF8
BBFBB5AF
3D90CAC4
3D88926F
BDB4DD88
3C4FB858
3DA1A6C6
3D4F4D8A
BDA3A66E
BDA9E59A
3B1C45CA
3D9C99D6
3BB83B37
BC8FEBE9
BC5B6597
3DE44EBD
BDCA11D0
BD518382
BD99E5CD
3B989840
3CD5D171
3D96E525
3DE13A94
BD92D486
BE0A6DFA
BD01786A
3D7406EA
BD42ADC6
BDFC068D
3D51E576
BD935806
BDE69CBB
3C684A04
BDA72AEB
BCE6417D
BD6B797B
3E1B1135
BDDC8ECC
3CD481BA
3DBA0A24
3DA83495
BDB8105F
BD12CBE5
3DB6CD0A
3D10D960
BDD7F3D5
BDFB9068
3B160180
BC710A08
3D8B991D
3D9726B0
BD524C4A
BCD15FEA
BDCB53B2
BDEB558F
3DAE1B9F
3DD7A841
3DDF0478
BC88E385
BD1B38A2
3DA8290D
BCE45E85
3C69CF97
3BF5C56F
3CC03703
BD523F8D
3CC0E4EC
3C33C56A
BD0A3DA0
3C109CF8
3C0CB0C1
3D0F2F92
3C9998A4
BDF6C6E2
3D892AED
BDD8C64F
3D576DB5
BB997CE3
BDF1703D
3D3B21FD
BDD0B0B9
3CB8ACCC
BC81427B
3CD4FA74
3D1F4A51
3CEFFCDC
3D500AD3
3D8959DA
3D78D4B1
3C950DC0
3DAD7A67
3DE675F7
BD759C18
3DD9CC75
3B730F33
3DCDD708
BDBF41F5
3DD4CADA
BDA0F64A
BD49B098
BD2EBD87
BD811DCE
3D440894
BD360231
BB5D7880
3D53B406
BDAD084A
3CDFC09F
BCBBD39F
3D331126
3E0AA54C
3D7CE44A
3D8B2D7B
3D435ABB
BD5FDB15
BD910139
BD0C493D
3DF58E6D
3CEEB014
3CED197E
BD4359F8
BC5EE7C5
3DBA8816
BDB03FE3
3DB800D7
BDC2F6FF
BD4C38BD
3D049263
BE13E321
BD7D18C5
3D4EB29A
3D00B954
3DB484C8
BD79E4E3
3DD445E2
3C54CF28
3DC56655
3DFB0634
BD90DF4A
3D723E8C
3D8F6FBC
BD7ED82B
3DFF75B5
3DCB5FBF
BD82A68D
BD7688AD
BC829738
BD6DC21F
BDD40137
BCF91E30
BD86A863
BD06197B
BD1467B0
3CAFDB2E
BC6117D8
3C079DD0
3CF6EACC
3D8BD6E3
BD9F9771
3DD9A138
BCAA922C
BD9F765F
BD08ACAE
BD793EC5
BC298B40
BD46D21B
3CB29883
3D0995EE
3DD5CE4B
3AF2BDDB
BDA7FA87
3CDAE98E
BDACBF23
3D6EF632
3C5351C1
3D4CF672
3D91DF0F
3D90CC49
BC5DA9F8
3D2C9656
BE054CCA
3C98FAAA
3C3C08B9
3DAB489F
BDC75BE9
BE04F342
3DF12138
BD5FEEB7
3DA86397
BD80A519
3E041D68
3CE01F67
BE0C4A6D
3D3543E9
3DE00610
BD7272E0
3DF96F98
BC2E19A0
3BD5EA00
BD5A932C
BD68160A
3D65FED0
BDC45173
3C50284B
BDF1A3BF
BDABC341
3C34642D
3D629EED
BD2FED4E
BCE607F0
BE03F56D
BCD3FC6C
BD9EAE50
BDBEEF8D
3C953ABC
3DB8626A
3D8EB204
3DCDF1BB
3C652388
BDC17D38
3D6B635A
3D65FA46
3C1BE3B9
BDE27D0F
BD5EE410
B989D713
3C142A4B
BC7136C8
3DF7C649
BE130056
3CA8B7EA
3D9A2F25
3C3893A8
3C826F44
3C541F15
3C385E18
BE0C76EF
3C8DF48C
3C98D114
BD5B288E
3E1A87BE
BD91C039
3D69933E
3DAFE0D1
3E0CE1C0
BCC61B97
3D032DD9
BC8236DC
3D251738
3DD75A63
BE00B21E
3C3D4ED7
3DAFF411
3D3F64A7
BE022B7A
3D0A5FF1
3DBD5AAB
BDDE081A
BE0706F9
3DD38531
BD6E5517
BAE54DC0
3CA2924F
BCCE8274
BCD1B208
BDDD2276
3E1C6434
3CC040CC
3E291FFD
3C574061
BD80A21A
3BF71FCB
BDC12CFA
BD949FF6
3E2EEA7F
3DA8EF2D
3B67EB28
BCEAB538
3D2B0B3D
BE05EDAE
3B0D52C5
3C81162F
3DE61D99
BDB70632
3DC46F4E
BDCB314B
BDE8C2B2
BDC3F7DF
3D9322ED
3DB8A71E
3C80BC14
3DDF80A9
BE111958
3D04771D
3D124DF7
3CBDA889
3C4CA608
BD1B4527
BD97D786
BE038CF0
3C9FD3AB
BDE91CC6
3CC15678
BD68960C
3D2EE6EE
3DC502F3
3D358944
3D9E6E9D
BD7CE96D
3D4EF961
3D25596F
BDB056AC
BE00E1A7
BD18ABF7
3DE8844E
BCF739C3
3D8C80C3
BDC4A405
3D83D700
3D5712FE
BE184B48
3DF7C426
BC14EBB2
3C79E42F
3C81FED3
BD20E328
3DD891D2
3D2185C6
BDBCC534
3DA05E46
3D2C68B3
3CB940A6
3D00BD33
BAA04314
BCE0A027
3DE1807F
3DA04527
3D95D391
3D0F8276
3C2A5690
3D00B8C8
BD7758BE
3DDEBD9A
BC0A5B81
BE13D9D6
3E0B3F3C
3D4EC1EA
BC88AE64
3DEE006E
3DDEF3F9
BDE31AEA
3DA3BE12
BDC05DBA
3DF57316
BC5F7B57
3DC404FF
BDAD8CBB
BDB8AA89
3C7CEB7E
BDD78E5F
BD87B367
3D97757E
BAC65702
3D90C7B8
3D766CD8
3D600592
3BFE33B3
BDBD181B
BD8D4B29
BC66E28C
3DCB16E0
BD5B9A82
BD9921E3
BD478FFF
BC8B439C
BC44B82A
3D9C7927
BDC5EF36
BDACCA4A
3D99C92B
BBB41E50
3D1DF8E5
BD6B9E96
3D8F2A14
BE0A7A73
BC5DD13A
BD4ABAB0
