3C6650FB
BB6C698D
3E312B9E
BC5215EB
3E9CF121
3D31364B
BD9D35FA
3E85EA42
3E390DC5
3EB5DD6D
3E9F2F21
3D1C3ED5
3E9FAA50
BF21812D
BE946179
3E97E4FB
BC8D1907
BCCA1A93
3D46EF28
3E9C4CBF
BE808616
3E876EFD
3EAC570C
3E8EC116
BD9BF731
BD2F31E3
BDB3B0C5
3E5AF40E
BEDD929F
BEB4A3C2
BE1CFEF8
BF19B8E4
BCF990A5
BE03A897
BD5DEEBE
BCDCECE3
BDF8A48E
3E719FF9
3EABD2AF
3E93C92F
3E2A1078
3E8F17C6
3DEC90EA
3E93D00C
BDAEA727
3E86A2AC
3E8B6CBE
BEC7B2A2
BE01697F
BD37C119
3D1CD3DB
3E7ADE44
BE83E0BE
3CB3558C
BEDDD972
BF3E6729
BEC11782
BE62A371
3BD5BE39
BD65D5EF
3C1289A5
3E3E6B3A
BF2D83C6
BEFDEAC5

